{"<s>":0,"<pad>":1,"</s>":2,"<unk>":3,"<mask>":4,"!":5,"\"":6,"#":7,"$":8,"%":9,"&":10,"'":11,"(":12,")":13,"*":14,"+":15,",":16,"-":17,".":18,"/":19,"0":20,"1":21,"2":22,"3":23,"4":24,"5":25,"6":26,"7":27,"8":28,"9":29,":":30,";":31,"<":32,"=":33,">":34,"?":35,"@":36,"A":37,"B":38,"C":39,"D":40,"E":41,"F":42,"G":43,"H":44,"I":45,"J":46,"K":47,"L":48,"M":49,"N":50,"O":51,"P":52,"Q":53,"R":54,"S":55,"T":56,"U":57,"V":58,"W":59,"X":60,"Y":61,"Z":62,"[":63,"\\":64,"]":65,"^":66,"_":67,"`":68,"a":69,"b":70,"c":71,"d":72,"e":73,"f":74,"g":75,"h":76,"i":77,"j":78,"k":79,"l":80,"m":81,"n":82,"o":83,"p":84,"q":85,"r":86,"s":87,"t":88,"u":89,"v":90,"w":91,"x":92,"y":93,"z":94,"{":95,"|":96,"}":97,"~":98,"¡":99,"¢":100,"£":101,"¤":102,"¥":103,"¦":104,"§":105,"¨":106,"©":107,"ª":108,"«":109,"¬":110,"®":111,"¯":112,"°":113,"±":114,"²":115,"³":116,"´":117,"µ":118,"¶":119,"·":120,"¸":121,"¹":122,"º":123,"»":124,"¼":125,"½":126,"¾":127,"¿":128,"À":129,"Á":130,"Â":131,"Ã":132,"Ä":133,"Å":134,"Æ":135,"Ç":136,"È":137,"É":138,"Ê":139,"Ë":140,"Ì":141,"Í":142,"Î":143,"Ï":144,"Ð":145,"Ñ":146,"Ò":147,"Ó":148,"Ô":149,"Õ":150,"Ö":151,"×":152,"Ø":153,"Ù":154,"Ú":155,"Û":156,"Ü":157,"Ý":158,"Þ":159,"ß":160,"à":161,"á":162,"â":163,"ã":164,"ä":165,"å":166,"æ":167,"ç":168,"è":169,"é":170,"ê":171,"ë":172,"ì":173,"í":174,"î":175,"ï":176,"ð":177,"ñ":178,"ò":179,"ó":180,"ô":181,"õ":182,"ö":183,"÷":184,"ø":185,"ù":186,"ú":187,"û":188,"ü":189,"ý":190,"þ":191,"ÿ":192,"Ā":193,"ā":194,"Ă":195,"ă":196,"Ą":197,"ą":198,"Ć":199,"ć":200,"Ĉ":201,"ĉ":202,"Ċ":203,"ċ":204,"Č":205,"č":206,"Ď":207,"ď":208,"Đ":209,"đ":210,"Ē":211,"ē":212,"Ĕ":213,"ĕ":214,"Ė":215,"ė":216,"Ę":217,"ę":218,"Ě":219,"ě":220,"Ĝ":221,"ĝ":222,"Ğ":223,"ğ":224,"Ġ":225,"ġ":226,"Ģ":227,"ģ":228,"Ĥ":229,"ĥ":230,"Ħ":231,"ħ":232,"Ĩ":233,"ĩ":234,"Ī":235,"ī":236,"Ĭ":237,"ĭ":238,"Į":239,"į":240,"İ":241,"ı":242,"Ĳ":243,"ĳ":244,"Ĵ":245,"ĵ":246,"Ķ":247,"ķ":248,"ĸ":249,"Ĺ":250,"ĺ":251,"Ļ":252,"ļ":253,"Ľ":254,"ľ":255,"Ŀ":256,"ŀ":257,"Ł":258,"ł":259,"Ń":260,"Ġa":261,"Ġt":262,"in":263,"re":264,"Ġs":265,"er":266,"Ġc":267,"Ġth":268,"Ġo":269,"nd":270,"es":271,"Ġp":272,"Ġf":273,"Ġand":274,"Ġb":275,"Ġm":276,"ou":277,"Ġthe":278,"ing":279,"ar":280,"is":281,"at":282,"on":283,"ĠĠ":284,"Ġw":285,"il":286,"it":287,"an":288,"en":289,"Ġre":290,"Ġto":291,"ut":292,"Ġd":293,"al":294,"ic":295,"ed":296,"ro":297,"Ġof":298,"or":299,"Ġg":300,"ip":301,"ak":302,"Ġl":303,"Ġh":304,"as":305,"Ġrec":306,"Ġrecip":307,"Ġthis":308,"ac":309,"ve":310,"Ġco":311,"et":312,"Ġin":313,"Ġrecipe":314,"Ġy":315,"Ġch":316,"Ġyou":317,"ith":318,"Ġ1":319,"Ġwith":320,"ll":321,"ry":322,"Ġfor":323,"le":324,"ree":325,"Ġon":326,"Ġu":327,"Ġmin":328,"ow":329,"ad":330,"Ġe":331,"erv":332,"th":333,"im":334,"Ġit":335,"uc":336,"ver":337,"id":338,"to":339,"am":340,"ent":341,"ĠS":342,"Ġsp":343,"ly":344,"co":345,"Ġbe":346,"gh":347,"oo":348,"ion":349,"pp":350,"Ġis":351,"ake":352,"Ġminut":353,"red":354,"Ġpe":355,"uce":356,"Ġserv":357,"ot":358,"Ġminutes":359,"Ġ2":360,"Ġst":361,"ings":362,"our":363,"Ġmi":364,"ood":365,"eat":366,"ate":367,"veg":368,"Ġda":369,"Ġsal":370,"Ġcoo":371,"Ġ4":372,"Ġr":373,"dd":374,"st":375,"ents":376,"ill":377,"ick":378,"Ġadd":379,"ast":380,"Ġgl":381,"Ġ3":382,"iry":383,"Ġun":384,"Ġsa":385,"ul":386,"ain":387,"ter":388,"Ġveg":389,"ies":390,"uten":391,"Ġfree":392,"Ġmix":393,"um":394,"gar":395,"ian":396,"Ġgluten":397,"ice":398,"til":399,"Ġuntil":400,"Ġn":401,"Ġso":402,"Ġpl":403,"Ġcook":404,"ch":405,"ther":406,"Ġwh":407,"akes":408,"Ġserving":409,"gg":410,"Ġall":411,"Ġfro":412,"Ġsco":413,"Ġsu":414,"eas":415,"free":416,"aking":417,"Ġbut":418,"Ġcon":419,"ine":420,"arian":421,"Ġha":422,"ĠP":423,"Ġpre":424,"Ġscore":425,"Ġsalt":426,"qu":427,"Ġfl":428,"ide":429,"if":430,"ec":431,"Ġper":432,"se":433,"Ġdairy":434,"Ġj":435,"oon":436,"pper":437,"Ġfrom":438,"Ġv":439,"Ġyour":440,"eason":441,"Ġor":442,"ir":443,"ese":444,"Ġle":445,"Ġpepper":446,"ld":447,"etarian":448,"rou":449,"ge":450,"Ġwe":451,"Ġmake":452,"duce":453,"ght":454,"ri":455,"Ġoil":456,"Ġbutter":457,"ices":458,"ure":459,"rot":460,"res":461,"ĠB":462,"Ġsh":463,"ay":464,"Ġov":465,"Ġif":466,"roduce":467,"eese":468,"ĠProduce":469,"ĠĠĠ":470,"Ġsugar":471,"Ġsauce":472,"el":473,"Ġsim":474,"Ġju":475,"ur":476,"Ġare":477,"icken":478,"Ġheat":479,"Ġspoon":480,"ap":481,"ish":482,"ato":483,"easonings":484,"Ġli":485,"Ġbro":486,"Ġfat":487,"Ġas":488,"pices":489,"ĠSeasonings":490,"ĠSpices":491,"Ġegg":492,"Ġinto":493,"ular":494,"out":495,"Ġab":496,"ab":497,"Ġdes":498,"ilk":499,"Ġcre":500,"Ġse":501,"Ġvegetarian":502,"Ġchicken":503,"ach":504,"Ġtakes":505,"Ġover":506,"Ġ5":507,"ew":508,"op":509,"Ġcr":510,"Ġabout":511,"lic":512,"Ġcal":513,"ein":514,"acular":515,"ĠD":516,"Ġprot":517,"Ġgar":518,"Ġprotein":519,"li":520,"Ġrecipes":521,"ture":522,"Ġcalor":523,"Ġother":524,"Ġcalories":525,"ĠE":526,"Ġcover":527,"all":528,"Ġbow":529,"Ġcream":530,"redi":531,"Ġpan":532,"ingredi":533,"Ġingredi":534,"Ġspoonacular":535,"Ġmixture":536,"ĠC":537,"mo":538,"Ġbowl":539,"Ġwat":540,"Ġingredients":541,"ack":542,"ĠO":543,"Ġcan":544,"us":545,"Ġcheese":546,"Ġthings":547,"par":548,"Ġonion":549,"Ġfo":550,"Ġro":551,"ough":552,"Ġstir":553,"ould":554,"av":555,"mon":556,"round":557,"ire":558,"ilar":559,"Ġsimilar":560,"Ġlac":561,"Ġlacto":562,"Ġfew":563,"Ġgarlic":564,"ĠM":565,"ins":566,"wn":567,"Ġan":568,"Ġflour":569,"Ġwater":570,"ĠF":571,"Ġplate":572,"me":573,"Ġapp":574,"Ġone":575,"Ġup":576,"Ġcho":577,"Ġ45":578,"Ġpot":579,"ace":580,"sing":581,"les":582,"Ġtry":583,"Ġbrown":584,"Ġhave":585,"Ġ6":586,"Ġcu":587,"tion":588,"Ġcom":589,"Ġk":590,"Ġhand":591,"Ġgr":592,"ation":593,"Ġrequ":594,"Ġcont":595,"read":596,"Ġoven":597,"side":598,"als":599,"Ġprepar":600,"Ġbaking":601,"ber":602,"ĠBaking":603,"Ġfood":604,"Ġpreparation":605,"Ġlik":606,"Ġby":607,"Ġlemon":608,"Ġoli":609,"edi":610,"Ġplace":611,"ag":612,"Ġtom":613,"Ġdec":614,"eet":615,"Ġpar":616,"ff":617,"ily":618,"Ġtomato":619,"owd":620,"her":621,"Ġdish":622,"ans":623,"Ġ8":624,"erves":625,"ided":626,"oods":627,"ments":628,"ĠFoods":629,"Ġgood":630,"Ġdecided":631,"Ġolive":632,"Ġconside":633,"Ġconsidered":634,"Ġdeserves":635,"Ġpowd":636,"Ġvit":637,"Ġcovers":638,"Ġvitam":639,"ade":640,"Ġminer":641,"Ġrequire":642,"Ġdaily":643,"Ġvitamins":644,"Ġminerals":645,"Ġrequirements":646,"col":647,"asta":648,"ser":649,"Ġcontain":650,"ist":651,"inegar":652,"colate":653,"ant":654,"Ġal":655,"Ġsm":656,"Ġmedi":657,"ie":658,"Ġchocolate":659,"Ġeach":660,"Ġmedium":661,"Ġat":662,"ey":663,"Ġcup":664,"Ġjust":665,"Ġbo":666,"Ġsto":667,"llow":668,"Ġpowder":669,"Ġmo":670,"Ġserves":671,"ople":672,"Ġpeople":673,"Ġcontains":674,"Ġex":675,"Ġ10":676,"ried":677,"Ġlar":678,"Ġremo":679,"ned":680,"Ġthen":681,"Ġtop":682,"ressing":683,"Ġhe":684,"vo":685,"Ġlarge":686,"Ġ7":687,"Ġhas":688,"ring":689,"ggs":690,"ime":691,"airy":692,"ĠDairy":693,"ĠEggs":694,"ĠOther":695,"ĠMilk":696,"Ġjuice":697,"Ġremove":698,"Ġsl":699,"Ġnot":700,"ately":701,"Ġfollow":702,"Ġovo":703,"Ġwell":704,"Ġmain":705,"Ġgre":706,"Ġbl":707,"Ġcake":708,"rim":709,"Ġcour":710,"Ġcomb":711,"Ġcourse":712,"ĠJ":713,"Ġpor":714,"ol":715,"ush":716,"Ġcar":717,"ra":718,"Ġmilk":719,"Ġmight":720,"Ġeggs":721,"Ġ9":722,"Ġcool":723,"ef":724,"Ġcor":725,"oup":726,"nic":727,"thnic":728,"ĠEthnic":729,"uff":730,"Ġmade":731,"ous":732,"om":733,"illa":734,"Ġpotato":735,"Ġbake":736,"ful":737,"mer":738,"nder":739,"Ġser":740,"Ġdi":741,"ching":742,"Ġaround":743,"ĠR":744,"ever":745,"Ġset":746,"very":747,"Ġvegan":748,"Ġvan":749,"oughly":750,"Ġserve":751,"Ġsalad":752,"Ġspr":753,"bs":754,"Ġlet":755,"ust":756,"Ġground":757,"Ġrice":758,"alad":759,"Vinegar":760,"ĠVinegar":761,"ess":762,"ĠSalad":763,"ĠDressing":764,"ĠOil":765,"Ġout":766,"Ġtur":767,"Ġ30":768,"Ġliked":769,"ink":770,"rox":771,"Ġte":772,"Ġapprox":773,"Ġop":774,"Ġvanilla":775,"Ġde":776,"get":777,"ger":778,"Ġwould":779,"Ġhour":780,"ru":781,"Ġside":782,"Ġapproxim":783,"Ġsk":784,"Ġapproximately":785,"Ġbread":786,"resh":787,"sert":788,"arred":789,"ash":790,"Ġfresh":791,"weet":792,"Ġroughly":793,"Ġsoup":794,"anned":795,"ĠCanned":796,"ĠJarred":797,"Ġuse":798,"gether":799,"Ġtogether":800,"ated":801,"ce":802,"Ġpour":803,"ista":804,"Ġfoodista":805,"Ġcut":806,"ally":807,"eal":808,"ĠPasta":809,"Ġboil":810,"ĠRice":811,"est":812,"uts":813,"ables":814,"inger":815,"Ġcombine":816,"ite":817,"Ġdough":818,"Ġcorn":819,"Ġoption":820,"Ġ15":821,"act":822,"ages":823,"Ġcents":824,"oney":825,"vegetarian":826,"Ġveget":827,"ovo":828,"heat":829,"Ġext":830,"con":831,"iz":832,"Ġvery":833,"ole":834,"Ġtomatoes":835,"ks":836,"Ġchil":837,"inn":838,"Ġ20":839,"Ġsmall":840,"Ġsear":841,"Ġgo":842,"Ġwill":843,"berry":844,"Ġz":845,"ĠBever":846,"ĠBeverages":847,"ue":848,"un":849,"ard":850,"Ġtr":851,"Ġhal":852,"Ġdessert":853,"poon":854,"Ġmush":855,"are":856,"able":857,"art":858,"room":859,"Ġen":860,"ich":861,"Ġcould":862,"ig":863,"Ġstore":864,"ee":865,"ĠMeat":866,"Ġsearching":867,"Ġpreheat":868,"aste":869,"Ġmushroom":870,"ss":871,"Ġpick":872,"Ġred":873,"Ġste":874,"'re":875,"Ġseason":876,"Ġleav":877,"Ġhandful":878,"ck":879,"Ġgreen":880,"age":881,"Ġonions":882,"and":883,"conut":884,"illet":885,"ghtly":886,"Ġdiet":887,"Ġginger":888,"Ġaside":889,"lo":890,"Ġfollowing":891,"Ġlow":892,"Ġbeef":893,"Ġroast":894,"heese":895,"ĠCheese":896,"Ġcoconut":897,"Ġroll":898,"Ġsprink":899,"ĠH":900,"Ġthem":901,"Ġ35":902,"igh":903,"Ġlike":904,"ers":905,"Ġ12":906,"ted":907,"Ġev":908,"Ġwhen":909,"ange":910,"Ġbrou":911,"Ġhalf":912,"Ġbrought":913,"isk":914,"Ġservings":915,"sts":916,"Ġhead":917,"ries":918,"ump":919,"Ġmar":920,"Ġcosts":921,"day":922,"Ġpap":923,"ealth":924,"Ġleaves":925,"Ġag":926,"Ġsc":927,"Ġsheet":928,"Ġtoday":929,"Ġim":930,"Ġqu":931,"Ġble":932,"ini":933,"ore":934,"Ġpro":935,"Ġpes":936,"Ġpotatoes":937,"Ġmel":938,"ive":939,"af":940,"Ġsprinkle":941,"Ġmakes":942,"ves":943,"Ġthat":944,"ery":945,"Ġmore":946,"main":947,"Ġpork":948,"Ġwhisk":949,"Ġsweet":950,"acon":951,"eed":952,"ley":953,"Ġbeans":954,"Ġprim":955,"Ġhit":956,"Ġhot":957,"Ġsqu":958,"Ġremain":959,"Ġsimmer":960,"Ġprimal":961,"Ġalmo":962,"Ġbacon":963,"Ġmeat":964,"ale":965,"avor":966,"cc":967,"Ġapple":968,"Ġchip":969,"Ġlime":970,"Ġpi":971,"Ġcooked":972,"Ġtime":973,"Ġpasta":974,"Ġbas":975,"Ġagain":976,"Ġhigh":977,"Ġpars":978,"Ġcookies":979,"Ġwhite":980,"riger":981,"Ġchili":982,"Ġpers":983,"Ġtoo":984,"cess":985,"Ġblack":986,"pl":987,"os":988,"Ġskillet":989,"anan":990,"Ġremaining":991,"Ġcarrot":992,"og":993,"Ġbeat":994,"Ġhoney":995,"Ġperson":996,"ĠN":997,"Ġwor":998,"Ġdeg":999,"Ġparsley":1000,"Ġman":1001,"amon":1002,"Ġinc":1003,"Ġbre":1004,"ns":1005,"Ġpu":1006,"per":1007,"Ġsaut":1008,"innamon":1009,"Ġdr":1010,"Ġinch":1011,"Ġsmoo":1012,"Ġorange":1013,"Ġsod":1014,"Ġsmooth":1015,"Ġpiec":1016,"Ġcinnamon":1017,"az":1018,"Ġpie":1019,"ract":1020,"end":1021,"Ġextract":1022,"Ġbanan":1023,"Ġbring":1024,"Ġusing":1025,"Ġgrill":1026,"zz":1027,"ave":1028,"Ġturn":1029,"atter":1030,"otto":1031,"Ġalmond":1032,"Ġparm":1033,"Ġi":1034,"Ġchop":1035,"Ġtables":1036,"Ġtablespoon":1037,"ile":1038,"fore":1039,"Ġeven":1040,"Ġbefore":1041,"Ġfill":1042,"ĠCo":1043,"Ġear":1044,"Ġstirring":1045,"Ġlay":1046,"Ġsol":1047,"rimp":1048,"Ġspot":1049,"Ġthey":1050,"Ġref":1051,"ft":1052,"pped":1053,"Ġsolid":1054,"sed":1055,"Ġsay":1056,"ud":1057,"Ġseed":1058,"berries":1059,"cat":1060,"Ġshrimp":1061,"Ġbasil":1062,"rees":1063,"Ġme":1064,"Ġmushrooms":1065,"Ġdegrees":1066,"ndim":1067,"Ġpean":1068,"Ġgold":1069,"ti":1070,"Ġtrans":1071,"Ġvegetable":1072,"Ġdry":1073,"âĢ":1074,"one":1075,"Ġ40":1076,"Ġhours":1077,"Ġcooking":1078,"Ġsoda":1079,"Ġice":1080,"Ġbell":1081,"arm":1082,"Ġbr":1083,"Ġearns":1084,"ame":1085,"ia":1086,"Ġtender":1087,"ndiments":1088,"Ġgolden":1089,"Ġclo":1090,"Ġcrum":1091,"fer":1092,"ĠCondiments":1093,"rap":1094,"ined":1095,"esan":1096,"ne":1097,"Ġtw":1098,"Ġvinegar":1099,"Ġcrust":1100,"Ġpescat":1101,"Ġpescatarian":1102,"Ġparmesan":1103,"Ġstock":1104,"Ġpaper":1105,"rt":1106,"Ġsoy":1107,"Ġsoft":1108,"ass":1109,"Ġ25":1110,"Ġwarm":1111,"itt":1112,"ĠHealth":1113,"Ġdo":1114,"Ġwhole":1115,"Ġany":1116,"cakes":1117,"so":1118,"Ġportion":1119,"ound":1120,"Ġ350":1121,"Ġprocess":1122,"Ġ0":1123,"ipp":1124,"acks":1125,"Ġroasted":1126,"Ġpieces":1127,"Ġonce":1128,"ruit":1129,"Ġbotto":1130,"Ġwere":1131,"Ġbottom":1132,"other":1133,"Ġchill":1134,"Ġanother":1135,"Ġtake":1136,"own":1137,"nt":1138,"Ġbad":1139,"umin":1140,"Ġslow":1141,"ilant":1142,"ilantro":1143,"'s":1144,"tt":1145,"Ġtried":1146,"Ġtot":1147,"Ġcilantro":1148,"ican":1149,"Ġseeds":1150,"Ġallow":1151,"Ġwine":1152,"Ġprep":1153,"Ġblue":1154,"Ġdown":1155,"Ġ16":1156,"Ġtotal":1157,"Ġrat":1158,"Ġ11":1159,"Ġrefriger":1160,"Ġeas":1161,"ome":1162,"ect":1163,"urt":1164,"Ġfry":1165,"pan":1166,"ise":1167,"Ġblend":1168,"Ġbanana":1169,"Ġ18":1170,"Ġzest":1171,"Ġimp":1172,"Ġlightly":1173,"ub":1174,"Ġdrain":1175,"aked":1176,"Ġgran":1177,"ble":1178,"Ġput":1179,"Ġlo":1180,"Ġ13":1181,"Ġpeanut":1182,"rough":1183,"Ġthrough":1184,"Ġspread":1185,"Ġoff":1186,"ides":1187,"Ġstick":1188,"Ġbatter":1189,"Ġtaste":1190,"Ġtransfer":1191,"Ġneed":1192,"Ġfig":1193,"Ġrather":1194,"ado":1195,"riend":1196,"ogurt":1197,"ently":1198,"oy":1199,"Ġcur":1200,"Ġyogurt":1201,"raw":1202,"nacks":1203,"Ġavo":1204,"Ġminute":1205,"Ġtwo":1206,"Ġpale":1207,"Ġche":1208,"Ġnut":1209,"ĠSnacks":1210,"Ġri":1211,"Ġbean":1212,"Ġchopped":1213,"Ġalso":1214,"Ġbroth":1215,"Ġsome":1216,"Ġstart":1217,"Ġsquash":1218,"Ġthick":1219,"Ġpo":1220,"kin":1221,"Ġam":1222,"Ġpaste":1223,"Ġsaucepan":1224,"isp":1225,"Ġsides":1226,"lud":1227,"Ġcumin":1228,"Ġshould":1229,"Ġinclud":1230,"Ġgive":1231,"Ġacc":1232,"Ġdried":1233,"ittle":1234,"Ġstuff":1235,"Ġstraw":1236,"joy":1237,"Ġlayer":1238,"Ġavoc":1239,"ull":1240,"Ġbit":1241,"Ġtoss":1242,"Ġenjoy":1243,"ount":1244,"Ġlittle":1245,"ary":1246,"umpkin":1247,"Ġcups":1248,"Ġmuff":1249,"Ġread":1250,"Ġvegetables":1251,"Ġchees":1252,"avy":1253,"Ġbar":1254,"Ġfr":1255,"inach":1256,"Ġ24":1257,"ell":1258,"Ġloo":1259,"ges":1260,"Ġcel":1261,"Ġinclude":1262,"Ġcrack":1263,"yme":1264,"Ġpumpkin":1265,"Ġget":1266,"Ġthyme":1267,"amel":1268,"plet":1269,"Ġmust":1270,"Ġspinach":1271,"Ġcookie":1272,"Ġcomplet":1273,"zen":1274,"Ġsy":1275,"erry":1276,"Ġmay":1277,"riendly":1278,"Ġ14":1279,"Ġnood":1280,"Ġwhile":1281,"key":1282,"rup":1283,"Ġsyrup":1284,"Ġcomplete":1285,"ition":1286,"ams":1287,"ucch":1288,"sem":1289,"Ġpeppers":1290,"Ġcelery":1291,"nut":1292,"Ġcran":1293,"low":1294,"Ġsiz":1295,"Ġrack":1296,"Ġsteak":1297,"Ġwal":1298,"Ġavocado":1299,"Ġcompletely":1300,"Ġshall":1301,"Ġmustard":1302,"ucchini":1303,"Ġdri":1304,"Ġready":1305,"ithic":1306,"Ġ37":1307,"Ġwhich":1308,"olithic":1309,"Ġchips":1310,"Ġpaleolithic":1311,"Ġbaked":1312,"Ġsat":1313,"Ġevenly":1314,"Ġmarin":1315,"Ġmelt":1316,"Ġdrizz":1317,"Ġflakes":1318,"Ġball":1319,"Ġcaramel":1320,"Ġtoast":1321,"Ġsli":1322,"Ġseasoning":1323,"Ġreduce":1324,"Ġzucchini":1325,"Ġonto":1326,"Ġcarrots":1327,"Ġbur":1328,"Ġfin":1329,"map":1330,"ment":1331,"Ġchops":1332,"Ġmelted":1333,"Ġfilling":1334,"Ġcoat":1335,"Ġsaus":1336,"Ġeasy":1337,"Ġoat":1338,"Ġbay":1339,"Ġcooks":1340,"Ġcanned":1341,"Ġsalmon":1342,"Ġsea":1343,"Ġwrap":1344,"vered":1345,"Ġcrisp":1346,"Ġflavor":1347,"Ġturkey":1348,"Ġinst":1349,"dmap":1350,"Ġliqu":1351,"Ġfodmap":1352,"ere":1353,"ok":1354,"Ġform":1355,"ious":1356,"Ġdrizzle":1357,"ĠNuts":1358,"aw":1359,"Ġfir":1360,"ka":1361,"ressed":1362,"Ġslice":1363,"Ġworks":1364,"Ġgently":1365,"Ġcombined":1366,"Ġfish":1367,"ase":1368,"Ġspray":1369,"sa":1370,"Ġtort":1371,"ffee":1372,"ho":1373,"Ġimpressed":1374,"ano":1375,"Ġ32":1376,"tions":1377,"Ġore":1378,"ong":1379,"eci":1380,"Ġdel":1381,"Ġye":1382,"Ġglaz":1383,"Ġcle":1384,"Ġ19":1385,"Ġwhipp":1386,"Ġmixer":1387,"Ġcent":1388,"Ġfact":1389,"Ġcreamy":1390,"ered":1391,"Ġbutters":1392,"Ġdressing":1393,"Ġextra":1394,"sh":1395,"Ġfans":1396,"cco":1397,"Ġfold":1398,"ino":1399,"enne":1400,"eep":1401,"Ġspic":1402,"Ġcontin":1403,"Ġheavy":1404,"Ġslices":1405,"Ġcloves":1406,"Ġed":1407,"Ġca":1408,"ort":1409,"Ġprocessor":1410,"Ġslightly":1411,"Ġsour":1412,"Ġbrowned":1413,"Ġteas":1414,"Ġteaspoon":1415,"na":1416,"Ġyol":1417,"Ġapples":1418,"Ġsausage":1419,"ah":1420,"Ġaf":1421,"ĠJams":1422,"ĠHoney":1423,"ĠNut":1424,"Ġfigure":1425,"Ġstr":1426,"ta":1427,"Ġmap":1428,"Ġwatching":1429,"Ġfoodies":1430,"Ġbreast":1431,"ccoli":1432,"Ġ17":1433,"lower":1434,"Ġmaple":1435,"Ġprett":1436,"Ġtem":1437,"Ġpretty":1438,"umm":1439,"Ġgarn":1440,"go":1441,"Ġwant":1442,"Ġsalsa":1443,"Ġrequi":1444,"Ġkeep":1445,"Ġdelic":1446,"akery":1447,"ened":1448,"cond":1449,"Ġ22":1450,"ĠBread":1451,"fy":1452,"Ġwheat":1453,"ĠBakery":1454,"abb":1455,"Ġmint":1456,"Ġsecond":1457,"Ġcupcakes":1458,"ors":1459,"nuts":1460,"Ġ21":1461,"Ġbroccoli":1462,"Ġliquid":1463,"isfy":1464,"Ġfrost":1465,"Ġfoil":1466,"Ġsatisfy":1467,"ric":1468,"sp":1469,"edd":1470,"Ġmany":1471,"Ġ23":1472,"Ġgarnish":1473,"gin":1474,"Ġes":1475,"Ġonly":1476,"Ġrest":1477,"Ġcurry":1478,"Ġcontinue":1479,"Ġpress":1480,"Ġcrumbs":1481,"Ġtaking":1482,"Ġlook":1483,"Ġrequires":1484,"ight":1485,"Ġhor":1486,"ean":1487,"esame":1488,"Ġback":1489,"Ġend":1490,"Ġno":1491,"Ġdelicious":1492,"Ġsaute":1493,"Ġshallot":1494,"Ġdip":1495,"Ġgranul":1496,"Ġsesame":1497,"Ġher":1498,"Ġcooker":1499,"Ġstuffed":1500,"Ġtart":1501,"Ġsuper":1502,"Ġafter":1503,"ature":1504,"Ġbreak":1505,"ran":1506,"ula":1507,"Ġmango":1508,"Ġaccount":1509,"Ġstill":1510,"Ġfactors":1511,"eddar":1512,"uch":1513,"Ġshred":1514,"health":1515,"Ġnever":1516,"Ġlight":1517,"Ġgrilled":1518,"Ġclean":1519,"bl":1520,"Ġcheddar":1521,"Ġmixing":1522,"Ġtemper":1523,"healthy":1524,"Ġcheesec":1525,"ets":1526,"Ġcenter":1527,"Ġcas":1528,"Ġesp":1529,"Ġgranulated":1530,"pping":1531,"Ġmex":1532,"Ġtemperature":1533,"Ġpine":1534,"Ġdon":1535,"Ġpec":1536,"sal":1537,"itional":1538,"abbage":1539,"Ġfreez":1540,"ired":1541,"ts":1542,"ully":1543,"lco":1544,"holic":1545,"Ġsmo":1546,"Ġleast":1547,"Ġoverall":1548,"Ġblender":1549,"wh":1550,"Ġcl":1551,"Ġcabbage":1552,"Ġfriendly":1553,"coa":1554,"Alco":1555,"gano":1556,"ĠAlco":1557,"Ġtablespoons":1558,"semary":1559,"ĠAlcoholic":1560,"Ġday":1561,"Ġtast":1562,"Ġcocoa":1563,"Ġnoodles":1564,"uv":1565,"Ġlot":1566,"Ġfrosting":1567,"Ġcherry":1568,"iss":1569,"Ġrosemary":1570,"Ġmed":1571,"Ġpapri":1572,"Ġimm":1573,"pic":1574,"ediately":1575,"âĢĻ":1576,"Ġfet":1577,"izz":1578,"Ġimmediately":1579,"Ġpast":1580,"Ġsmok":1581,"serole":1582,"Ġpaprika":1583,"Ġthese":1584,"Ġpeel":1585,"Ġnon":1586,"Ġdesired":1587,"isc":1588,"meal":1589,"Ġkn":1590,"avory":1591,"Ġcasserole":1592,"io":1593,"chment":1594,"Ġparchment":1595,"app":1596,"Ġquino":1597,"Ġstrawberry":1598,"Ġdone":1599,"Ġoregano":1600,"oe":1601,"Ġtill":1602,"Ġpin":1603,"Ġaw":1604,"ark":1605,"Ġcro":1606,"Ġfried":1607,"Ġscr":1608,"Ġpuree":1609,"pical":1610,"Ġevery":1611,"uvre":1612,"Ġcay":1613,"Ġpat":1614,"Ġfork":1615,"Ġflat":1616,"Ġleaf":1617,"Ġcayenne":1618,"Ġprepare":1619,"oeuvre":1620,"ites":1621,"Ġpeas":1622,"Ġexce":1623,"ĠSavory":1624,"ruits":1625,"Ġrolls":1626,"Ġcare":1627,"Ġline":1628,"Ġbrush":1629,"Ġshort":1630,"Ġpizz":1631,"Ġcheesecake":1632,"Ġty":1633,"Ġcoup":1634,"umber":1635,"Ġscall":1636,"Ġmexican":1637,"Ġquinoa":1638,"Ġcouple":1639,"Ġ50":1640,"Ġ42":1641,"Ġribs":1642,"Ġ26":1643,"Ġkos":1644,"Ġkosher":1645,"Ġbag":1646,"Ġhome":1647,"Ġfinish":1648,"Ġglaze":1649,"Ġmac":1650,"Ġwhites":1651,"Ġsure":1652,"Ġstand":1653,"lla":1654,"Ġ27":1655,"Ġchick":1656,"zzare":1657,"ax":1658,"Ġmozzare":1659,"Ġpudd":1660,"alap":1661,"Ġocc":1662,"ucumber":1663,"Ġnuts":1664,"Ġtow":1665,"Ġrefrigerate":1666,"Ġspicy":1667,"Ġtasty":1668,"ared":1669,"Ġpesto":1670,"Ġthicken":1671,"Ġmash":1672,"Ġbet":1673,"Ġtopping":1674,"asion":1675,"Ġblueberry":1676,"Ġcucumber":1677,"Ġjalap":1678,"afood":1679,"Ġwhipped":1680,"Ġoccasion":1681,"Ġcold":1682,"Ġkale":1683,"ded":1684,"Ġpudding":1685,"Ġcuis":1686,"plant":1687,"Ġmozzarella":1688,"Ġoccasionally":1689,"ct":1690,"Ġthin":1691,"Ġcoffee":1692,"Ġcub":1693,"Ġcomes":1694,"Ġyolks":1695,"ĠâĢ":1696,"Ġmeal":1697,"Ġdark":1698,"ĠDried":1699,"ĠFruits":1700,"Ġgoat":1701,"cr":1702,"Ġmuffins":1703,"een":1704,"Ġmy":1705,"salted":1706,"ind":1707,"Ġcuisine":1708,"Ġbab":1709,"Ġround":1710,"Ġsur":1711,"Ġtypical":1712,"orn":1713,"Ġsand":1714,"Ġquick":1715,"row":1716,"Ġ28":1717,"Ġunsalted":1718,"Ġlett":1719,"Ġaut":1720,"Ġpastry":1721,"apple":1722,"Ġpowdered":1723,"Ġwalnuts":1724,"amb":1725,"Ġenough":1726,"Ġshredded":1727,"Ġra":1728,"ecially":1729,"Ġedges":1730,"Ġespecially":1731,"Ġcakes":1732,"iter":1733,"Ġcovered":1734,"Ġeggplant":1735,"Ġad":1736,"Ġsw":1737,"ola":1738,"Ġ29":1739,"Ġfluff":1740,"rigerated":1741,"bo":1742,"ator":1743,"efrigerated":1744,"ĠRefrigerated":1745,"Ġpizza":1746,"Ġreally":1747,"Ġuser":1748,"astic":1749,"ider":1750,"Ġgreat":1751,"wich":1752,"sel":1753,"Ġcoria":1754,"Ġcoriander":1755,"ulif":1756,"Ġprepared":1757,"Ġsandwich":1758,"Ġcol":1759,"Ġne":1760,"Ġenjoyed":1761,"Ġtowel":1762,"Ġsurf":1763,"uliflower":1764,"ection":1765,"Ġsepar":1766,"ummy":1767,"Ġseconds":1768,"Ġpink":1769,"Ġalmonds":1770,"Ġ400":1771,"Ġcand":1772,"ord":1773,"ranean":1774,"iterranean":1775,"Ġtre":1776,"Ġspeed":1777,"azing":1778,"Ġbaby":1779,"oni":1780,"Ġperf":1781,"ips":1782,"umn":1783,"Ġcranberry":1784,"Ġballs":1785,"Ġar":1786,"Ġrefrigerator":1787,"Ġcauliflower":1788,"Ġ36":1789,"umpti":1790,"umptious":1791,"Ġtbs":1792,"Ġrep":1793,"Ġscrumptious":1794,"int":1795,"Ġamazing":1796,"Ġmediterranean":1797,"allow":1798,"dle":1799,"Ġmas":1800,"itch":1801,"meg":1802,"Ġrepeat":1803,"milk":1804,"Ġnutmeg":1805,"Ġflavorful":1806,"Ġautumn":1807,"Ġrub":1808,"ife":1809,"Ġperfect":1810,"Ġgu":1811,"Ġsurface":1812,"Ġic":1813,"Ġfre":1814,"Ġbest":1815,"Ġvir":1816,"Ġleave":1817,"Ġyummy":1818,"Ġstew":1819,"Ġmean":1820,"Ġbars":1821,"Ġscoop":1822,"Ġpancakes":1823,"Ġburger":1824,"Ġlettuce":1825,"Ġvirgin":1826,"'t":1827,"Ġroom":1828,"Ġfeta":1829,"Ġcap":1830,"Ġfruit":1831,"Ġconf":1832,"Ġbuttermilk":1833,"Ġknife":1834,"Ġslowly":1835,"eafood":1836,"Ġamer":1837,"ĠSeafood":1838,"Ġboiling":1839,"while":1840,"ai":1841,"Ġwho":1842,"Ġsize":1843,"Ġfirst":1844,"Ġpineapple":1845,"yle":1846,"Ġslic":1847,"Ġadditional":1848,"Ġdire":1849,"ĠSweet":1850,"Ġboth":1851,"Ġ31":1852,"Ġfrozen":1853,"Ġmeanwhile":1854,"fast":1855,"Ġwire":1856,"Ġpear":1857,"rozen":1858,"Ġstyle":1859,"Ġplastic":1860,"mend":1861,"ereal":1862,"made":1863,"arch":1864,"tur":1865,"Ġcrab":1866,"Ġx":1867,"Ġcider":1868,"Ġspring":1869,"Ġamerican":1870,"rop":1871,"asp":1872,"etti":1873,"Ġind":1874,"idge":1875,"Ġrais":1876,"Ġseparate":1877,"fu":1878,"parag":1879,"ĠFrozen":1880,"Ġmuffin":1881,"paragus":1882,"Ġcrispy":1883,"Ġfine":1884,"Ġho":1885,"Ġchickp":1886,"Ġart":1887,"vers":1888,"Ġtac":1889,"amic":1890,"Ġpul":1891,"ett":1892,"Ġbeg":1893,"Ġsun":1894,"Ġyeast":1895,"ose":1896,"Ġpack":1897,"Ġnow":1898,"Ġ375":1899,"ruc":1900,"Ġsuch":1901,"Ġhow":1902,"Ġspat":1903,"Ġbreakfast":1904,"Ġjalapen":1905,"agh":1906,"ix":1907,"Ġ33":1908,"entil":1909,"Ġrun":1910,"Ġrasp":1911,"Ġasparagus":1912,"ĠâĢĵ":1913,"ives":1914,"Ġ34":1915,"Ġspatula":1916,"Ġtbsp":1917,"ep":1918,"ape":1919,"Ġskin":1920,"ichok":1921,"aghetti":1922,"Ġartichok":1923,"Ġinstruc":1924,"reek":1925,"alsamic":1926,"Ġric":1927,"esome":1928,"Ġbra":1929,"ving":1930,"bread":1931,"Ġpur":1932,"Ġtofu":1933,"Ġspice":1934,"illas":1935,"Ġawesome":1936,"itchen":1937,"Ġinstructions":1938,"Ġwra":1939,"night":1940,"Ġbalsamic":1941,"Ġlentil":1942,"Ġpeach":1943,"cho":1944,"Ġcons":1945,"Ġflax":1946,"Ġmayon":1947,"Ġpecans":1948,"Ġkitchen":1949,"Ġres":1950,"Ġspaghetti":1951,"naise":1952,"ween":1953,"Ġgrah":1954,"Ġdiv":1955,"Ġcrackers":1956,"Ġbetween":1957,"Ġicing":1958,"Ġgraham":1959,"Ġfound":1960,"Ġcranberries":1961,"atch":1962,"Ġshallots":1963,"Ġricot":1964,"enc":1965,"Ġsimp":1966,"Ġbox":1967,"fully":1968,"Ġsage":1969,"ift":1970,"Ġhomemade":1971,"Ġmayonnaise":1972,"Ġway":1973,"Ġscrap":1974,"Ġwork":1975,"Ġdirec":1976,"Ġglass":1977,"Ġgrease":1978,"Ġoatmeal":1979,"Ġusers":1980,"Ġgreek":1981,"Ġovernight":1982,"ail":1983,"Ġretur":1984,"llent":1985,"thing":1986,"Ġvegg":1987,"Ġfreezer":1988,"Ġexcellent":1989,"Ġtremend":1990,"Ġtremendous":1991,"man":1992,"erries":1993,"iddle":1994,"Ġbrownies":1995,"uck":1996,"Ġ55":1997,"ased":1998,"Ġspect":1999,"Ġ39":2000,"Ġbreasts":2001,"Ġherbs":2002,"Ġcarefully":2003,"Ġspectacular":2004,"Ġfour":2005,"Ġtooth":2006,"Ġap":2007,"Ġmic":2008,"Ġlined":2009,"stant":2010,"stand":2011,"Ġ38":2012,"istach":2013,"Ġstrawberries":2014,"Ġmarinade":2015,"crum":2016,"Ġpurp":2017,"Ġricotta":2018,"Ġreturn":2019,"pick":2020,"Ġchives":2021,"Ġsheets":2022,"Ġdivide":2023,"Ġbub":2024,"Ġoutstand":2025,"Ġbreadcrum":2026,"Ġtoothpick":2027,"Ġoutstanding":2028,"Ġpistach":2029,"ĠCereal":2030,"Ġsatisfying":2031,"mallow":2032,"Ġbutternut":2033,"Ġmarsh":2034,"Ġconsist":2035,"Ġmicrow":2036,"Ġmarshmallow":2037,"cake":2038,"ually":2039,"Ġconfection":2040,"mel":2041,"ball":2042,"por":2043,"Ġthan":2044,"ops":2045,"opular":2046,"Ġwalnut":2047,"Ġsn":2048,"Ġfridge":2049,"Ġoats":2050,"Ġmacar":2051,"ency":2052,"Ġtsp":2053,"Ġsit":2054,"ilad":2055,"Ġinsert":2056,"popular":2057,"Ġris":2058,"Ġexcess":2059,"Ġsteam":2060,"Ġalong":2061,"Ġneeded":2062,"Ġsliced":2063,"Ġconsistency":2064,"oc":2065,"ten":2066,"Ġham":2067,"Ġmini":2068,"Ġjam":2069,"ester":2070,"Ġlid":2071,"Ġchun":2072,"Ġ41":2073,"Ġnice":2074,"Ġfluffy":2075,"Ġbreadcrumbs":2076,"Ġbri":2077,"ters":2078,"Ġblended":2079,"Ġfirm":2080,"Ġtortillas":2081,"ĠG":2082,"Ġfillet":2083,"Ġsmoked":2084,"Ġeverything":2085,"Ġmicrowave":2086,"Ġcooled":2087,"Ġmaking":2088,"ang":2089,"routs":2090,"assic":2091,"Ġtoasted":2092,"Ġpurpose":2093,"Ġunco":2094,"Ġconstant":2095,"Ġlee":2096,"Ġconstantly":2097,"Ġsou":2098,"Ġbeen":2099,"aving":2100,"Ġbananas":2101,"met":2102,"Ġ43":2103,"Ġstep":2104,"Ġcubes":2105,"xt":2106,"Ġthor":2107,"iced":2108,"Ġ47":2109,"starch":2110,"cous":2111,"Ġbowls":2112,"Ġcornstarch":2113,"Ġevent":2114,"Ġyellow":2115,"Ġcous":2116,"Ġbun":2117,"Ġcraving":2118,"Ġsized":2119,"Ġthoroughly":2120,"eck":2121,"Ġolives":2122,"Ġnext":2123,"Ġburgers":2124,"Ġjalapeno":2125,"bon":2126,"Ġtin":2127,"thy":2128,"Ġglad":2129,"Ġ60":2130,"Ġincor":2131,"Ġbb":2132,"stick":2133,"Ġincorpor":2134,"Ġused":2135,"Ġcouscous":2136,"ting":2137,"Ġdiced":2138,"Ġinstant":2139,"zel":2140,"Ġwed":2141,"Ġadding":2142,"Ġconfectioners":2143,"he":2144,"Ġele":2145,"Ġcontainer":2146,"Ġpiece":2147,"Ġpulse":2148,"Ġdut":2149,"chilad":2150,"Ġdirections":2151,"Ġmixed":2152,"Ġheal":2153,"arp":2154,"Ġbroil":2155,"ussel":2156,"Ġsem":2157,"Ġenchilad":2158,"Ġblueberries":2159,"Ġstrips":2160,"Ġcolor":2161,"nel":2162,"Ġmiddle":2163,"atin":2164,"Ġfrying":2165,"Ġscallion":2166,"jon":2167,"Ġdrop":2168,"ium":2169,"ling":2170,"inse":2171,"Ġmorn":2172,"Ġrinse":2173,"Ġdijon":2174,"Ġraisins":2175,"Ġmeatball":2176,"Ġwil":2177,"Ġpinch":2178,"ea":2179,"ina":2180,"Ġunder":2181,"Ġarr":2182,"Ġfinger":2183,"Ġtea":2184,"Ġchipot":2185,"Ġchilli":2186,"pot":2187,"Ġcheck":2188,"ctric":2189,"Ġsimple":2190,"Ġelectric":2191,"led":2192,"nch":2193,"Ġdill":2194,"ala":2195,"less":2196,"Ġbbq":2197,"Ġdutch":2198,"Ġsprouts":2199,"chi":2200,"Ġpart":2201,"inning":2202,"Ġdou":2203,"zo":2204,"Ġpuff":2205,"oured":2206,"Ġsub":2207,"bed":2208,"onger":2209,"Ġits":2210,"Ġreserv":2211,"ait":2212,"ced":2213,"ener":2214,"Ġ46":2215,"Ġaccord":2216,"Ġbatch":2217,"Ġinserted":2218,"Ġarrange":2219,"Ġbeer":2220,"ussels":2221,"Ġchipotle":2222,"Ġaccording":2223,"ci":2224,"Ġsame":2225,"Ġeat":2226,"Ġ48":2227,"Ġgreased":2228,"Ġnoodle":2229,"Ġket":2230,"Ġhands":2231,"Ġhealthy":2232,"friendly":2233,"Ġwash":2234,"Ġ49":2235,"Ġmacaroni":2236,"ata":2237,"Ġlonger":2238,"Ġtray":2239,"ara":2240,"Ġlong":2241,"iano":2242,"Ġasian":2243,"Ġcrush":2244,"ized":2245,"Ġturning":2246,"Ġbeginning":2247,"Ġartichoke":2248,"Ġdisc":2249,"imes":2250,"Ġ44":2251,"Ġshell":2252,"Ġloaf":2253,"ette":2254,"ze":2255,"unch":2256,"ricot":2257,"Ġclassic":2258,"just":2259,"alian":2260,"Ġ52":2261,"Ġpans":2262,"ecial":2263,"issol":2264,"Ġthere":2265,"Ġdissol":2266,"Ġspecial":2267,"Ġ54":2268,"ney":2269,"Ġbeco":2270,"Ġtortilla":2271,"Ġstrain":2272,"luten":2273,"Ġfil":2274,"seed":2275,"Ġshape":2276,"Ġbrownie":2277,"Ġsoftened":2278,"Ġ{":2279,"Ġmasala":2280,"Ġrisotto":2281,"Ġthigh":2282,"Ġspices":2283,"Ġfloured":2284,"ipping":2285,"Ġadjust":2286,"pt":2287,"Ġti":2288,"Ġscon":2289,"ita":2290,"acam":2291,"Ġey":2292,"Ġdeep":2293,"Ġcrock":2294,"Ġflaxseed":2295,"acamole":2296,"Ġapricot":2297,"Ġair":2298,"Ġpreheated":2299,"Ġcrumble":2300,"Ġfull":2301,"Ġmous":2302,"Ġinside":2303,"Ġancho":2304,"Ġexp":2305,"Ġguacamole":2306,"melon":2307,"cester":2308,"ates":2309,"Ġdef":2310,"loin":2311,"Ġworcester":2312,"Ġpull":2313,"shire":2314,"Ġraspberry":2315,"Ġworcestershire":2316,"but":2317,"ares":2318,"Ġver":2319,"oriz":2320,"Ġcoated":2321,"ummer":2322,"Ġnec":2323,"Ġsquares":2324,"Ġchilled":2325,"orizo":2326,"Ġfit":2327,"Ġsalted":2328,"Ġchickpeas":2329,"Ġem":2330,"Ġjuices":2331,"Ġmoist":2332,"Ġuncovered":2333,"ca":2334,"Ġbeets":2335,"arse":2336,"Ġcoarse":2337,"Ġchorizo":2338,"iff":2339,"Ġ65":2340,"Ġinches":2341,"Ġpeanuts":2342,"Ġclove":2343,"Ġsemi":2344,"Ġmeatballs":2345,"Ġitalian":2346,"ached":2347,"Ġkne":2348,"Ġscones":2349,"Ġknead":2350,"rant":2351,"Ġflip":2352,"part":2353,"Ġgrad":2354,"essary":2355,"Ġskew":2356,"Ġrib":2357,"Ġpackage":2358,"Ġenchilada":2359,"Ġcave":2360,"Ġbu":2361,"Ġwood":2362,"veral":2363,"aster":2364,"Ġseveral":2365,"Ġsquee":2366,"Ġcandy":2367,"Ġfrench":2368,"Ġanchov":2369,"Ġcaveman":2370,"Ġwet":2371,"Ġdiscard":2372,"Ġgradually":2373,"bles":2374,"ton":2375,"ream":2376,"Ġwhip":2377,"Ġ56":2378,"Ġtimes":2379,"Ġsummer":2380,"Ġfix":2381,"its":2382,"orm":2383,"Ġchin":2384,"Ġwedges":2385,"Ġnecessary":2386,"sor":2387,"up":2388,"Ġsee":2389,"Ġ57":2390,"Ġapart":2391,"Ġbon":2392,"Ġwhipping":2393,"Ġveggies":2394,"ied":2395,"Ġequ":2396,"Ġ59":2397,"Ġalmost":2398,"Ġ325":2399,"Ġfinely":2400,"Ġwatermelon":2401,"Ġchile":2402,"Ġthickened":2403,"Ġscrape":2404,"ised":2405,"Ġgrain":2406,"Ġpatt":2407,"Ġthighs":2408,"Ġmousse":2409,"der":2410,"Ġlamb":2411,"Ġbegin":2412,"ster":2413,"Ġstem":2414,"luc":2415,"wise":2416,"inite":2417,"Ġ58":2418,"Ġreduc":2419,"Ġdefinite":2420,"Ġdefinitely":2421,"Ġhard":2422,"Ġabsor":2423,"Ġcanola":2424,"Ġtransluc":2425,"Ġfillets":2426,"Ġwooden":2427,"Ġbrussels":2428,"Ġlovers":2429,"Ġincorporated":2430,"Ġsift":2431,"che":2432,"Ġ53":2433,"Ġtranslucent":2434,"flower":2435,"Ġbour":2436,"meric":2437,"Ġturmeric":2438,"Ġdep":2439,"Ġcaramelized":2440,"bled":2441,"Ġmashed":2442,"gr":2443,"Ġaru":2444,"Ġmuch":2445,"Ġ51":2446,"ign":2447,"Ġdont":2448,"Ġarug":2449,"Ġcash":2450,"ater":2451,"ppy":2452,"Ġsoak":2453,"Ġshake":2454,"Ġtops":2455,"Ġheart":2456,"Ġsunflower":2457,"Ġfixable":2458,"Ġcashew":2459,"way":2460,"tte":2461,"Ġpistachio":2462,"vable":2463,"Ġfavor":2464,"Ġfud":2465,"irc":2466,"acha":2467,"Ġ200":2468,"Ġamount":2469,"Ġbarb":2470,"Ġscallions":2471,"mas":2472,"rette":2473,"Ġfully":2474,"Ġgum":2475,"Ġcard":2476,"Ġglazed":2477,"Ġfreeze":2478,"Ġindian":2479,"Ġsqueeze":2480,"ness":2481,"Ġgel":2482,"Ġchia":2483,"Ġvina":2484,"Ġgrated":2485,"igrette":2486,"Ġcracker":2487,"Ġvinaigrette":2488,"hy":2489,"Ġcirc":2490,"Ġpol":2491,"Ġgrap":2492,"Ġcheesy":2493,"ella":2494,"Ġbuns":2495,"sci":2496,"utto":2497,"Ġdump":2498,"Ġnote":2499,"Ġbatches":2500,"Ġchinese":2501,"Ġfavorite":2502,"sciutto":2503,"ĠĠĠĠ":2504,"Ġ68":2505,"Ġburn":2506,"Ġyolk":2507,"Ġarugula":2508,"Âł":2509,"ipe":2510,"enta":2511,"Ġ72":2512,"Ġstuffing":2513,"Ġfrag":2514,"Ġquickly":2515,"Ġtacos":2516,"Ġpatties":2517,"Ġdepend":2518,"Ġbisc":2519,"Ġgn":2520,"Ġlas":2521,"Ġplatter":2522,"elp":2523,"Ġseal":2524,"rawn":2525,"Ġherb":2526,"Ġtaco":2527,"Ġbiscu":2528,"Ġgener":2529,"Ġlast":2530,"Ġbeet":2531,"irl":2532,"Ġheated":2533,"Ġroasting":2534,"Ġimpro":2535,"occhi":2536,"Ġdouble":2537,"Ġgnocchi":2538,"gs":2539,"Ġtun":2540,"ory":2541,"illan":2542,"Ġ75":2543,"Ġlower":2544,"Ġsodium":2545,"Ġwrapper":2546,"Ġchunks":2547,"Ġpolenta":2548,"Ġfragrant":2549,"rir":2550,"ved":2551,"quently":2552,"Ġprosciutto":2553,"Ġcracked":2554,"Ġfrequently":2555,"Ġbrie":2556,"Ġimprovable":2557,"rist":2558,"Ã©":2559,"Ġsrir":2560,"Ġfreshly":2561,"orean":2562,"Ġcapers":2563,"Ġleek":2564,"Ġreserved":2565,"auce":2566,"ier":2567,"Ġminced":2568,"Ġscallops":2569,"Ġlasag":2570,"ristmas":2571,"Ġsriracha":2572,"Ġrot":2573,"ating":2574,"amom":2575,"Ġ64":2576,"Ġvanillan":2577,"Ġcardamom":2578,"Ġ?":2579,"Ġtam":2580,"Ġprawn":2581,"Ġfen":2582,"Ġmins":2583,"Ġ61":2584,"Ġ70":2585,"Ġcooling":2586,"Ġ425":2587,"Ġrunn":2588,"Ġfourth":2589,"bly":2590,"Ġdust":2591,"Ġnect":2592,"Ġsmoothie":2593,"Ġspiced":2594,"Ġapplesauce":2595,"Ġanchovy":2596,"Ġbarbec":2597,"Ġnectar":2598,"Â°":2599,"Ġchristmas":2600,"Ġsav":2601,"Ġjuly":2602,"Ġwraps":2603,"away":2604,"Ġlasagna":2605,"Ġpop":2606,"Ġmg":2607,"arb":2608,"Ġpeak":2609,"Ġsharp":2610,"Ġ69":2611,"Ġstove":2612,"Ġtex":2613,"Ġfigs":2614,"Ġsteaks":2615,"Ġshallow":2616,"Ġlooking":2617,"cream":2618,"Ġthai":2619,"Ġold":2620,"ats":2621,"Ġcherries":2622,"lease":2623,"adish":2624,"chup":2625,"Ġketchup":2626,"Ġcrushed":2627,"use":2628,"Ġthree":2629,"Ġhumm":2630,"Ġ66":2631,"Ġ79":2632,"Ġright":2633,"Ġpecan":2634,"uring":2635,"Ġ76":2636,"Ġleaving":2637,"Ġpoint":2638,"Ġfudge":2639,"Ġgenerous":2640,"Ġpound":2641,"Ġrum":2642,"Ġpres":2643,"ably":2644,"ĠFree":2645,"Ġincre":2646,"Ġgranola":2647,"Ġtartar":2648,"ĠGluten":2649,"ens":2650,"ence":2651,"thern":2652,"Ġprefer":2653,"ird":2654,"Ġedge":2655,"Ġbraised":2656,"pe":2657,"Ġpies":2658,"Ġkorean":2659,"Ġstarts":2660,"Ġexcept":2661,"jun":2662,"Ġpr":2663,"anch":2664,"Ġspend":2665,"ache":2666,"Ġ63":2667,"Ġ67":2668,"serve":2669,"Ġgreens":2670,"Ġtuna":2671,"Ġfennel":2672,"ko":2673,"Ġir":2674,"Ġlad":2675,"Ġassem":2676,"Ġ180":2677,"Ġhummus":2678,"fish":2679,"ourmet":2680,"Ġopen":2681,"Ġwrapped":2682,"Ġac":2683,"Ġwok":2684,"Ġeaster":2685,"que":2686,"tail":2687,"Ġsandwiches":2688,"Ġberries":2689,"Ġdipping":2690,"ield":2691,"Ġ71":2692,"inner":2693,"Ġdays":2694,"Ġaway":2695,"Ġtip":2696,"Ġbone":2697,"vel":2698,"tern":2699,"Ġkid":2700,"Ġ93":2701,"Ġsticks":2702,"head":2703,"Ġsavory":2704,"'ve":2705,"ky":2706,"Ġspri":2707,"stard":2708,"Ġjo":2709,"Ġcustard":2710,"Ġ83":2711,"Ġmarinate":2712,"Ġhold":2713,"Ġmarshmallows":2714,"Ġgelatin":2715,"via":2716,"Ġberry":2717,"Ġcoll":2718,"Ġel":2719,"Ġplum":2720,"Ġorzo":2721,"Ġ87":2722,"Ġcornmeal":2723,"Ġsticky":2724,"Ġlentils":2725,"de":2726,"Ġmet":2727,"Ġhelp":2728,"Ġbund":2729,"Ġreduced":2730,"gn":2731,"Ġgan":2732,"Ġwithout":2733,"Ġhazel":2734,"Ġslaw":2735,"Ġsouthern":2736,"hub":2737,"Ġtou":2738,"Ġmeas":2739,"anges":2740,"Ġpanko":2741,"Ġ62":2742,"Ġ95":2743,"Ġstevia":2744,"Ġtenderloin":2745,"Ġganache":2746,"hubarb":2747,"Ġsec":2748,"Ġwas":2749,"itr":2750,"enty":2751,"Ġrise":2752,"easy":2753,"Ġ82":2754,"Ġatt":2755,"Ġ90":2756,"Ġcutting":2757,"Ġagave":2758,"Ġquart":2759,"Ġwhisking":2760,"Ġteaspoons":2761,"Ġnonstick":2762,"Ġexpand":2763,"Ġprawns":2764,"of":2765,"Ġgh":2766,"cktail":2767,"ioli":2768,"Ġemail":2769,"Ġdepending":2770,"Ġahead":2771,"ars":2772,"Ġwon":2773,"elt":2774,"Ġ89":2775,"Ġbits":2776,"Ġseared":2777,"Ġflatten":2778,"Ġbarbecue":2779,"fe":2780,"esh":2781,"Ġreserve":2782,"Ġyield":2783,"Ġraw":2784,"Ġcajun":2785,"Ġeye":2786,"Ġgumbo":2787,"gu":2788,"gth":2789,"iv":2790,"oul":2791,"Ġmost":2792,"Ġoy":2793,"Ġrhubarb":2794,"Ġ86":2795,"Ġ88":2796,"Ġboard":2797,"Ġmol":2798,"Ġrefried":2799,"Ġpeaks":2800,"cor":2801,"Ġcond":2802,"chicken":2803,"agon":2804,"iche":2805,"Ġmargar":2806,"Ġbeating":2807,"Ġdoes":2808,"Ġabsorbed":2809,"Ġpic":2810,"Ġ81":2811,"ible":2812,"ual":2813,"Ġpal":2814,"Ġbig":2815,"Ġcocktail":2816,"ribut":2817,"Ġalumin":2818,"Ġrolling":2819,"Ġparmig":2820,"Ġcareful":2821,"Ġaluminum":2822,"ib":2823,"pes":2824,"Ġspelt":2825,"ook":2826,"Ġrind":2827,"Ġsund":2828,"Ġ73":2829,"Ġmarinated":2830,"Ġpears":2831,"Ġchickpea":2832,"Ġincrease":2833,"iving":2834,"alo":2835,"Ġlen":2836,"verage":2837,"Ġrom":2838,"Ġ77":2839,"asses":2840,"Ġcandied":2841,"cause":2842,"Ġghee":2843,"Ġconden":2844,"Ġcod":2845,"Ġbecause":2846,"Ġroot":2847,"Ġlength":2848,"Ġcondensed":2849,"sweet":2850,"Ġent":2851,"Ġpenne":2852,"Ġtheir":2853,"Ġbeverage":2854,"Ġ94":2855,"tight":2856,"Ġswirl":2857,"Ġtowels":2858,"Ġraspberries":2859,"Ġairtight":2860,"fait":2861,"Ġcott":2862,"Ġparfait":2863,"Ġ91":2864,"Ġ96":2865,"Ġoptional":2866,"Ġbran":2867,"Ġcrusted":2868,"Ġfinished":2869,"Ġswiss":2870,"ĠGourmet":2871,"Ġtightly":2872,"Ġtrim":2873,"Ġcitr":2874,"Ġmon":2875,"Ġduck":2876,"Ġsafe":2877,"Ġoranges":2878,"Ġ78":2879,"Ġbites":2880,"Ġfingers":2881,"ank":2882,"Ġreach":2883,"Ġoften":2884,"Ġlin":2885,"Ġplant":2886,"Ġsauteed":2887,"Ġnutr":2888,"Ġthickness":2889,"spice":2890,"Ġtouch":2891,"aff":2892,"Ġsing":2893,"Ġseasonings":2894,"Ġfar":2895,"Ġfall":2896,"Ġbul":2897,"Ġmer":2898,"Ġaddition":2899,"Ġpeppercor":2900,"Ġgaram":2901,"Ġ74":2902,"Ġhalves":2903,"Ġpeppercorns":2904,"ios":2905,"Ġwings":2906,"Ġcrunch":2907,"Ġgravy":2908,"Ġpeaches":2909,"Ġbecome":2910,"Ġkidney":2911,"ening":2912,"Ġplain":2913,"ggiano":2914,"Ġ92":2915,"uffalo":2916,"Ġhalfway":2917,"Tea":2918,"ĠTea":2919,"Ġfive":2920,"Ġdinner":2921,"Ġpret":2922,"Ġwee":2923,"Ġchiles":2924,"ĠCoffee":2925,"Ġclose":2926,"Ġpistachios":2927,"Ġstiff":2928,"Ġ84":2929,"Ġremoving":2930,"Ġcornbread":2931,"Ġbiscuits":2932,"baked":2933,"Ġcupcake":2934,"Ġfritt":2935,"Ġrubber":2936,"Ġverde":2937,"Ġmolasses":2938,"Ġparmigiano":2939,"giving":2940,"Ġtah":2941,"Ġbis":2942,"Ġserved":2943,"Ġrav":2944,"Ġprev":2945,"Ġdegree":2946,"Ġcurd":2947,"Ġpoppy":2948,"ensive":2949,"Ġnutritional":2950,"Ġsingle":2951,"Ġpretzel":2952,"Ġtahini":2953,"Ġwait":2954,"Ġreggiano":2955,"amp":2956,"Ġspl":2957,"Ġrim":2958,"Ġallspice":2959,"Ġspoonful":2960,"Ġ98":2961,"Ġoreo":2962,"Ġveggie":2963,"Ġthanks":2964,"Ġwild":2965,"Ġbite":2966,"Ġrelease":2967,"llo":2968,"aded":2969,"Ġpancake":2970,"Ġrock":2971,"Ġdecor":2972,"Ġdoll":2973,"Ġeasily":2974,"Ġshortening":2975,"Ġbroiler":2976,"Ġstems":2977,"Ġladle":2978,"Ġbuffalo":2979,"Ġdist":2980,"Ġplenty":2981,"Ġfilled":2982,"Ġattach":2983,"dr":2984,"mes":2985,"ingu":2986,"arr":2987,"Ġstar":2988,"Ġjack":2989,"resso":2990,"Ġlemons":2991,"ieve":2992,"olan":2993,"Ġsoften":2994,"Ġskewer":2995,"Ġassemble":2996,"Ġsprigs":2997,"Ġess":2998,"Ġthird":2999,"Ġpops":3000,"Ġfi":3001,"Ġreg":3002,"Ġcome":3003,"etta":3004,"Ġflesh":3005,"Ġ80":3006,"Ġ85":3007,"Ġens":3008,"Ġsimmering":3009,"Ġnutella":3010,"Ġmarinara":3011,"Ġbourbon":3012,"Ġthanksgiving":3013,"form":3014,"lish":3015,"Ġchard":3016,"Ġcorned":3017,"ellini":3018,"Ġespresso":3019,"Ġleeks":3020,"fto":3021,"ity":3022,"Ġtopped":3023,"Ġlump":3024,"Ġorig":3025,"ago":3026,"Ġlayers":3027,"Ġbitters":3028,"Ġpressure":3029,"Ġbetter":3030,"Ġshells":3031,"Ġorigin":3032,"Ġlingu":3033,"Ġplac":3034,"Ġdissolved":3035,"Ġcitrus":3036,"Ġfiber":3037,"Ġfriend":3038,"Ġsubs":3039,"Ġval":3040,"Ġlefto":3041,"Ġaltern":3042,"Ġchilies":3043,"Ġbegins":3044,"Ġartichokes":3045,"cent":3046,"Ġmil":3047,"Ġdice":3048,"Ġlater":3049,"Ġchowd":3050,"cook":3051,"Ġpea":3052,"Ġgrind":3053,"Ġcaraway":3054,"merara":3055,"Ġdemerara":3056,"Ġtortellini":3057,"Ġends":3058,"Ġworking":3059,"Ġbundt":3060,"Ġmargarine":3061,"Ġravioli":3062,"Ġprevent":3063,"Ġdistribut":3064,"Ġchowder":3065,"ty":3066,"ug":3067,"Ġact":3068,"Ġther":3069,"llini":3070,"efruit":3071,"Ġcutter":3072,"Ġindiv":3073,"Ġbrand":3074,"Ġgrapefruit":3075,"Ġtexture":3076,"Ġoyster":3077,"Ġplantain":3078,"Ġattachment":3079,"Ġindivid":3080,"carp":3081,"ik":3082,"iago":3083,"Ġwax":3084,"ucc":3085,"Ġasiago":3086,"Ġcrepes":3087,"Ġupside":3088,"Ġgrate":3089,"run":3090,"Ġsquare":3091,"Ġbase":3092,"Ġposs":3093,"Ġthickens":3094,"Ġbecomes":3095,"hydr":3096,"Ġdollop":3097,"Ġthermo":3098,"carpone":3099,"med":3100,"Ġtil":3101,"Ġchut":3102,"Ġflore":3103,"Ġcreme":3104,"Ġgratin":3105,"Ġ97":3106,"Ġques":3107,"Ġblackberry":3108,"ĠsautÃ©":3109,"Ġbarley":3110,"Ġsmoke":3111,"Ġthinly":3112,"Ġrounds":3113,"Ġsteamed":3114,"grass":3115,"13":3116,"lings":3117,"tang":3118,"urop":3119,"Ġreas":3120,"alay":3121,"aker":3122,"Ġeurop":3123,"gel":3124,"apor":3125,"Ġcompot":3126,"Ġker":3127,"Ġoutside":3128,"Ġevapor":3129,"nellini":3130,"Ġfrittata":3131,"Ġchutney":3132,"Ġreason":3133,"Ġeuropean":3134,"Ġcompote":3135,"ja":3136,"wood":3137,"rocc":3138,"Ġadded":3139,"Ġlemongrass":3140,"Ġzip":3141,"âĢĿ":3142,"Ġfind":3143,"Ġsnow":3144,"Ġsouth":3145,"Ġdumplings":3146,"Ġgenerously":3147,"arragon":3148,"roccan":3149,"ĠÂ":3150,"Ġaff":3151,"anish":3152,"Ġstre":3153,"Ġgoing":3154,"Ġseasoned":3155,"Ġpier":3156,"Ġjalape":3157,"sticks":3158,"Ġessence":3159,"Ġbittersweet":3160,"tain":3161,"Ġtarragon":3162,"Ġpad":3163,"itas":3164,"iday":3165,"Ġradish":3166,"Ġshap":3167,"Ġsugars":3168,"Ġslot":3169,"Ġquiche":3170,"Ġmascarpone":3171,"chocolate":3172,"Ġapricots":3173,"ove":3174,"sen":3175,"Ã¨":3176,"Ġwide":3177,"Ġrectang":3178,"illed":3179,"terol":3180,"Ġnew":3181,"Ġflame":3182,"eless":3183,"Ġcreate":3184,"Ġcholes":3185,"Ġkr":3186,"Ġamp":3187,"Ġbubbles":3188,"Ġboneless":3189,"Ġtamar":3190,"Ġpossible":3191,"Ġthermomet":3192,"Ġcholesterol":3193,"cl":3194,"Ġtie":3195,"Ġfash":3196,"ance":3197,"Ġlift":3198,"Ġstal":3199,"Ġabove":3200,"Ġcannellini":3201,"Ġ450":3202,"inness":3203,"Ġtruff":3204,"Ġfinally":3205,"Ġcrockpot":3206,"Ġequal":3207,"ignon":3208,"Ġrunning":3209,"Ġlengthwise":3210,"Ġkernel":3211,"Ġslotted":3212,"Ġthermometer":3213,"root":3214,"Ġrame":3215,"Ġpanc":3216,"Ġgrab":3217,"Ġsmaller":3218,"Ġcrusty":3219,"Ġcross":3220,"Ġfarro":3221,"Ġensure":3222,"Ġfashion":3223,"mini":3224,"ny":3225,"pro":3226,"ron":3227,"Ġtap":3228,"Ġcoti":3229,"urger":3230,"Ġbrowning":3231,"Ġmoder":3232,"Ġhere":3233,"Ġloin":3234,"Ġloaded":3235,"Ġfrit":3236,"Ġspringform":3237,"Ġcircle":3238,"Ġliners":3239,"Ġcotija":3240,"car":3241,"Ġranch":3242,"stit":3243,"vol":3244,"Ġblog":3245,"Ġboiled":3246,"Ġshortbread":3247,"Ġkernels":3248,"iet":3249,"uk":3250,"Ġthaw":3251,"Ġfries":3252,"ath":3253,"anese":3254,"ither":3255,"ente":3256,"Ġrings":3257,"Ġjell":3258,"ished":3259,"acho":3260,"Ġgrape":3261,"Ġskim":3262,"Ġtrip":3263,"Ġmayo":3264,"bling":3265,"Ġsnap":3266,"Ġskewers":3267,"Ġpalm":3268,"Ġflorets":3269,"stitut":3270,"corn":3271,"Ġpunch":3272,"Ġbou":3273,"Ġeither":3274,"Ġrig":3275,"Ġsaff":3276,"Ġbuttercream":3277,"urated":3278,"apanese":3279,"Ġfoam":3280,"Ġcarbo":3281,"Ġ99":3282,"Ġquar":3283,"Ġpubl":3284,"ordable":3285,"Ġscraping":3286,"Ġfilets":3287,"Ġprint":3288,"Ġiron":3289,"Ġaffordable":3290,"Ġkrisp":3291,"Ġcarbohydr":3292,"ban":3293,"Ġpure":3294,"Ġhamb":3295,"Ġram":3296,"Ġplates":3297,"berg":3298,"Ġbolo":3299,"Ġcrumbled":3300,"Ġmelts":3301,"Ġflavors":3302,"Ġcucumbers":3303,"alloween":3304,"Ġcashews":3305,"gnese":3306,"Ġregular":3307,"Ġoriginally":3308,"Ġpublished":3309,"Ġhamburger":3310,"Ġbolognese":3311,"'ll":3312,"book":3313,"gre":3314,"Ġpil":3315,"Ġdash":3316,"Ġdente":3317,"road":3318,"asted":3319,"Ġwhat":3320,"Ġflank":3321,"ewy":3322,"Ġangel":3323,"Ġprovol":3324,"Ġbrisk":3325,"Ġclams":3326,"Ġchunky":3327,"Ġsubstitut":3328,"Ġdissolve":3329,"Ġeastern":3330,"Ġweek":3331,"Ġactive":3332,"Ġfashioned":3333,"Ġprovolone":3334,"meat":3335,"tucc":3336,"uf":3337,"Ġer":3338,"Ġsieve":3339,"Ġok":3340,"Ġrepl":3341,"Ġrolled":3342,"Ġmaplewood":3343,"Ġfettucc":3344,"tons":3345,"Ġpressing":3346,"Ġhazelnuts":3347,"Ġentire":3348,"Ġvalent":3349,"Ġramen":3350,"Ġmaplewoodroad":3351,"ex":3352,"su":3353,"tch":3354,"Ġ'":3355,"Ġpric":3356,"Ġfe":3357,"Ġmat":3358,"ouette":3359,"Ġreached":3360,"Ġhus":3361,"adas":3362,"vert":3363,"amese":3364,"Ġjar":3365,"Ġleft":3366,"Ġrose":3367,"Ġappet":3368,"Ġhandle":3369,"Ġmoroccan":3370,"aret":3371,"Ġsaturated":3372,"iscus":3373,"ambalay":3374,"Ġraisin":3375,"ibiscus":3376,"Ġreaches":3377,"Ġreasonably":3378,"Ġtamarind":3379,"Ġpriced":3380,"be":3381,"lets":3382,"Ġau":3383,"Ġomel":3384,"Ġfa":3385,"iso":3386,"Ġtost":3387,"lemon":3388,"Ġmine":3389,"Ġbeing":3390,"Ġracks":3391,"Ġunsweet":3392,"iang":3393,"Ġleche":3394,"Ġtriang":3395,"loaf":3396,"Ġscatter":3397,"Ġsweetened":3398,"Ġmeatloaf":3399,"Ġstarting":3400,"Ġsausages":3401,"Ġpinto":3402,"Ġnear":3403,"Ġguinness":3404,"Ġwrappers":3405,"Ġindividual":3406,"Ġtilap":3407,"Ġunsweetened":3408,"ba":3409,"iy":3410,"Ġsir":3411,"Ġpos":3412,"Ġstarch":3413,"Ġport":3414,"mers":3415,"Ġpickled":3416,"Ġturno":3417,"Ġeasier":3418,"Ġcube":3419,"Ġbubbly":3420,"Ġincorporate":3421,"hyllo":3422,"Ġcarbohydrate":3423,"kins":3424,"inter":3425,"Ġphyllo":3426,"ingue":3427,"ito":3428,"Ġhalloween":3429,"Ġchur":3430,"Ġnest":3431,"Ġjapanese":3432,"Ġmother":3433,"oliday":3434,"Ġskins":3435,"Ġamaret":3436,"Ġsizz":3437,"Ġwilted":3438,"Ġhearts":3439,"Ġmeringue":3440,"Ġsaffron":3441,"namese":3442,"Ġcres":3443,"Ġcav":3444,"Ġpipe":3445,"ative":3446,"atoni":3447,"Ġwaff":3448,"iled":3449,"Ġless":3450,"Ġhibiscus":3451,"Ġskinless":3452,"Ġstrainer":3453,"Ġfitted":3454,"Ġjoin":3455,"Ġmild":3456,"proof":3457,"ietnamese":3458,"cm":3459,"mber":3460,"Ġtab":3461,"Ġcast":3462,"isser":3463,"Ġreal":3464,"Ġchewy":3465,"Ġflav":3466,"eseed":3467,"Ġflours":3468,"Ġgets":3469,"Ġfacts":3470,"Ġramekins":3471,"Ġpilaf":3472,"Ġbrisket":3473,"Ġposition":3474,"isserie":3475,"aut":3476,"ma":3477,"ven":3478,"Ġtest":3479,"Ġcrou":3480,"Ġdate":3481,"roasted":3482,"ados":3483,"Ġjambalay":3484,"Ġappe":3485,"ogs":3486,"Ġdrum":3487,"Ġ160":3488,"Ġgranolan":3489,"Ġloosen":3490,"Ġcentre":3491,"Ġ500":3492,"Ġequals":3493,"Ġmeasuring":3494,"Ġleftover":3495,"Ġsouthw":3496,"Ġappetiz":3497,"Ġtostadas":3498,"ao":3499,"gran":3500,"obo":3501,"wheat":3502,"Ġcm":3503,"Ġjul":3504,"Ġoiled":3505,"Ġmold":3506,"Ġ300":3507,"Ġgingerbread":3508,"Ġlove":3509,"Ġcurried":3510,"Ġclear":3511,"Ġscram":3512,"Ġadobo":3513,"Ġreserving":3514,"Ġtik":3515,"Ġromano":3516,"Ġtriple":3517,"Ġsirloin":3518,"mix":3519,"Ġoz":3520,"Ġbud":3521,"atill":3522,"Ġwinter":3523,"Ġorder":3524,"ress":3525,"Ġmarsal":3526,"Ġslicing":3527,"Ġjalapenos":3528,"Ġnicely":3529,"Ġfingerling":3530,"Ġrunny":3531,"Ġsunday":3532,"Ġstalks":3533,"Ġfritters":3534,"Ġrigatoni":3535,"Ġfeel":3536,"Ġturnovers":3537,"granate":3538,"Ġmarsala":3539,"can":3540,"fus":3541,"gluten":3542,"mint":3543,"Ġcat":3544,"Ġbru":3545,"Ġtoffee":3546,"ross":3547,"Ġgor":3548,"Ġholiday":3549,"Ġsherry":3550,"Ġcremini":3551,"Ġseafood":3552,"Ġingredient":3553,"Ġchoice":3554,"Ġtomatill":3555,"Ġslid":3556,"Ġshrimps":3557,"Ġcoating":3558,"Ġparty":3559,"grilled":3560,"Ġmetal":3561,"Ġrimmed":3562,"Ġlumps":3563,"Ġevaporated":3564,"Ġdrumsticks":3565,"aise":3566,"ds":3567,"eur":3568,"mat":3569,"Ġsor":3570,"Ġbuck":3571,"Ġmus":3572,"Ġger":3573,"Ġus":3574,"Ġspanish":3575,"Ġnat":3576,"cha":3577,"Ġlean":3578,"Ġsprinkles":3579,"Ġsweetener":3580,"Ġbeaten":3581,"Ġavocados":3582,"Ġsimply":3583,"Ġbubble":3584,"Ġcoarsely":3585,"Ġbourgu":3586,"Ġrotisserie":3587,"Ġacross":3588,"Ġtilapia":3589,"Ġbourguignon":3590,"py":3591,"Ã±":3592,"Ġprun":3593,"Ġrelish":3594,"aki":3595,"Ġinfus":3596,"Ġchar":3597,"Ġever":3598,"the":3599,"Ġrou":3600,"Ġrag":3601,"Ġna":3602,"Ġvietnamese":3603,"Ġparts":3604,"Ġdev":3605,"ards":3606,"Ġmeant":3607,"Ġbottomed":3608,"Ġliqueur":3609,"Ġcrabmeat":3610,"Ġprunes":3611,"Ġinfused":3612,"bor":3613,"ken":3614,"Ġsil":3615,"Ġbic":3616,"arbon":3617,"Ġduring":3618,"Ġstack":3619,"ava":3620,"Ġalouette":3621,"Ġdrained":3622,"Ġforms":3623,"Ġmangoes":3624,"Ġwedge":3625,"exp":3626,"Ġamaretto":3627,"Ġcrescent":3628,"Ġcroutons":3629,"Ġbudget":3630,"arbonate":3631,"00":3632,"bet":3633,"don":3634,"ha":3635,"tered":3636,"Ġtins":3637,"Ġmaker":3638,"Ġmiso":3639,"oun":3640,"ille":3641,"Ġresem":3642,"Ġtopp":3643,"Ġhar":3644,"Ġinexp":3645,"Ġpepperoni":3646,"seradish":3647,"avel":3648,"Ġsmoky":3649,"ettes":3650,"Ġirish":3651,"Ġmeantime":3652,"Ġbicarbonate":3653,"Ġtoppings":3654,"Ġinexpensive":3655,"agg":3656,"cri":3657,"gon":3658,"te":3659,"Ġtips":3660,"Ġcoun":3661,"Ġreper":3662,"Ġla":3663,"toire":3664,"Ġeggless":3665,"Ġhash":3666,"ize":3667,"Ġener":3668,"Ġtwice":3669,"Ġpaleo":3670,"Ġhorseradish":3671,"Ġcubed":3672,"Ġbubbling":3673,"Ġfirmly":3674,"Ġquesad":3675,"Ġpancetta":3676,"Ġjambalaya":3677,"Ġcatfish":3678,"Ġcounter":3679,"Ġrepertoire":3680,"bro":3681,"Ġton":3682,"Ġthing":3683,"Ġthrow":3684,"ouille":3685,"Ġdates":3686,"Ġchai":3687,"Ġnavel":3688,"Ġshir":3689,"abi":3690,"Ġpanna":3691,"Ġcorner":3692,"Ġbreaking":3693,"Ġcrumb":3694,"omegranate":3695,"Ġgranny":3696,"Ġcaps":3697,"Ġverm":3698,"creamy":3699,"Ġpaddle":3700,"Ġroux":3701,"gonz":3702,"eer":3703,"rone":3704,"water":3705,"Ġ[":3706,"Ġamon":3707,"Ġpita":3708,"Ġpomegranate":3709,"Ġmach":3710,"Ġplus":3711,"Ġsmith":3712,"Ġlarger":3713,"ously":3714,"estrone":3715,"Ġ150":3716,"Ġtwist":3717,"Ġ07":3718,"Ġsticking":3719,"Ġloose":3720,"Ġhazelnut":3721,"Ġmeasure":3722,"Ġcotta":3723,"Ġcottage":3724,"Ġdecorate":3725,"Ġbrandy":3726,"mersion":3727,"Ġtikka":3728,"Ġgorgonz":3729,"Ġsliders":3730,"Ġamong":3731,"Ġmachine":3732,"bab":3733,"tle":3734,"Ġcereal":3735,"Ġpip":3736,"Ġfire":3737,"Ġgall":3738,"lli":3739,"Ġstro":3740,"abe":3741,"Ġgrand":3742,"Ġblood":3743,"Ġimmersion":3744,"Ġiceberg":3745,"Ġ06":3746,"Ġbagu":3747,"Ġarbor":3748,"Ġfilet":3749,"ways":3750,"Ġcircles":3751,"Ġbeetroot":3752,"Ġcrunchy":3753,"Ġplacing":3754,"Ġtruffles":3755,"Ġvalentin":3756,"Ġarborio":3757,"ke":3758,"mal":3759,"slow":3760,"Ġsme":3761,"Ġcount":3762,"Ġmack":3763,"ori":3764,"Ġlave":3765,"top":3766,"ulce":3767,"Ġlevel":3768,"Ġpeppermint":3769,"uss":3770,"Ġanise":3771,"Ġdishes":3772,"Ġblanch":3773,"inny":3774,"Ġbleu":3775,"Ġpock":3776,"erel":3777,"Ġherbed":3778,"Ġtreats":3779,"Ġsnack":3780,"Ġpuffed":3781,"Ġpulled":3782,"Ġribbon":3783,"Ġreplac":3784,"supper":3785,"Ġhusks":3786,"Ġnatur":3787,"Ġmackerel":3788,"Ġlavender":3789,"ridge":3790,"ict":3791,"iption":3792,"Ġsave":3793,"Ġovercook":3794,"Ġmove":3795,"Ġporridge":3796,"Ġgiveaway":3797,"ongs":3798,"Ġendive":3799,"when":3800,"cription":3801,"Ġbiscuit":3802,"Ġsubstitute":3803,"Ġappetizer":3804,"Ġbuckwheat":3805,"rin":3806,"Ġown":3807,"Ġdid":3808,"Ġdiff":3809,"Ġgin":3810,"Ġchim":3811,"Ġminestrone":3812,"Ġrabe":3813,"iana":3814,"ĠcrÃ¨":3815,"Ġups":3816,"Ġsetting":3817,"Ġboiler":3818,"Ġdrink":3819,"Ġ170":3820,"Ġpinkwhen":3821,"Ġflaxseeds":3822,"Ġsplit":3823,"Ġlinguini":3824,"ĠsautÃ©ed":3825,"Ġsundaysupper":3826,"Ġnaan":3827,"Ġreplacer":3828,"ĠcrÃ¨me":3829,"aque":3830,"no":3831,"vado":3832,"Ġcac":3833,"Ġpa":3834,"Ġfur":3835,"Ġfun":3836,"Ġhake":3837,"Ġebook":3838,"Ġspace":3839,"covado":3840,"eath":3841,"Ġsoon":3842,"Ġsaltine":3843,"Ġflo":3844,"Ġflipping":3845,"Ġkey":3846,"Ġpreparing":3847,"Ġstop":3848,"Ġdiam":3849,"Ġopaque":3850,"Ġsprinkled":3851,"itting":3852,"Ġ000":3853,"Ġrefrigerated":3854,"hod":3855,"Ġcolour":3856,"Ġmethod":3857,"Ġsubscription":3858,"Ġdistributed":3859,"ĠjalapeÃ±":3860,"Ġrectangle":3861,"Ġmoderate":3862,"iyaki":3863,"Ġmuscovado":3864,"Ġshiraz":3865,"Ġbaguette":3866,"ead":3867,"kan":3868,"sy":3869,"Ġsix":3870,"Ġpitas":3871,"Ġfan":3872,"icy":3873,"Ġgas":3874,"vet":3875,"Ġcondim":3876,"Ġint":3877,"Ġchive":3878,"entic":3879,"Ġspir":3880,"Ġbelow":3881,"Ġunble":3882,"ult":3883,"Ġsalty":3884,"Ġotherwise":3885,"Ġ100":3886,"Ġcrumbles":3887,"Ġallowing":3888,"Ġlooks":3889,"Ġiced":3890,"ocai":3891,"Ġdoubled":3892,"Ġburning":3893,"Ġcollection":3894,"Ġbisque":3895,"Ġjelly":3896,"Ġsorbet":3897,"Ġgorgonzola":3898,"Ġpiping":3899,"Ġcondiment":3900,"Ġunbleached":3901,"do":3902,"fl":3903,"hentic":3904,"nhe":3905,"Ġve":3906,"Ġsuc":3907,"Ġthose":3908,"Ġpb":3909,"Ġpsy":3910,"Ġdogs":3911,"Ġdulce":3912,"ropical":3913,"Ġrecom":3914,"Ġcob":3915,"Ġcopy":3916,"Ġinvert":3917,"llium":3918,"Ġruss":3919,"Ġflow":3920,"Ġlemonade":3921,"efly":3922,"Ġcordon":3923,"Ġturns":3924,"Ġimport":3925,"Ġslivered":3926,"Ġinstead":3927,"Ġcheesecakes":3928,"Ġbriefly":3929,"Ġenchiladas":3930,"Ġmoistened":3931,"Ġmatzo":3932,"Ġfurther":3933,"nheit":3934,"Ġpsyllium":3935,"Ġimportant":3936,"bell":3937,"Ġaro":3938,"Ġale":3939,"Ġtag":3940,"Ġour":3941,"esar":3942,"Ġbare":3943,"Ġwo":3944,"eness":3945,"Ġtos":3946,"Ġdred":3947,"Ġhad":3948,"Ġcharred":3949,"umb":3950,"icelli":3951,"Ġjars":3952,"Ġvide":3953,"Ġkim":3954,"Ġmarmal":3955,"Ġ03":3956,"Ġavoid":3957,"Ġcheeses":3958,"Ġsatay":3959,"Ġformed":3960,"Ġvermicelli":3961,"Ġmarmalade":3962,"land":3963,"laz":3964,"Ġtight":3965,"Ġfra":3966,"ouse":3967,"Ġgal":3968,"acc":3969,"adam":3970,"idd":3971,"Ġnacho":3972,"Ġpaneer":3973,"Ġwatch":3974,"Ġblo":3975,"Ġouter":3976,"Ġdoughnuts":3977,"Ġblackberries":3978,"Ġdrip":3979,"Ġburr":3980,"enedict":3981,"Ġshortcake":3982,"Ġeyed":3983,"Ġdoesn":3984,"Ġbisco":3985,"Ġradishes":3986,"classic":3987,"Ġfaj":3988,"Ġcountry":3989,"Ġrecommend":3990,"Ġdredge":3991,"ander":3992,"pr":3993,"ua":3994,"Ġvel":3995,"Ġter":3996,"rese":3997,"Ġbenedict":3998,"Ġmillet":3999,"Ġmound":4000,"Ġgent":4001,"Ġrap":4002,"Ġwhere":4003,"Ġbutton":4004,"Ġbuttered":4005,"Ġkah":4006,"Ġalways":4007,"Ġsmash":4008,"Ġserr":4009,"Ġ01":4010,"Ġpoached":4011,"Ġforming":4012,"Ġstrip":4013,"Ġmacadam":4014,"ĠâĢľ":4015,"Ġeggplants":4016,"Ġdirect":4017,"Ġholes":4018,"Ġglasses":4019,"Ġexpensive":4020,"Ġpopcorn":4021,"Ġacorn":4022,"Ġshapes":4023,"Ġfoamy":4024,"Ġkrispie":4025,"Ġerich":4026,"Ġusually":4027,"Ġspiral":4028,"Ġkahl":4029,"Ġmacadamia":4030,"ogh":4031,"Ġtongs":4032,"ines":4033,"renheit":4034,"Ġph":4035,"Ġplease":4036,"Ġfah":4037,"Ġbed":4038,"isin":4039,"Ġwipe":4040,"Ġdamp":4041,"Ġlog":4042,"Ġforget":4043,"vegan":4044,"Ġsauc":4045,"Ġjer":4046,"urri":4047,"Ġcarb":4048,"Ġchild":4049,"ichurri":4050,"Ġagainst":4051,"Ġrefined":4052,"Ġ02":4053,"Ġtoasts":4054,"Ġxocai":4055,"Ġabsorb":4056,"Ġhearty":4057,"Ġpreferably":4058,"Ġcollard":4059,"Ġsecure":4060,"ĠÂ½":4061,"Ġomelet":4062,"Ġsouthwest":4063,"Ġgentle":4064,"oghurt":4065,"Ġfahrenheit":4066,"ial":4067,"uy":4068,"usel":4069,"Â®":4070,"Ġms":4071,"Ġmort":4072,"isture":4073,"enic":4074,"Ġreheat":4075,"ros":4076,"Ġyuk":4077,"Ġyoghurt":4078,"Ġmince":4079,"Ġbeaut":4080,"Ġungre":4081,"Ġcreole":4082,"Ġke":4083,"Ġki":4084,"Ġfoods":4085,"Ġlemony":4086,"Ġmoisture":4087,"Ġtrad":4088,"Ġtrif":4089,"Ġmark":4090,"Ġparsn":4091,"ogenic":4092,"Ġlob":4093,"Ġdoneness":4094,"Ġknow":4095,"Ġdirected":4096,"Ġketogenic":4097,"Ġbulg":4098,"Ġlinguine":4099,"iki":4100,"Ġstreusel":4101,"Ġwaffles":4102,"Ġcopycat":4103,"Ġungreased":4104,"banan":4105,"ibut":4106,"Ġtang":4107,"Ġtropical":4108,"Ġthumb":4109,"Ġpass":4110,"Ġmen":4111,"Ġmand":4112,"Ġmug":4113,"isweet":4114,"ont":4115,"eter":4116,"Ġchest":4117,"Ġspon":4118,"Ġvar":4119,"irt":4120,"Ġshaking":4121,"Ġcane":4122,"Ġroad":4123,"Ġgruy":4124,"Ġalas":4125,"Ġslide":4126,"Ġproof":4127,"Ġdripp":4128,"Ġcrumbly":4129,"Ġcaprese":4130,"Ġsemisweet":4131,"Ġbouill":4132,"Ġquarter":4133,"Ġtomatillos":4134,"Ġsilic":4135,"Ġchimichurri":4136,"Ġkimchi":4137,"Ġvelvet":4138,"Ġbeautif":4139,"'m":4140,"igg":4141,"la":4142,"Ġet":4143,"Ġach":4144,"Ġtir":4145,"ork":4146,"Ġcore":4147,"lend":4148,"amis":4149,"Ġsplend":4150,"Ġnu":4151,"Ġgarban":4152,"usch":4153,"Ġko":4154,"ations":4155,"Ġheap":4156,"Ġporc":4157,"Ġskinny":4158,"Ġhalibut":4159,"Ġmushy":4160,"Ġeng":4161,"Ġproper":4162,"afout":4163,"Ġ250":4164,"Ġ165":4165,"Ġpoke":4166,"erent":4167,"Ġcontinu":4168,"Ġcaesar":4169,"blue":4170,"Ġclafout":4171,"issant":4172,"Ġcroissant":4173,"Ġstanding":4174,"Ġbulb":4175,"Ġnests":4176,"Ġappear":4177,"Ġgerm":4178,"Ġrusset":4179,"Ġkahlua":4180,"Ġtangy":4181,"Ġtiramis":4182,"Ġgarbanzo":4183,"bu":4184,"home":4185,"law":4186,"Ġpush":4187,"Ġbath":4188,"acture":4189,"Ġcoles":4190,"Ġintern":4191,"Ġstage":4192,"illi":4193,"icky":4194,"iest":4195,"rie":4196,"Ġcrepe":4197,"Ġfore":4198,"Ġrods":4199,"Ġalf":4200,"Ġnotes":4201,"Ġquail":4202,"Ġmanuf":4203,"Ġfinal":4204,"Ġtartlets":4205,"Ġhoisin":4206,"Ġuncover":4207,"Ġpreserves":4208,"Ġelk":4209,"Ġhelps":4210,"Ġroma":4211,"Ġpretzels":4212,"Ġdistribute":4213,"Ġziplo":4214,"Ġfettuccine":4215,"Ġtriangles":4216,"Ġsizzle":4217,"Ġflavour":4218,"Ġdeviled":4219,"Ġresembles":4220,"Ġquesadillas":4221,"ĠjalapeÃ±o":4222,"Ġtagine":4223,"Ġtossing":4224,"Ġteriyaki":4225,"Ġyukon":4226,"Ġsponge":4227,"Ġdrippings":4228,"uschetta":4229,"acturer":4230,"Ġcoleslaw":4231,"Ġmanufacturer":4232,"let":4233,"rican":4234,"ziki":4235,"Ġid":4236,"Ġtb":4237,"Ġoun":4238,"Ġpho":4239,"Ġfruits":4240,"Ġbast":4241,"Ġbord":4242,"Ġmatch":4243,"atouille":4244,"enuts":4245,"Ġins":4246,"lee":4247,"redo":4248,"Ġunbaked":4249,"Ġnorm":4250,"Ġscotch":4251,"Ġjagg":4252,"elf":4253,"Ġheating":4254,"Ġcovering":4255,"fuls":4256,"Ġdeglaz":4257,"Ġcloth":4258,"Ġwarmed":4259,"Ġportions":4260,"ipped":4261,"Ġfolding":4262,"Ġtarts":4263,"Ġcling":4264,"Ġclump":4265,"Ġletting":4266,"Ġtoothpicks":4267,"Ġdissolves":4268,"Ġgrapes":4269,"Ġtamale":4270,"Ġspoonfuls":4271,"ĠÂ¼":4272,"Ġcrosswise":4273,"Ġpockets":4274,"Ġnatural":4275,"Ġdifferent":4276,"Ġveal":4277,"banana":4278,"Ġsplenda":4279,"Ġalfredo":4280,"Ġbasting":4281,"Ġjaggery":4282,"Ġdeglaze":4283,"fat":4284,"fere":4285,"hi":4286,"net":4287,"oppy":4288,"ince":4289,"Ġpow":4290,"Ġfac":4291,"Ġfus":4292,"Ġber":4293,"Ġmussels":4294,"outh":4295,"ison":4296,"isters":4297,"Ġreme":4298,"almo":4299,"Ġyoure":4300,"coconut":4301,"Ġstra":4302,"stini":4303,"ggets":4304,"Ġconge":4305,"Ġhaw":4306,"Ġvin":4307,"Ġshav":4308,"Ġcalorie":4309,"Ġgrits":4310,"Ġboats":4311,"Ġmilksh":4312,"Ġchilis":4313,"Ġtrace":4314,"Ġbrine":4315,"Ġbruschetta":4316,"Ġchillies":4317,"Ġshoulder":4318,"Ġ145":4319,"Ġdelight":4320,"Ġkeeping":4321,"Ġgarnished":4322,"Ġcrostini":4323,"Ġstandard":4324,"self":4325,"Ġcolander":4326,"aiian":4327,"oulade":4328,"Ġrocky":4329,"Ġdiameter":4330,"Ġbarely":4331,"Ġnuggets":4332,"Ġtiramisu":4333,"Ġborder":4334,"Ġremember":4335,"ears":4336,"lot":4337,"licky":4338,"nce":4339,"nier":4340,"tim":4341,"Ġtester":4342,"Ġthink":4343,"Ġmag":4344,"Ġwish":4345,"itz":4346,"Ġhun":4347,"Ġchow":4348,"imp":4349,"Ġbeign":4350,"Ġglo":4351,"Ġflan":4352,"Ġperi":4353,"irm":4354,"Ġovermix":4355,"Ġromain":4356,"Ġgriddle":4357,"Ġcontents":4358,"Ġparti":4359,"Ġsloppy":4360,"Ġ201":4361,"Ġsteel":4362,"Ġmarnier":4363,"Ġquite":4364,"Ġworry":4365,"ube":4366,"Ġpoha":4367,"Ġ190":4368,"Ġ220":4369,"Ġbrio":4370,"Ġanchovies":4371,"Ġsections":4372,"Ġsplash":4373,"Ġshaped":4374,"Ġquarters":4375,"atively":4376,"Ġflowers":4377,"Ġwonder":4378,"Ġvideo":4379,"Ġproperly":4380,"bury":4381,"Ġinternal":4382,"Ġphoto":4383,"Ġbeignets":4384,"Ġromaine":4385,"Ġpartially":4386,"cress":4387,"gy":4388,"kish":4389,"ms":4390,"vy":4391,"Ġvers":4392,"Ġaka":4393,"Ġtz":4394,"Ġten":4395,"Ġsif":4396,"Ġpit":4397,"Ġpatter":4398,"Ġpapp":4399,"Ġmein":4400,"Ġmould":4401,"Ġmart":4402,"ouis":4403,"lland":4404,"ada":4405,"oose":4406,"Ġrich":4407,"iri":4408,"Ġshep":4409,"Ġkaff":4410,"Ġmocha":4411,"Ġfollowed":4412,"Ġears":4413,"Ġ05":4414,"Ġratatouille":4415,"Ġspreading":4416,"Ġstickers":4417,"Ġpobl":4418,"Ġpastan":4419,"Ġpeeler":4420,"Ġbags":4421,"Ġauthentic":4422,"Ġhollow":4423,"Ġholland":4424,"Ġempt":4425,"Ġdumpling":4426,"Ġpiccat":4427,"Ġfettuccini":4428,"Ġjulia":4429,"Ġscramble":4430,"mati":4431,"Ġcacao":4432,"accia":4433,"Ġfajita":4434,"Ġtrifle":4435,"Ġbouillon":4436,"ference":4437,"Ġfusilli":4438,"Ġmilkshake":4439,"Ġshepher":4440,"Ġkaffir":4441,"Ġhollandaise":4442,"ccol":4443,"den":4444,"nog":4445,"neath":4446,"sn":4447,"Ġtough":4448,"Ġsection":4449,"Ġsign":4450,"Ġcry":4451,"Ġfast":4452,"Ġbal":4453,"Ġbaste":4454,"Ġmiss":4455,"atziki":4456,"ana":4457,"anth":4458,"alle":4459,"Ġlat":4460,"Ġlouis":4461,"asco":4462,"Ġstay":4463,"Ġstone":4464,"Ġhair":4465,"Ġeggnog":4466,"Ġfond":4467,"Ġskirt":4468,"Ġcrusts":4469,"Ġincluding":4470,"elle":4471,"Ġtemp":4472,"spicy":4473,"Ġunderneath":4474,"chees":4475,"Ġpreferred":4476,"Ġsprig":4477,"Ġjoes":4478,"Ġelastic":4479,"Ġpureed":4480,"Ġsuccess":4481,"Ġdirectly":4482,"Ġkebab":4483,"Ġkiw":4484,"Ġlobster":4485,"Ġbulgur":4486,"Ġsilicone":4487,"Ġbeautiful":4488,"homemade":4489,"Ġpower":4490,"Ġhawaiian":4491,"Ġempty":4492,"ccolini":4493,"Ġcryst":4494,"bow":4495,"gan":4496,"si":4497,"vest":4498,"Ġtuck":4499,"Ġwaf":4500,"anba":4501,"icle":4502,"orino":4503,"Ġul":4504,"oom":4505,"sters":4506,"stery":4507,"straw":4508,"Ġsoaked":4509,"Ġsugg":4510,"Ġpreference":4511,"Ġvis":4512,"Ġlevy":4513,"rout":4514,"Ġshim":4515,"Ġbroken":4516,"Ġseam":4517,"Ġwatercress":4518,"Ġpickles":4519,"Ġ125":4520,"Ġmelon":4521,"Ġbasmati":4522,"Ġputting":4523,"Ġthickest":4524,"Ġmelting":4525,"Ġafrican":4526,"Ġpecorino":4527,"Ġfetan":4528,"Ġscallop":4529,"Ġmystery":4530,"Ġcoloring":4531,"Ġdrops":4532,"Ġwilt":4533,"Ġeating":4534,"Ġbones":4535,"Ġgrapeseed":4536,"Ġelse":4537,"Ġmostly":4538,"Ġplaced":4539,"Ġpierog":4540,"Ġkrispies":4541,"Ġchurn":4542,"Ġmolds":4543,"Ġsmell":4544,"Ġribbons":4545,"print":4546,"Ġrapeseed":4547,"Ġberanba":4548,"Ġbrioche":4549,"Ġtzatziki":4550,"Ġmartini":4551,"Ġshepherd":4552,"Ġkebabs":4553,"Ġberanbaum":4554,"iar":4555,"lenuts":4556,"mb":4557,"prouts":4558,"uid":4559,"ÂŃ":4560,"Ġtube":4561,"Ġsince":4562,"Ġface":4563,"Ġmee":4564,"Ġmidd":4565,"Ġdis":4566,"imum":4567,"ama":4568,"Ġspears":4569,"coal":4570,"Ġripe":4571,"Ġsomet":4572,"Ġfrothy":4573,"quet":4574,"oons":4575,"Ġven":4576,"aps":4577,"Ġbroccolini":4578,"Ġcall":4579,"Ġgarlicky":4580,"Ġgarden":4581,"Ġothers":4582,"ready":4583,"Ġliking":4584,"Ġalready":4585,"Ġcombin":4586,"olina":4587,"Ġcutlets":4588,"ung":4589,"load":4590,"Ġscent":4591,"Ġbeansprouts":4592,"Ġgrilling":4593,"Ġ04":4594,"Ġ09":4595,"Ġbottoms":4596,"Ġneeds":4597,"Ġpizzas":4598,"Ġadv":4599,"turkey":4600,"Ġpacket":4601,"Ã©e":4602,"Ġmonth":4603,"Ġqueso":4604,"Ġokra":4605,"Ġcaviar":4606,"Ġbrulee":4607,"Ġcharcoal":4608,"Ġtraditional":4609,"Ġgruyere":4610,"Ġheaping":4611,"blueberry":4612,"almond":4613,"Ġcongee":4614,"Ġversion":4615,"Ġpattern":4616,"Ġmiddl":4617,"how":4618,"pacho":4619,"Ġta":4620,"iness":4621,"Ġsang":4622,"Ġple":4623,"Ġpest":4624,"Ġfam":4625,"ather":4626,"itake":4627,"itos":4628,"ales":4629,"Ġgaz":4630,"ipan":4631,"Ġhouse":4632,"Ġchiff":4633,"Ġisland":4634,"Ġrough":4635,"quil":4636,"Ġheatproof":4637,"Ġliq":4638,"Ġliber":4639,"Ġcraw":4640,"Ġbrowns":4641,"Ġhandhe":4642,"Ġbok":4643,"Ġlowest":4644,"Ġproced":4645,"Ġbananan":4646,"Ġtakeout":4647,"Ġcheap":4648,"Ġpost":4649,"black":4650,"Ġsmoking":4651,"ioca":4652,"Ġcandlenuts":4653,"Ġpearl":4654,"Ġindent":4655,"Ġpulp":4656,"Ġchunk":4657,"Ġsteps":4658,"Ġrotating":4659,"Ġoysters":4660,"Ġmerlot":4661,"Ġalternately":4662,"Ġtapioca":4663,"Ġnearly":4664,"Ġchurros":4665,"Ġtabasco":4666,"Ġragu":4667,"Ġtonight":4668,"Ġburrito":4669,"Ġserrated":4670,"Ġporcini":4671,"Ġenglish":4672,"Ġforest":4673,"timate":4674,"Ġbalance":4675,"Ġultimate":4676,"strawberry":4677,"Ġvenison":4678,"Ġpestle":4679,"Ġgazpacho":4680,"Ġhandheld":4681,"Ġprocedure":4682,"caccia":4683,"eak":4684,"mm":4685,"mush":4686,"od":4687,"ores":4688,"ugu":4689,"Ġide":4690,"Ġtable":4691,"ret":4692,"Ġsna":4693,"Ġpri":4694,"Ġbot":4695,"Ġbail":4696,"Ġbird":4697,"anc":4698,"Ġrele":4699,"Ġdet":4700,"Ġdot":4701,"Ġgou":4702,"Ġsprout":4703,"Ġstring":4704,"Ġring":4705,"Ġnavy":4706,"Ġconcent":4707,"Ġlegs":4708,"Ġbutterf":4709,"Ġfocaccia":4710,"Ġmoj":4711,"Ġblt":4712,"Ġcarbon":4713,"Ġdiagon":4714,"Ġturkish":4715,"Ġlayered":4716,"Ġ08":4717,"Ġthroughout":4718,"Ġstarted":4719,"Ġsprayed":4720,"bler":4721,"white":4722,"Ġtastes":4723,"Ġcaper":4724,"Ġcrabs":4725,"Ġways":4726,"Ġconfectioner":4727,"Ġrising":4728,"Ġbroiled":4729,"Ġsubmer":4730,"velop":4731,"Ġsunda":4732,"Ġmoderately":4733,"Ġtriangle":4734,"Ġloosely":4735,"Ġgallo":4736,"Ġthumbprint":4737,"Ġmandar":4738,"Ġpiccata":4739,"cheesy":4740,"Ġcrawfish":4741,"mushroom":4742,"Ġbailey":4743,"br":4744,"fort":4745,"ient":4746,"mitting":4747,"tan":4748,"try":4749,"tti":4750,"ued":4751,"zed":4752,"Ã¡":4753,"Ġcass":4754,"Ġben":4755,"ons":4756,"Ġwedd":4757,"alli":4758,"roll":4759,"Ġcogn":4760,"Ġyam":4761,"tobell":4762,"ppos":4763,"Ġrare":4764,"Ġunif":4765,"Ġnight":4766,"Ġflut":4767,"irty":4768,"eli":4769,"achos":4770,"Ġoverla":4771,"Ġcrave":4772,"Ġfoster":4773,"avrie":4774,"Ġkind":4775,"Ġovenproof":4776,"Ġmedia":4777,"Ġstored":4778,"raeli":4779,"reshing":4780,"Ġquant":4781,"Ġbeaters":4782,"âĢ¦":4783,"Ġstockpot":4784,"Ġdraining":4785,"Ġpoach":4786,"Ġcaramels":4787,"Ġcaramelize":4788,"Ġ199":4789,"Ġrounded":4790,"Ġsweat":4791,"Ġtiny":4792,"Ġthirds":4793,"Ġpierce":4794,"green":4795,"beef":4796,"Ġomelette":4797,"Ġscrambled":4798,"Ġordering":4799,"Ġharvest":4800,"Ġcobbler":4801,"Ġbiscotti":4802,"Ġalaskan":4803,"Ġstraight":4804,"Ġcrystalli":4805,"Ġwedding":4806,"Ġoverlapping":4807,"bacon":4808,"hia":4809,"ience":4810,"mail":4811,"ored":4812,"pean":4813,"van":4814,"wd":4815,"Ãª":4816,"Ġaid":4817,"Ġtim":4818,"Ġsard":4819,"Ġthough":4820,"Ġund":4821,"Ġisraeli":4822,"atever":4823,"Ġrid":4824,"Ġnachos":4825,"Ġsoci":4826,"Ġplan":4827,"Ġwhatever":4828,"Ġalla":4829,"iforn":4830,"Ġshi":4831,"uscan":4832,"avoc":4833,"Ġkep":4834,"Ġportobell":4835,"Ġcarolina":4836,"raut":4837,"bsp":4838,"Ġpouring":4839,"ardelle":4840,"Ġhalve":4841,"Ġearth":4842,"Ġmemb":4843,"Ġclosed":4844,"Ġtwenty":4845,"Ġ139":4846,"Ġlayering":4847,"Ġbrushing":4848,"Ġswir":4849,"iladelp":4850,"estern":4851,"Ġketo":4852,"Ġeyes":4853,"Ġsecret":4854,"Ġpalak":4855,"Ġsubscri":4856,"Ġleftovers":4857,"Ġalternating":4858,"caramel":4859,"matic":4860,"Ġaromatic":4861,"Ġmortar":4862,"Ġshaved":4863,"Ġchiffon":4864,"Ġliberally":4865,"Ġmojito":4866,"Ġcognac":4867,"peanut":4868,"Ġsocial":4869,"avocado":4870,"Ġkept":4871,"Ġmembran":4872,"iladelphia":4873,"aican":4874,"cal":4875,"ner":4876,"over":4877,"rick":4878,"sk":4879,"ĠÂł":4880,"iny":4881,"reme":4882,"Ġsan":4883,"era":4884,"Ġban":4885,"Ġmesh":4886,"Ġdisk":4887,"ror":4888,"Ġgather":4889,"Ġhole":4890,"Ġhook":4891,"Ġones":4892,"amame":4893,"Ġspare":4894,"oot":4895,"Ġrip":4896,"umbo":4897,"Ġnam":4898,"Ġconven":4899,"allet":4900,"mol":4901,"Ġcanolan":4902,"usive":4903,"Ġflourless":4904,"Ġchoy":4905,"Ġcomfort":4906,"Ġkal":4907,"bers":4908,"Ġparing":4909,"Ġexcl":4910,"Ġ101":4911,"Ġtear":4912,"inners":4913,"Ġpickle":4914,"Ġmarz":4915,"Ġaged":4916,"Ġprov":4917,"Ġtook":4918,"Ġ130":4919,"Ġcurrant":4920,"Ġbarberries":4921,"Ġ175":4922,"Ġlightened":4923,"Ġpeeled":4924,"Ġnonfat":4925,"Ġpatrick":4926,"Ġconfirm":4927,"Ġxanth":4928,"Ġmacaroons":4929,"Ġjamaican":4930,"Ġpuffs":4931,"Ġbonus":4932,"Ġsealed":4933,"Ġlastly":4934,"Ġlady":4935,"Ġyields":4936,"ibim":4937,"Ġweeks":4938,"Ġwaxed":4939,"Ġerror":4940,"Ġcavity":4941,"Ġwaffle":4942,"Ġappears":4943,"Ġkoft":4944,"Ġcontinuously":4945,"Ġclafoutis":4946,"Ġziploc":4947,"Ġinsides":4948,"Ġwonderful":4949,"uguese":4950,"Ġconcentr":4951,"Ġuniform":4952,"Ġshiitake":4953,"Ġexclusive":4954,"30":4955,"bep":4956,"ces":4957,"cious":4958,"egg":4959,"eive":4960,"ginger":4961,"hing":4962,"kit":4963,"ob":4964,"oori":4965,"uer":4966,"ubs":4967,"âĦ":4968,"Ġtand":4969,"Ġtail":4970,"Ġsar":4971,"Ġcaster":4972,"nds":4973,"Ġpile":4974,"Ġbibim":4975,"Ġmu":4976,"Ġmal":4977,"Ġmallet":4978,"ouli":4979,"Ġrese":4980,"Ġretain":4981,"Ġdipped":4982,"Ġdinners":4983,"alable":4984,"rock":4985,"asch":4986,"Ġreceive":4987,"Ġcolo":4988,"Ġinsp":4989,"Ġchavrie":4990,"Ġyouve":4991,"Ġwithin":4992,"lep":4993,"owered":4994,"ida":4995,"tom":4996,"Ġspac":4997,"ions":4998,"Ġstream":4999,"eather":5000,"Ġaddres":5001,"Ġunw":5002,"Ġsoaking":5003,"cherry":5004,"Ġscott":5005,"Ġconvert":5006,"Ġshiny":5007,"Ġseg":5008,"ĠcrÃª":5009,"Ġcaliforn":5010,"eemail":5011,"ssubs":5012,"Ġdownload":5013,"Ġlock":5014,"eller":5015,"Ġcelsi":5016,"oked":5017,"Ġtorte":5018,"Ġrequired":5019,"spot":5020,"Ġgranules":5021,"Ġcrowd":5022,"Ġraise":5023,"Ġmasher":5024,"Ġuncooked":5025,"Ġsubmitting":5026,"butter":5027,"Ġtamales":5028,"Ġnectarine":5029,"Ġwont":5030,"Ġtruffle":5031,"Ġblogspot":5032,"Ġportuguese":5033,"Ġtabouli":5034,"Ġbrunch":5035,"cribep":5036,"brown":5037,"Ġinterv":5038,"Ġsaucy":5039,"Ġachieve":5040,"Ġpappardelle":5041,"Ġsomething":5042,"Ġmandarin":5043,"Ġsubscribers":5044,"Ġnameemail":5045,"Ġconvenience":5046,"Ġkalam":5047,"Ġmarzipan":5048,"Ġbonuses":5049,"Ġtandoori":5050,"Ġresealable":5051,"Ġaddresssubs":5052,"Ġconvertkit":5053,"Ġcelsius":5054,"cribepowered":5055,"Ġaddresssubscribepowered":5056,"aur":5057,"by":5058,"bin":5059,"cran":5060,"dood":5061,"dough":5062,"falle":5063,"kes":5064,"kraut":5065,"min":5066,"pumpkin":5067,"tere":5068,"wa":5069,"yl":5070,"Ġry":5071,"Ġtan":5072,"Ġtuscan":5073,"Ġce":5074,"Ġob":5075,"Ġoppos":5076,"Ġbak":5077,"Ġmot":5078,"Ġmess":5079,"Ġmah":5080,"ones":5081,"Ġwing":5082,"illy":5083,"Ġdanish":5084,"Ġdirty":5085,"roz":5086,"Ġgourmet":5087,"Ġlag":5088,"Ġcow":5089,"Ġupper":5090,"immon":5091,"Ġsauer":5092,"ume":5093,"Ġnbsp":5094,"Ġsuk":5095,"ria":5096,"Ġshelf":5097,"Ġjulep":5098,"Ġliver":5099,"Ġable":5100,"Ġmoving":5101,"unt":5102,"Ġsprinkling":5103,"Ġsquid":5104,"Ġremainder":5105,"Ġ115":5106,"Ġcurl":5107,"Ġbitter":5108,"Ġdrizzled":5109,"Ġtoaster":5110,"shrimp":5111,"Ġedamame":5112,"ganoff":5113,"Ġtowards":5114,"Ġ475":5115,"Ġharden":5116,"Ġbarbecued":5117,"Ġpico":5118,"ribute":5119,"Ġfalling":5120,"Ġthawed":5121,"Ġflavored":5122,"Ġstroganoff":5123,"Ġrecommended":5124,"Ġphiladelphia":5125,"Ġjerky":5126,"Ġparsnips":5127,"Ġcroissants":5128,"Ġmatcha":5129,"Ġkiwi":5130,"Ġwafers":5131,"Ġbottle":5132,"Ġportobello":5133,"Ġcolored":5134,"aurant":5135,"cranberry":5136,"Ġrye":5137,"Ġlager":5138,"Ġsauerkraut":5139,"bing":5140,"boy":5141,"cur":5142,"jor":5143,"ket":5144,"ox":5145,"ses":5146,"ured":5147,"ys":5148,"Ġaioli":5149,"rey":5150,"Ġpun":5151,"Ġfle":5152,"Ġbing":5153,"Ġmass":5154,"icch":5155,"Ġgul":5156,"aka":5157,"Ġhang":5158,"asian":5159,"vein":5160,"Ġyork":5161,"Ġforks":5162,"adian":5163,"adicch":5164,"ool":5165,"Ġsteep":5166,"Ġrins":5167,"icey":5168,"Ġni":5169,"chamel":5170,"Ġjumbo":5171,"Ġvig":5172,"Ġvod":5173,"Ġweight":5174,"Ġcrink":5175,"Ġcreamed":5176,"aves":5177,"Ġchole":5178,"Ġdig":5179,"Ġturbin":5180,"Ġdevein":5181,"Ġcornfl":5182,"loins":5183,"Ġlimeade":5184,"Ġbased":5185,"Ġpersimmon":5186,"Ġrefreshing":5187,"Ġtenderloins":5188,"Ġloaves":5189,"Ġnutty":5190,"Ġthicker":5191,"Ġsuperf":5192,"Ġtype":5193,"rowroot":5194,"Ġswitch":5195,"Ġtreat":5196,"Ġarrowroot":5197,"Ġguest":5198,"Ġcapon":5199,"Ġeaten":5200,"Ġtrays":5201,"Ġbuy":5202,"Ġreduces":5203,"Ġprick":5204,"Ġpricey":5205,"Ġdoesnt":5206,"Ġsundried":5207,"Ġenter":5208,"Ġadditions":5209,"runken":5210,"Ġregularly":5211,"Ġsouthwestern":5212,"Ġpaella":5213,"Ġfloat":5214,"Ġvari":5215,"Ġclumps":5216,"Ġmagic":5217,"Ġsifted":5218,"Ġlouisiana":5219,"Ġfondant":5220,"Ġsangria":5221,"Ġscottish":5222,"adicchio":5223,"Ġvodka":5224,"Ġturbinado":5225,"bably":5226,"cks":5227,"hl":5228,"hat":5229,"tened":5230,"Ġedi":5231,"Ġaj":5232,"Ġtree":5233,"Ġcase":5234,"Ġthread":5235,"Ġthous":5236,"Ġpoul":5237,"Ġfer":5238,"atan":5239,"anne":5240,"ution":5241,"Ġdro":5242,"icles":5243,"orange":5244,"orously":5245,"Ġgoo":5246,"Ġlist":5247,"Ġluk":5248,"Ġhull":5249,"Ġyet":5250,"Ġchange":5251,"cotch":5252,"ots":5253,"Ġstain":5254,"Ġmign":5255,"Ġmirin":5256,"Ġradicchio":5257,"stuff":5258,"illo":5259,"Ġnor":5260,"quettes":5261,"Ġperch":5262,"Ġvary":5263,"irly":5264,"Ġbuttery":5265,"Ġpanini":5266,"uscious":5267,"Ġang":5268,"Ġpotstick":5269,"Ġking":5270,"Ġexact":5271,"Ġslush":5272,"Ġblade":5273,"efeller":5274,"Ġbreaded":5275,"Ġcutters":5276,"Ġtrick":5277,"Ġgingersn":5278,"Ġ122":5279,"Ġprobably":5280,"Ġbasic":5281,"Ġbrew":5282,"Ġdoing":5283,"Ġdozen":5284,"Ġ110":5285,"Ġblending":5286,"Ġgranita":5287,"Ġtossed":5288,"Ġburnt":5289,"Ġkeeps":5290,"Ġpressed":5291,"Ġflatbread":5292,"Ġflattened":5293,"Ġraita":5294,"Ġseparately":5295,"Ġsnick":5296,"Ġmacarons":5297,"Ġalongside":5298,"Ġbunch":5299,"Ġhealth":5300,"Ġchecking":5301,"Ġfudgy":5302,"Ġrotate":5303,"Ġdusted":5304,"Ġstovetop":5305,"Ġincrements":5306,"Ġwasabi":5307,"Ġmargarita":5308,"Ġrockefeller":5309,"Ġalternatively":5310,"Ġtomatillo":5311,"Ġgallon":5312,"Ġblanched":5313,"Ġmounds":5314,"Ġchestnut":5315,"Ġmonths":5316,"quila":5317,"Ġbaileys":5318,"Ġcassava":5319,"Ġbanh":5320,"Ġinspired":5321,"Ġintervals":5322,"Ġcowboy":5323,"Ġsukrin":5324,"Ġvigorously":5325,"Ġthousand":5326,"Ġpoultry":5327,"Ġlisted":5328,"Ġpotstickers":5329,"des":5330,"fresh":5331,"finger":5332,"ming":5333,"oli":5334,"xanne":5335,"®che":5336,"Ã®che":5337,"Ġav":5338,"Ġaunt":5339,"Ġtri":5340,"Ġtribute":5341,"Ġsi":5342,"ero":5343,"Ġcam":5344,"Ġcoul":5345,"Ġpain":5346,"Ġmey":5347,"Ġtor":5348,"Ġdisp":5349,"Ġgift":5350,"ipino":5351,"Ġlimes":5352,"ases":5353,"erved":5354,"Ġstor":5355,"Ġsavo":5356,"Ġhaving":5357,"Ġflor":5358,"ppers":5359,"ribs":5360,"Ġshaker":5361,"Ġoval":5362,"Ġpanera":5363,"Ġmixtures":5364,"Ġrow":5365,"Ġroxanne":5366,"Ġchocol":5367,"Ġcoming":5368,"Ġkick":5369,"aged":5370,"Ġheav":5371,"Ġserious":5372,"Ġtequila":5373,"Ġdevelop":5374,"Ġbreadsticks":5375,"Ġboils":5376,"Ġmang":5377,"azy":5378,"Ġdrying":5379,"Ġeasiest":5380,"Ġ181":5381,"Ġ182":5382,"Ġlose":5383,"Ġpoin":5384,"Ġbark":5385,"Ġflavoring":5386,"Ġclement":5387,"Ġdelicata":5388,"Ġescar":5389,"Ġrested":5390,"Ġrestaurant":5391,"Ġfreezing":5392,"whole":5393,"Ġpeeling":5394,"Ġquinoan":5395,"crisp":5396,"ordfish":5397,"Ġscoops":5398,"mango":5399,"pork":5400,"Ġrisen":5401,"Ġbright":5402,"Ġfingert":5403,"Ġaccordingly":5404,"Ġtiger":5405,"Ġdiscarding":5406,"Ġbonnet":5407,"Ġgrains":5408,"Ġcircular":5409,"irloom":5410,"Ġplums":5411,"Ġbundle":5412,"Ġrocket":5413,"taining":5414,"Ġrosewater":5415,"Ġfairly":5416,"Ġjuli":5417,"Ġsmear":5418,"ĠfraÃ®che":5419,"Ġsmashed":5420,"Ġmanufacturers":5421,"Ġnormal":5422,"Ġvisible":5423,"Ġadvance":5424,"Ġprocedures":5425,"Ġsubmerge":5426,"Ġcrystallized":5427,"vanilla":5428,"tomato":5429,"Ġsegments":5430,"Ġopposite":5431,"Ġcaponata":5432,"Ġcoulis":5433,"Ġmeyer":5434,"15":5435,"best":5436,"di":5437,"ni":5438,"nual":5439,"oise":5440,"saka":5441,"uri":5442,"zucchini":5443,"Ġtabb":5444,"Ġsilk":5445,"Ġmill":5446,"Ġmumm":5447,"oule":5448,"ati":5449,"Ġweather":5450,"any":5451,"Ġgrou":5452,"Ġlunch":5453,"Ġcoq":5454,"Ġcole":5455,"Ġchuck":5456,"Ġyoull":5457,"Ġspider":5458,"Ġstacks":5459,"Ġdaik":5460,"Ġroulade":5461,"terrey":5462,"Ġnett":5463,"chu":5464,"chok":5465,"Ġsush":5466,"Ġhappy":5467,"quino":5468,"Ġyourself":5469,"right":5470,"Ġarea":5471,"ewarm":5472,"Ġcalled":5473,"Ġcreams":5474,"Ġupma":5475,"Ġkee":5476,"Ġparath":5477,"Ġaloo":5478,"Ġcarving":5479,"Ġsettle":5480,"Ġspritz":5481,"ustic":5482,"izont":5483,"Ġ120":5484,"Ġmarie":5485,"Ġbasket":5486,"ogany":5487,"Ġbelly":5488,"Ġfryer":5489,"Ġ133":5490,"Ġtransferring":5491,"Ġ242":5492,"Ġmaybe":5493,"Ġ320":5494,"Ġ323":5495,"Ġteaspoonfuls":5496,"Ġstrong":5497,"Ġ171":5498,"Ġhorizont":5499,"Ġ288":5500,"Ġarroz":5501,"Ġsunchok":5502,"Ġresul":5503,"Ġpurple":5504,"Ġsteamer":5505,"Ġsteaming":5506,"Ġfilipino":5507,"Ġmoussaka":5508,"Ġkneading":5509,"Ġtexas":5510,"Ġpreserved":5511,"Ġassembly":5512,"Ġmontere":5513,"Ġmonterrey":5514,"Ġfarfalle":5515,"Ġregisters":5516,"Ġindividually":5517,"bergine":5518,"Ġreplace":5519,"Ġsizzling":5520,"Ġlovely":5521,"Ġgalette":5522,"Ġetc":5523,"Ġounce":5524,"Ġscented":5525,"Ġbutterfly":5526,"Ġquantity":5527,"Ġtimer":5528,"Ġswirling":5529,"Ġxanthan":5530,"Ġmahogany":5531,"Ġrinsed":5532,"Ġedible":5533,"Ġlukewarm":5534,"stuffed":5535,"crispy":5536,"Ġtabboule":5537,"Ġmummies":5538,"Ġdaikon":5539,"Ġsushi":5540,"quinoa":5541,"Ġmonterey":5542,"Ġtabbouleh":5543,"au":5544,"bas":5545,"cel":5546,"crow":5547,"dy":5548,"ged":5549,"han":5550,"honey":5551,"mbo":5552,"ram":5553,"tr":5554,"tec":5555,"ward":5556,"Ã¹":5557,"Ġacco":5558,"Ġtent":5559,"Ġsant":5560,"Ġsamb":5561,"erdood":5562,"Ġoh":5563,"Ġmul":5564,"Ġmoon":5565,"ony":5566,"anos":5567,"Ġrem":5568,"Ġdrunken":5569,"Ġlink":5570,"Ġinfu":5571,"Ġchef":5572,"Ġminimum":5573,"Ġeight":5574,"imal":5575,"ami":5576,"ppa":5577,"Ġstuck":5578,"steak":5579,"Ġsauv":5580,"ainbow":5581,"Ġpli":5582,"Ġplank":5583,"Ġhaban":5584,"Ġflake":5585,"Ġvol":5586,"Ġovercrow":5587,"Ġcans":5588,"Ġ105":5589,"Ġremoved":5590,"Ġheld":5591,"Ġheirloom":5592,"Ġcools":5593,"Ġturned":5594,"Ġgoes":5595,"Ġhalved":5596,"ssom":5597,"Ġ358":5598,"Ġ126":5599,"Ġmarjor":5600,"Ġextracts":5601,"Ġbrussel":5602,"Ġ111":5603,"Ġ137":5604,"Ġcrisps":5605,"Ġsourdough":5606,"Ġgarni":5607,"Ġ215":5608,"Ġ231":5609,"Ġgarnishing":5610,"Ġlots":5611,"Ġcroquettes":5612,"Ġ272":5613,"Ġ279":5614,"Ġadh":5615,"Ġswordfish":5616,"Ġ365":5617,"Ġmason":5618,"Ġresist":5619,"ailable":5620,"Ġsnip":5621,"Ġquartered":5622,"Ġmilo":5623,"cooked":5624,"Ġbrandied":5625,"Ġpierced":5626,"Ġjalapeos":5627,"Ġrectangular":5628,"Ġstalk":5629,"Ġaubergine":5630,"Ġquesadilla":5631,"watermelon":5632,"Ġstrombo":5633,"Ġfraiche":5634,"Ġblossom":5635,"Ġparsnip":5636,"Ġchestnuts":5637,"Ġidli":5638,"Ġounces":5639,"Ġfacing":5640,"Ġpoblanos":5641,"Ġsugges":5642,"Ġcombining":5643,"Ġfamily":5644,"Ġgoud":5645,"Ġsundaes":5646,"Ġcurrants":5647,"Ġladyfinger":5648,"Ġconcentrate":5649,"âĦī":5650,"Ġsaran":5651,"Ġunwrap":5652,"Ġcalifornia":5653,"Ġpunj":5654,"Ġmignon":5655,"Ġparatha":5656,"Ġaccom":5657,"Ġsanta":5658,"Ġinfuse":5659,"Ġsauvignon":5660,"Ġovercrowd":5661,"Ġmarjoram":5662,"Ġstromboli":5663,"bake":5664,"cinnamon":5665,"crock":5666,"del":5667,"hang":5668,"my":5669,"rink":5670,"simp":5671,"val":5672,"xican":5673,"zan":5674,"Ġq":5675,"Ġtru":5676,"inis":5677,"inos":5678,"Ġcer":5679,"Ġos":5680,"Ġpou":5681,"Ġpiri":5682,"Ġfoot":5683,"Ġandouille":5684,"Ġbi":5685,"Ġbain":5686,"Ġmor":5687,"Ġmummy":5688,"ising":5689,"ilt":5690,"Ġreese":5691,"ically":5692,"Ġgf":5693,"Ġgim":5694,"Ġgives":5695,"aky":5696,"Ġlim":5697,"Ġluscious":5698,"Ġhers":5699,"asing":5700,"Ġchoose":5701,"tober":5702,"Ġspark":5703,"otic":5704,"Ġstout":5705,"oodles":5706,"Ġrainbow":5707,"Ġnap":5708,"Ġneck":5709,"Ġsoba":5710,"Ġsuit":5711,"elion":5712,"abo":5713,"Ġsemol":5714,"Ġoverhang":5715,"mores":5716,"mexican":5717,"Ġpotass":5718,"Ġcomp":5719,"Ġkum":5720,"Ġcontainers":5721,"Ġmom":5722,"Ġmoment":5723,"Ġgrey":5724,"Ġporiy":5725,"Ġsalads":5726,"Ġ151":5727,"until":5728,"ardi":5729,"Ġevoo":5730,"Ġbeater":5731,"Ġtheyre":5732,"Ġsolids":5733,"Ġmeld":5734,"Ġdoor":5735,"Ġ167":5736,"Ġspreadable":5737,"Ġpod":5738,"Ġpollo":5739,"Ġpods":5740,"Ġ141":5741,"Ġtoasty":5742,"Ġbutterscotch":5743,"Ġliquids":5744,"Ġ230":5745,"Ġresting":5746,"Ġcandies":5747,"Ġperfectly":5748,"Ġguava":5749,"Ġconfit":5750,"Ġpulses":5751,"Ġpacked":5752,"Ġpackets":5753,"Ġbraising":5754,"Ġmorning":5755,"Ġfilm":5756,"Ġmoisten":5757,"Ġdepends":5758,"peach":5759,"Ġbundles":5760,"Ġcitron":5761,"Ġpopsicles":5762,"Ġlumpy":5763,"Ġcitrusy":5764,"Ġjalapeo":5765,"carrot":5766,"Ġgerman":5767,"broccoli":5768,"Ġcolouring":5769,"Ġjerk":5770,"Ġshimmer":5771,"Ġidea":5772,"Ġcarbonara":5773,"Ġcornflour":5774,"Ġavailable":5775,"Ġsavoy":5776,"Ġmangos":5777,"Ġpliable":5778,"Ġhabanero":5779,"Ġsemolina":5780,"Ġpotassium":5781,"Ġporiyal":5782,"10":5783,"aid":5784,"bb":5785,"ction":5786,"ging":5787,"gared":5788,"hey":5789,"ji":5790,"mine":5791,"nh":5792,"ond":5793,"pre":5794,"rain":5795,"son":5796,"viche":5797,"work":5798,"zy":5799,"zing":5800,"Ġâ":5801,"ref":5802,"reath":5803,"Ġsink":5804,"Ġpith":5805,"Ġpitch":5806,"ĠbÃ¡":5807,"Ġmad":5808,"Ġmouth":5809,"issa":5810,"atar":5811,"once":5812,"Ġwreath":5813,"eno":5814,"Ġdog":5815,"alaf":5816,"icious":5817,"edar":5818,"Ġgone":5819,"akop":5820,"Ġlogs":5821,"Ġcoals":5822,"Ġchap":5823,"Ġchana":5824,"iment":5825,"ention":5826,"ghi":5827,"ote":5828,"Ġdand":5829,"ific":5830,"ified":5831,"see":5832,"Ġvine":5833,"Ġoils":5834,"Ġfather":5835,"Ġcrim":5836,"more":5837,"Ġanimal":5838,"Ġkiss":5839,"Ġcontent":5840,"Ġalco":5841,"Ġmode":5842,"olf":5843,"active":5844,"Ġza":5845,"Ġzoodles":5846,"Ġhalwa":5847,"Ġ121":5848,"Ġ124":5849,"Ġ129":5850,"Ġworld":5851,"Ġsauted":5852,"Ġparma":5853,"Ġsoya":5854,"Ġanywh":5855,"Ġ169":5856,"Ġchex":5857,"Ġ240":5858,"Ġ247":5859,"Ġgetting":5860,"Ġcoats":5861,"Ġliquor":5862,"Ġoregan":5863,"Ġ192":5864,"Ġcause":5865,"Ġtempt":5866,"Ġtartare":5867,"Ġ262":5868,"Ġ270":5869,"Ġ274":5870,"Ġgoats":5871,"Ġadap":5872,"Ġ368":5873,"Ġrubbed":5874,"Ġresult":5875,"Ġ557":5876,"Ġ410":5877,"Ġ417":5878,"Ġunderside":5879,"Ġeats":5880,"Ġpulling":5881,"Ġpatty":5882,"Ġamounts":5883,"Ġrotini":5884,"Ġholds":5885,"Ġmethi":5886,"Ġtouching":5887,"Ġattached":5888,"Ġquarts":5889,"Ġfalls":5890,"Ġdecorative":5891,"Ġjello":5892,"Ġpalms":5893,"Ġweekly":5894,"Ġokay":5895,"Ġvalentine":5896,"Ġtested":5897,"Ġharissa":5898,"Ġgalettes":5899,"Ġmenu":5900,"iggle":5901,"Ġgloss":5902,"Ġpoblano":5903,"Ġlatte":5904,"Ġpierogi":5905,"Ġpierogies":5906,"Ġprior":5907,"Ġundist":5908,"Ġmembrane":5909,"Ġsanto":5910,"butternut":5911,"Ġkalamatan":5912,"Ġceviche":5913,"Ġentertaining":5914,"Ġslushies":5915,"Ġheaven":5916,"Ġescarole":5917,"Ġfingertips":5918,"Ġjulienne":5919,"Ġcreamsicle":5920,"teca":5921,"Ġvolume":5922,"Ġladyfingers":5923,"simple":5924,"Ġfootball":5925,"Ġhershey":5926,"Ġpitcher":5927,"ĠbÃ¡nh":5928,"alafel":5929,"akopita":5930,"Ġanywhere":5931,"Ġoreganata":5932,"Ġtemptation":5933,"for":5934,"ham":5935,"hot":5936,"hind":5937,"iqu":5938,"ock":5939,"po":5940,"pie":5941,"smo":5942,"savory":5943,"yal":5944,"Ġive":5945,"Ġahi":5946,"Ġsch":5947,"Ġcedar":5948,"Ġthinner":5949,"essel":5950,"Ġpru":5951,"Ġfres":5952,"Ġmak":5953,"Ġmax":5954,"Ġmung":5955,"itor":5956,"ities":5957,"enade":5958,"Ġrender":5959,"Ġdra":5960,"Ġgy":5961,"Ġgho":5962,"Ġgoul":5963,"ipas":5964,"Ġchall":5965,"llan":5966,"thus":5967,"Ġspan":5968,"Ġbehind":5969,"oopie":5970,"Ġpeony":5971,"Ġsting":5972,"Ġsals":5973,"Ġsalami":5974,"Ġglue":5975,"quitos":5976,"Ġvent":5977,"Ġvessel":5978,"Ġjuicy":5979,"Ġcreating":5980,"Ġseven":5981,"Ġcrme":5982,"Ġcrazy":5983,"Ġcaldo":5984,"Ġdecad":5985,"ffic":5986,"Ġ102":5987,"Ġ106":5988,"Ġmaintain":5989,"Ġcarob":5990,"Ġ305":5991,"Ġ155":5992,"Ġ159":5993,"Ġ204":5994,"Ġtrin":5995,"Ġsciss":5996,"Ġscamp":5997,"Ġwhiskey":5998,"Ġsweetness":5999,"Ġmanual":6000,"Ġbream":6001,"udo":6002,"Ġwholemeal":6003,"Ġtotally":6004,"Ġ114":6005,"Ġ136":6006,"Ġ138":6007,"Ġfriday":6008,"Ġslivers":6009,"maple":6010,"Ġ224":6011,"abbit":6012,"Ġ217":6013,"Ġfrosted":6014,"spinach":6015,"Ġ239":6016,"Ġending":6017,"Ġsmokey":6018,"Ġpatch":6019,"Ġ278":6020,"Ġmozzarellan":6021,"Ġtoward":6022,"Ġbabies":6023,"boiled":6024,"Ġrubbing":6025,"Ġraised":6026,"Ġbraggs":6027,"manthus":6028,"Ġsouff":6029,"Ġbbc":6030,"Ġ521":6031,"Ġ524":6032,"Ġequally":6033,"Ġtunan":6034,"Ġroti":6035,"Ġpicture":6036,"Ġparfaits":6037,"Ġmonster":6038,"Ġwaiting":6039,"Ġoriginal":6040,"Ġevaporates":6041,"Ġrectangles":6042,"Ġtapenade":6043,"bani":6044,"Ġragout":6045,"ĠragÃ¹":6046,"Ġresemble":6047,"Ġpocket":6048,"Ġpair":6049,"Ġaroma":6050,"Ġspiralized":6051,"Ġmenudo":6052,"Ġshimmers":6053,"Ġtaquitos":6054,"Ġdetox":6055,"Ġdiagonal":6056,"Ġspareribs":6057,"Ġkofta":6058,"Ġobtain":6059,"Ġsuperfood":6060,"Ġgooey":6061,"Ġgingersnaps":6062,"Ġhealthier":6063,"Ġpoints":6064,"Ġremoulade":6065,"Ġgouda":6066,"Ġpunjabi":6067,"Ġqt":6068,"Ġdandelion":6069,"Ġadapted":6070,"Ġprune":6071,"Ġgoulash":6072,"ipasto":6073,"Ġscampi":6074,"cle":6075,"cchi":6076,"hol":6077,"house":6078,"iew":6079,"jo":6080,"ler":6081,"ml":6082,"mew":6083,"pasta":6084,"pare":6085,"tie":6086,"yss":6087,"Ã»":6088,"Ġtu":6089,"Ġtum":6090,"Ġtall":6091,"Ġsam":6092,"Ġself":6093,"eric":6094,"Ġci":6095,"Ġpy":6096,"Ġfav":6097,"Ġfizz":6098,"Ġfalafel":6099,"Ġwind":6100,"ils":6101,"ense":6102,"rost":6103,"Ġhan":6104,"asmine":6105,"Ġchang":6106,"Ġforty":6107,"Ġminted":6108,"ady":6109,"thai":6110,"Ġitself":6111,"entine":6112,"Ġpep":6113,"veget":6114,"Ġdab":6115,"Ġrustic":6116,"Ġrabbit":6117,"illote":6118,"astal":6119,"Ġunmo":6120,"Ġunroll":6121,"umini":6122,"Ġnumber":6123,"Ġsogg":6124,"Ġsomew":6125,"Ġcookbook":6126,"cheese":6127,"Ġwhoopie":6128,"Ġsugared":6129,"Ġflaky":6130,"Ġperio":6131,"Ġjasmine":6132,"Ġvid":6133,"Ġleg":6134,"Ġsher":6135,"Ġshare":6136,"urbed":6137,"Ġdesire":6138,"Ġcrema":6139,"moroccan":6140,"Ġroyal":6141,"Ġupright":6142,"Ġpots":6143,"Ġka":6144,"Ġkorm":6145,"Ġgrater":6146,"ante":6147,"Ġalumini":6148,"Ġ107":6149,"Ġcarbs":6150,"ession":6151,"rub":6152,"Ġcuts":6153,"Ġcorners":6154,"Ġ156":6155,"Ġextreme":6156,"Ġzucch":6157,"unk":6158,"Ġenc":6159,"ichyss":6160,"loth":6161,"Ġ351":6162,"Ġheads":6163,"Ġpapillote":6164,"Ġscor":6165,"Ġthats":6166,"Ġmanner":6167,"Ġsolution":6168,"Ġ401":6169,"Ġbrats":6170,"Ġtwine":6171,"Ġ257":6172,"Ġ258":6173,"Ġ119":6174,"Ġ187":6175,"Ġaminos":6176,"Ġreads":6177,"Ġ248":6178,"Ġ371":6179,"Ġ376":6180,"Ġ378":6181,"Ġcrisped":6182,"Ġoreos":6183,"Ġcenters":6184,"Ġ223":6185,"Ġ210":6186,"Ġ214":6187,"salmon":6188,"Ġ275":6189,"Ġ289":6190,"Ġ295":6191,"Ġcolada":6192,"Ġstewed":6193,"Ġ335":6194,"Ġ345":6195,"Ġkitchenaid":6196,"Ġricottan":6197,"Ġ398":6198,"Ġ385":6199,"Ġinserting":6200,"Ġduty":6201,"Ġ486":6202,"Ġscone":6203,"Ġfullbell":6204,"Ġsqueezing":6205,"Ġ564":6206,"Ġseem":6207,"Ġburner":6208,"Ġkids":6209,"Ġpicnic":6210,"Ġbulk":6211,"Ġramekin":6212,"Ġbouquet":6213,"Ġsubstituted":6214,"Ġappetizers":6215,"Ġfloats":6216,"Ġserrano":6217,"Ġphilly":6218,"Ġachie":6219,"Ġclafouti":6220,"Ġsuggest":6221,"Ġtanger":6222,"ysisters":6223,"Ġdigest":6224,"Ġstainless":6225,"Ġnorth":6226,"Ġgroup":6227,"Ġresults":6228,"Ġaccompan":6229,"Ġosmanthus":6230,"Ġmorsel":6231,"Ġshimmering":6232,"Ġalcohol":6233,"Ġglossy":6234,"Ġundisturbed":6235,"Ġspanakopita":6236,"Ġscissors":6237,"cchiette":6238,"Ġunmold":6239,"Ġsoggy":6240,"Ġperiod":6241,"Ġkorma":6242,"Ġaluminium":6243,"Ġextremely":6244,"Ġzucchinis":6245,"ichyssoise":6246,"Ġfullbellysisters":6247,"bre":6248,"bap":6249,"bru":6250,"citr":6251,"ek":6252,"ien":6253,"king":6254,"ked":6255,"korean":6256,"lentil":6257,"mp":6258,"ph":6259,"sw":6260,"tipasto":6261,"ugel":6262,"ye":6263,"zteca":6264,"Ġ}":6265,"ĸ¢":6266,"Ġazteca":6267,"Ġtso":6268,"Ġsze":6269,"Ġcab":6270,"Ġcyl":6271,"Ġox":6272,"Ġpam":6273,"Ġfu":6274,"Ġfarm":6275,"Ġfitting":6276,"Ġbage":6277,"Ġbigg":6278,"Ġmao":6279,"atas":6280,"atta":6281,"itan":6282,"Ġdal":6283,"Ġdam":6284,"Ġdense":6285,"aloo":6286,"ica":6287,"icas":6288,"etic":6289,"llof":6290,"thday":6291,"ential":6292,"Ġspoo":6293,"Ġpeek":6294,"Ġdaiqu":6295,"ston":6296,"Ġadds":6297,"uli":6298,"garian":6299,"Ġnog":6300,"Ġwhy":6301,"Ġwhirl":6302,"Ġsuffic":6303,"Ġhay":6304,"quick":6305,"ify":6306,"Ġvichyssoise":6307,"irthday":6308,"Ġbrook":6309,"Ġcrimp":6310,"Ġrope":6311,"Ġantipasto":6312,"Ġchobani":6313,"Ġcomments":6314,"Ġkar":6315,"Ġken":6316,"Ġkabo":6317,"Ġgras":6318,"agram":6319,"Ġ103":6320,"Ġhear":6321,"Ġslip":6322,"Ġnotice":6323,"Ġblanc":6324,"raised":6325,"Ġcooler":6326,"Ġmadele":6327,"Ġ304":6328,"Ġvegeta":6329,"Ġpreheating":6330,"Ġsteady":6331,"Ġ123":6332,"Ġscrub":6333,"Ġmelba":6334,"Ġsautee":6335,"Ġturnips":6336,"Ġanything":6337,"Ġ161":6338,"Ġ131":6339,"Ġsyrupy":6340,"Ġburned":6341,"Ġ195":6342,"Ġ232":6343,"Ġgarnishes":6344,"Ġsauteing":6345,"Ġcheesecloth":6346,"Ġcasing":6347,"Ġmexi":6348,"Ġtasting":6349,"Ġknock":6350,"Ġpint":6351,"Ġcroquet":6352,"Ġpizzette":6353,"Ġ420":6354,"Ġ266":6355,"crab":6356,"amboo":6357,"Ġ361":6358,"Ġconfession":6359,"ĠxÃ¨":6360,"Ġpackaged":6361,"Ġbraid":6362,"Ġ392":6363,"Ġbreadcrumb":6364,"Ġ412":6365,"Ġ413":6366,"heres":6367,"Ġ445":6368,"Ġbarbe":6369,"Ġjollof":6370,"Ġpicante":6371,"Ġtouched":6372,"Ġfrittatas":6373,"Ġrockfish":6374,"Ġstarter":6375,"Ġpopsicle":6376,"Ġensuring":6377,"Ġsnowman":6378,"Ġsnowball":6379,"Ġstretch":6380,"Ġbought":6381,"Ġportab":6382,"authentic":6383,"chae":6384,"Ġnaturally":6385,"noli":6386,"Ġfunghi":6387,"Ġspiralize":6388,"Ġsauces":6389,"Ġalaska":6390,"Ġziplock":6391,"Ġgloves":6392,"ganic":6393,"Ġcallaloo":6394,"Ġdiagonally":6395,"Ġbenef":6396,"Ġflutes":6397,"Ġsardine":6398,"skinny":6399,"Ġtails":6400,"Ġbibimbap":6401,"Ġmudd":6402,"Ġspacing":6403,"ĠcrÃªpes":6404,"Ġmotion":6405,"Ġsnickerdood":6406,"Ġtorn":6407,"Ġstoring":6408,"Ġflorida":6409,"Ġclementine":6410,"Ġsilky":6411,"Ġhorizontally":6412,"Ġadhere":6413,"Ġceramic":6414,"Ġâĸ¢":6415,"Ġcrimini":6416,"Ġmaximum":6417,"Ġsalsan":6418,"Ġtumeric":6419,"Ġfavour":6420,"vegetable":6421,"break":6422,"citrus":6423,"Ġcylind":6424,"Ġbagel":6425,"Ġbigger":6426,"Ġspooky":6427,"Ġdaiquiri":6428,"Ġcroquetas":6429,"ĠxÃ¨o":6430,"51":6431,"bean":6432,"bbly":6433,"cy":6434,"cip":6435,"done":6436,"euf":6437,"ember":6438,"fo":6439,"fr":6440,"far":6441,"grap":6442,"iers":6443,"jar":6444,"lÃ©e":6445,"non":6446,"sc":6447,"summer":6448,"time":6449,"with":6450,"inese":6451,"inary":6452,"instant":6453,"rek":6454,"Ġoo":6455,"Ġpav":6456,"Ġfaster":6457,"Ġfont":6458,"Ġbli":6459,"Ġbull":6460,"Ġbirthday":6461,"Ġbamboo":6462,"Ġmes":6463,"Ġmeet":6464,"Ġmalay":6465,"oury":6466,"isbury":6467,"ĠĠĠĠĠ":6468,"Ġwid":6469,"ild":6470,"angh":6471,"Ġrel":6472,"ality":6473,"icc":6474,"icum":6475,"Ġgiving":6476,"Ġgolf":6477,"aken":6478,"Ġlit":6479,"Ġlite":6480,"Ġhr":6481,"Ġhum":6482,"aces":6483,"Ġyak":6484,"Ġforced":6485,"ucks":6486,"cod":6487,"coffee":6488,"Ġsalisbury":6489,"Ġras":6490,"stir":6491,"chinese":6492,"Ġfronds":6493,"ected":6494,"Ġperog":6495,"Ġjoy":6496,"Ġorient":6497,"Ġshow":6498,"Ġsimme":6499,"ura":6500,"abetic":6501,"lico":6502,"light":6503,"Ġbowtie":6504,"Ġcreamer":6505,"redible":6506,"Ġcanadian":6507,"Ġannual":6508,"Ġwatery":6509,"Ġchopping":6510,"Ġkit":6511,"Ġcontest":6512,"herb":6513,"Ġalone":6514,"eye":6515,"Ġboeuf":6516,"Ġexch":6517,"Ġ104":6518,"Ġcarve":6519,"Ġdiabetic":6520,"Ġ308":6521,"Ġpourable":6522,"loaded":6523,"Ġ355":6524,"Ġ128":6525,"angelico":6526,"Ġsimmers":6527,"Ġmeatless":6528,"Ġincredible":6529,"Ġpuy":6530,"Ġsmoothies":6531,"zzards":6532,"Ġtablespoonfuls":6533,"tiv":6534,"Ġtranspare":6535,"Ġbella":6536,"ĠbrÃ»":6537,"Ġclos":6538,"Ġchills":6539,"Ġ163":6540,"Ġ112":6541,"Ġ116":6542,"Ġfricas":6543,"Ġfrangelico":6544,"Ġ249":6545,"Ġ146":6546,"Ġorecchiette":6547,"Ġ196":6548,"Ġeditor":6549,"Ġ174":6550,"spaghetti":6551,"Ġesc":6552,"Ġ423":6553,"Ġ269":6554,"Ġ281":6555,"Ġsurfaces":6556,"Ġguilt":6557,"Ġ317":6558,"Ġ334":6559,"Ġ337":6560,"encal":6561,"Ġscraps":6562,"Ġ390":6563,"Ġexcessive":6564,"Ġ416":6565,"Ġwilts":6566,"Ġ465":6567,"Ġ520":6568,"Ġ527":6569,"Ġseems":6570,"Ġ576":6571,"Ġgrainy":6572,"Ġhardens":6573,"Ġgelato":6574,"Ġdusting":6575,"Ġsavoury":6576,"Ġ639":6577,"Ġactiv":6578,"Ġcustards":6579,"Ġholding":6580,"Ġwontons":6581,"Ġparmigiana":6582,"Ġ913":6583,"Ġdecorating":6584,"Ġgrinder":6585,"ugreek":6586,"Ġactually":6587,"Ġstreet":6588,"Ġpancit":6589,"Ġpalmiers":6590,"Ġweeknight":6591,"cannon":6592,"Ġcapsicum":6593,"Ġtwists":6594,"Ġdiamond":6595,"dock":6596,"Ġblond":6597,"Ġbiscoff":6598,"Ġmarket":6599,"Ġnormally":6600,"Ġfaced":6601,"Ġmoulds":6602,"Ġscalloped":6603,"Ġfamous":6604,"Ġreleases":6605,"Ġripened":6606,"Ġbibimbab":6607,"ĠcrÃªpe":6608,"curried":6609,"Ġvariation":6610,"Ġferment":6611,"Ġhulls":6612,"Ġexactly":6613,"Ġsambal":6614,"Ġlinks":6615,"Ġresistant":6616,"Ġblossoms":6617,"Ġsuggestion":6618,"Ġpouch":6619,"Ġsparkling":6620,"Ġnapa":6621,"Ġsuitable":6622,"bbq":6623,"Ġtrinid":6624,"Ġpepitas":6625,"Ġvidalian":6626,"Ġachieved":6627,"Ġtangerine":6628,"Ġbarbeque":6629,"graph":6630,"Ġblizzards":6631,"Ġsimmered":6632,"Ġtransparent":6633,"ĠbrÃ»lÃ©e":6634,"29":6635,"ben":6636,"bac":6637,"cus":6638,"lg":6639,"nv":6640,"pat":6641,"pale":6642,"ril":6643,"rice":6644,"sbury":6645,"tous":6646,"ugs":6647,"ware":6648,"warm":6649,"yer":6650,"yan":6651,"zole":6652,"Âº":6653,"ĠÃ":6654,"Ġtat":6655,"Ġtra":6656,"Ġsel":6657,"Ġcad":6658,"Ġcamp":6659,"Ġot":6660,"Ġpill":6661,"Ġboo":6662,"Ġbano":6663,"Ġbook":6664,"Ġmut":6665,"Ġmardi":6666,"ari":6667,"aring":6668,"ister":6669,"atine":6670,"Ġwise":6671,"enz":6672,"ute":6673,"Ġdak":6674,"Ġdress":6675,"Ġdeath":6676,"Ġdye":6677,"Ġgro":6678,"iple":6679,"Ġhop":6680,"asparagus":6681,"aci":6682,"Ġcoastal":6683,"ether":6684,"Ġinner":6685,"Ġyum":6686,"Ġchou":6687,"Ġchamp":6688,"lect":6689,"Ġminus":6690,"add":6691,"iman":6692,"Ġbelg":6693,"ghter":6694,"Ġisnt":6695,"otti":6696,"Ġstarb":6697,"Ġdahl":6698,"Ġrach":6699,"ste":6700,"stacks":6701,"Ġglugs":6702,"garlic":6703,"Ġsole":6704,"Ġwhether":6705,"ecan":6706,"Ġjew":6707,"Ġorganic":6708,"Ġpeppercorn":6709,"riotic":6710,"Ġshrink":6711,"Ġareas":6712,"Ġeggroll":6713,"Ġoverl":6714,"allions":6715,"meyer":6716,"Ġapply":6717,"Ġ451":6718,"Ġkring":6719,"ational":6720,"Ġmediums":6721,"Ġborek":6722,"Ġmomm":6723,"Ġ109":6724,"Ġremovable":6725,"Ġhemp":6726,"Ġslab":6727,"Ġnotch":6728,"Ġcourget":6729,"olotti":6730,"Ġcorre":6731,"omppa":6732,"Ġsprings":6733,"Ġ302":6734,"Ġ309":6735,"Ġskip":6736,"esteak":6737,"Ġ153":6738,"andan":6739,"Ġ353":6740,"Ġmarcus":6741,"Ġscal":6742,"Ġscant":6743,"Ġimmer":6744,"Ġquark":6745,"Ġquality":6746,"afe":6747,"Ġwhisked":6748,"osas":6749,"ogi":6750,"Ġbringing":6751,"âĢĶ":6752,"Ġwholewheat":6753,"Ġ117":6754,"Ġ183":6755,"Ġ186":6756,"Ġ135":6757,"Ġcurdle":6758,"Ġpoppers":6759,"Ġcheesesteak":6760,"Ġ246":6761,"Ġ140":6762,"Ġ379":6763,"Ġinstagram":6764,"Ġ324":6765,"Ġyear":6766,"Ġfactory":6767,"Ġ179":6768,"Ġ226":6769,"abby":6770,"Ġ216":6771,"Ġ233":6772,"Ġcases":6773,"Ġmedallions":6774,"Ġknown":6775,"Ġknives":6776,"Ġpina":6777,"Ġpinching":6778,"Ġscratch":6779,"Ġeveryone":6780,"Ġ507":6781,"Ġ267":6782,"Ġpuddings":6783,"Ġdarker":6784,"crust":6785,"Ġbaboy":6786,"Ġ285":6787,"Ġ291":6788,"box":6789,"Ġcolcannon":6790,"Ġspeedy":6791,"Ġ362":6792,"ettan":6793,"Ġ330":6794,"Ġ340":6795,"Ġpurch":6796,"Ġrises":6797,"Ġsoul":6798,"Ġsoured":6799,"Ġ435":6800,"Ġ477":6801,"Ġpinches":6802,"Ġpuffy":6803,"Ġ464":6804,"cient":6805,"Ġ481":6806,"Ġwashed":6807,"Ġdiscs":6808,"Ġdefrost":6809,"Ġverben":6810,"Ġbuild":6811,"Ġreducing":6812,"ĠĠĠĠĠĠ":6813,"Ġfenugreek":6814,"Ġpopeye":6815,"pear":6816,"Ġcollap":6817,"Ġwonton":6818,"Ġmolten":6819,"Ġliner":6820,"Ġdollops":6821,"Ġessential":6822,"Ġfriends":6823,"ugust":6824,"Ġtilt":6825,"Ġtamari":6826,"Ġlifting":6827,"Ġdashes":6828,"Ġentirely":6829,"Ġsizzles":6830,"Ġdevil":6831,"Ġdiffic":6832,"ĠjalapeÃ±os":6833,"Ġfancy":6834,"Ġwobbly":6835,"idden":6836,"Ġfajitas":6837,"Ġrapid":6838,"Ġpassion":6839,"Ġmandol":6840,"Ġappearance":6841,"Ġhungarian":6842,"Ġphotograph":6843,"Ġsifter":6844,"oosewood":6845,"Ġlatkes":6846,"Ġstays":6847,"Ġfondue":6848,"Ġdisks":6849,"Ġsundae":6850,"Ġmembranes":6851,"skillet":6852,"Ġprovence":6853,"eggplant":6854,"Ġbakers":6855,"Ġmessy":6856,"Ġcurls":6857,"Ġgulasch":6858,"Ġnibs":6859,"Ġweights":6860,"Ġcrinkle":6861,"Ġcrinkles":6862,"dessert":6863,"Ġsiam":6864,"Ġchocolates":6865,"Ġnettle":6866,"Ġsunchoke":6867,"Ġplanked":6868,"zanella":6869,"Ġgimlet":6870,"Ġkumqu":6871,"oncello":6872,"Ġfootballs":6873,"Ġfresco":6874,"Ġdraft":6875,"Ġstinging":6876,"Ġwindow":6877,"Ġsomewhat":6878,"Ġscorching":6879,"Ġperiodically":6880,"bruary":6881,"Ġhaystacks":6882,"Ġfavourite":6883,"breakfast":6884,"cipes":6885,"Ġfontina":6886,"Ġexchanges":6887,"Ġclosest":6888,"Ġfricassee":6889,"Ġblondies":6890,"nvita":6891,"paleo":6892,"toush":6893,"Ġcadbury":6894,"Ġpillsbury":6895,"Ġbanoffee":6896,"Ġmutton":6897,"Ġrachel":6898,"Ġkringle":6899,"Ġmommie":6900,"12":6901,"16":6902,"band":6903,"braised":6904,"cing":6905,"creme":6906,"duc":6907,"ems":6908,"fi":6909,"goo":6910,"hon":6911,"hra":6912,"iol":6913,"jul":6914,"ject":6915,"mesan":6916,"nolotti":6917,"oz":6918,"oven":6919,"pecan":6920,"rasp":6921,"span":6922,"tit":6923,"tex":6924,"ux":6925,"va":6926,"vre":6927,"ya":6928,"zu":6929,"Ã³":6930,"Ġatop":6931,"Ġakan":6932,"rel":6933,"rew":6934,"rex":6935,"rease":6936,"Ġsided":6937,"Ġsous":6938,"Ġsound":6939,"Ġsult":6940,"ernet":6941,"Ġobl":6942,"nday":6943,"ndered":6944,"esco":6945,"Ġproduce":6946,"Ġpula":6947,"Ġpoured":6948,"Ġpandan":6949,"Ġfab":6950,"Ġandhra":6951,"Ġbac":6952,"Ġbree":6953,"Ġbagg":6954,"Ġbirm":6955,"ington":6956,"ingham":6957,"Ġwan":6958,"ili":6959,"italian":6960,"Ġrendered":6961,"icama":6962,"Ġga":6963,"Ġlick":6964,"Ġlif":6965,"Ġhu":6966,"Ġhatch":6967,"Ġhuli":6968,"vember":6969,"Ġink":6970,"Ġinn":6971,"Ġinform":6972,"Ġchess":6973,"Ġmind":6974,"adillo":6975,"Ġepic":6976,"Ġitems":6977,"idget":6978,"ames":6979,"Ġspud":6980,"Ġbend":6981,"Ġbechamel":6982,"Ġminutesuntil":6983,"Ġster":6984,"Ġrugel":6985,"uls":6986,"teri":6987,"Ġnori":6988,"Ġplump":6989,"cht":6990,"chilled":6991,"Ġbutt":6992,"Ġpreserve":6993,"Ġjiggle":6994,"Ġjicama":6995,"ira":6996,"Ġshot":6997,"ishes":6998,"Ġfattoush":6999,"Ġass":7000,"Ġdesign":7001,"Ġseams":7002,"Ġpanzanella":7003,"parmesan":7004,"Ġrolo":7005,"Ġchoco":7006,"Ġtrying":7007,"Ġkool":7008,"agne":7009,"Ġdecrease":7010,"Ġparalle":7011,"Ġstopping":7012,"Ġmonday":7013,"Ġslash":7014,"Ġfollows":7015,"Ġwellington":7016,"Ġbliss":7017,"Ġbloom":7018,"Ġmilky":7019,"Ġsets":7020,"Ġlets":7021,"Ġtech":7022,"Ġdehydr":7023,"Ġbreads":7024,"ashed":7025,"Ġ157":7026,"izer":7027,"Ġ203":7028,"Ġ354":7029,"Ġ359":7030,"Ġmary":7031,"Ġmarch":7032,"Ġmarks":7033,"Ġmarasch":7034,"Ġagnolotti":7035,"Ġsweeter":7036,"Ġmeats":7037,"osed":7038,"Ġdripping":7039,"Ġlaying":7040,"Ġseeded":7041,"Ġmeans":7042,"Ġtenders":7043,"assi":7044,"Ġ252":7045,"Ġchilling":7046,"Ġ188":7047,"Ġ134":7048,"Ġthickly":7049,"Ġpomo":7050,"Ġamar":7051,"Ġfront":7052,"Ġ244":7053,"Ġ143":7054,"Ġ149":7055,"itionally":7056,"Ġcaramelise":7057,"Ġcaramelised":7058,"Ġslight":7059,"Ġburst":7060,"Ġ329":7061,"Ġdeli":7062,"Ġ198":7063,"Ġstrings":7064,"Ġ177":7065,"Ġ227":7066,"Ġ229":7067,"orscht":7068,"Ġ213":7069,"Ġ234":7070,"Ġ235":7071,"Ġnovember":7072,"Ġshreds":7073,"Ġtasted":7074,"Ġ422":7075,"Ġ424":7076,"Ġ264":7077,"Ġfinishing":7078,"Ġ271":7079,"Ġbetty":7080,"Ġquicker":7081,"Ġ294":7082,"Ġ296":7083,"Ġ369":7084,"Ġmasa":7085,"Ġfirstly":7086,"Ġ310":7087,"Ġ315":7088,"Ġspringy":7089,"Ġchickpean":7090,"Ġsunny":7091,"Ġ338":7092,"ĠpurÃ©e":7093,"Ġinstructionspre":7094,"Ġconsider":7095,"Ġresid":7096,"Ġ558":7097,"Ġmicrowav":7098,"Ġunderdone":7099,"Ġchipotles":7100,"Ġsubstant":7101,"Ġadjusting":7102,"Ġverdes":7103,"cajun":7104,"Ġ657":7105,"Ġ566":7106,"Ġreduction":7107,"Ġdepth":7108,"Ġsealing":7109,"Ġsealable":7110,"Ġherbes":7111,"Ġpopover":7112,"Ġpresent":7113,"pepper":7114,"Ġassembled":7115,"Ġassembling":7116,"Ġacid":7117,"Ġcollect":7118,"Ġ625":7119,"corned":7120,"Ġentry":7121,"Ġrubbery":7122,"Ġsubsides":7123,"cooking":7124,"mediterranean":7125,"Ġflorent":7126,"Ġevaporate":7127,"Ġpancettan":7128,"Ġrigate":7129,"Ġhamburgers":7130,"Ġhusk":7131,"Ġhusband":7132,"Ġtilapian":7133,"Ġamaretti":7134,"autumn":7135,"Ġenergy":7136,"Ġvermouth":7137,"Ġstrokes":7138,"Ġgrandma":7139,"Ġchimney":7140,"Ġflower":7141,"Ġblock":7142,"Ġburritos":7143,"Ġsecurely":7144,"Ġengland":7145,"Ġcontinuing":7146,"Ġflavours":7147,"Ġshavings":7148,"Ġtucking":7149,"Ġvisit":7150,"Ġcombination":7151,"Ġindentation":7152,"Ġsnapper":7153,"Ġfluted":7154,"caramelized":7155,"Ġkofte":7156,"Ġspaced":7157,"Ġmotor":7158,"Ġvariations":7159,"Ġdropped":7160,"Ġpaint":7161,"Ġrows":7162,"Ġchocolat":7163,"Ġseriously":7164,"chuan":7165,"Ġspritzer":7166,"celery":7167,"hani":7168,"Ġmooncake":7169,"delicious":7170,"Ġlimoncello":7171,"Ġghost":7172,"Ġdecadent":7173,"Ġsouffle":7174,"Ġpictures":7175,"Ġsamosas":7176,"Ġpyrex":7177,"Ġsherbet":7178,"Ġaccompaniment":7179,"Ġszechuan":7180,"Ġcabernet":7181,"Ġmadeleines":7182,"Ġportabella":7183,"Ġmuddle":7184,"Ġrelatively":7185,"Ġperogies":7186,"Ġoriental":7187,"Ġfermented":7188,"ĠÃł":7189,"Ġstarbucks":7190,"Ġoverlap":7191,"Ġcorrect":7192,"Ġverbena":7193,"Ġdifficult":7194,"goog":7195,"raspberry":7196,"Ġoblong":7197,"Ġpulao":7198,"Ġfabul":7199,"Ġbaggie":7200,"Ġbirmingham":7201,"Ġrugelach":7202,"Ġparallel":7203,"Ġmaraschino":7204,"Ġinstructionspreheat":7205,"'d":7206,"aquil":7207,"bits":7208,"bella":7209,"bird":7210,"cation":7211,"ctober":7212,"dairy":7213,"hire":7214,"jool":7215,"kale":7216,"lamb":7217,"laise":7218,"lava":7219,"mit":7220,"mark":7221,"nat":7222,"nit":7223,"not":7224,"rum":7225,"rabi":7226,"sby":7227,"tw":7228,"tun":7229,"ysen":7230,"zer":7231,"Ãº":7232,"Ġaugust":7233,"Ġtid":7234,"erita":7235,"Ġcul":7236,"Ġcame":7237,"Ġcatch":7238,"Ġcze":7239,"ndy":7240,"Ġpak":7241,"Ġpas":7242,"Ġpet":7243,"Ġpim":7244,"Ġpao":7245,"Ġfant":7246,"Ġfave":7247,"Ġfift":7248,"Ġbchamel":7249,"Ġborscht":7250,"Ġml":7251,"Ġmis":7252,"Ġmist":7253,"Ġmoosewood":7254,"oud":7255,"Ġww":7256,"Ġwinning":7257,"itter":7258,"anat":7259,"Ġrell":7260,"Ġdressed":7261,"Ġdream":7262,"alized":7263,"alouette":7264,"alha":7265,"icated":7266,"Ġgiv":7267,"Ġlaw":7268,"Ġlife":7269,"Ġlassi":7270,"Ġhis":7271,"Ġhint":7272,"Ġhidden":7273,"vection":7274,"etida":7275,"Ġyuc":7276,"Ġyuf":7277,"Ġchant":7278,"Ġcharm":7279,"Ġyoud":7280,"lek":7281,"adow":7282,"Ġeff":7283,"toasted":7284,"amazing":7285,"coll":7286,"gherita":7287,"oola":7288,"ppucc":7289,"Ġries":7290,"Ġunt":7291,"ulan":7292,"uma":7293,"Ġneat":7294,"Ġnaked":7295,"Ġplay":7296,"Ġwhist":7297,"Ġsuya":7298,"Ġconvection":7299,"Ġprecooked":7300,"ecake":7301,"Ġvents":7302,"Ġshy":7303,"Ġshown":7304,"Ġshaw":7305,"elbas":7306,"Ġsimit":7307,"urry":7308,"Ġbroad":7309,"Ġbrodo":7310,"Ġasaf":7311,"Ġcreus":7312,"Ġoverf":7313,"Ġcrabby":7314,"Ġcalam":7315,"Ġcannoli":7316,"using":7317,"pari":7318,"Ġanal":7319,"Ġancient":7320,"Ġ457":7321,"Ġhandled":7322,"Ġfoodand":7323,"Ġvitamix":7324,"adella":7325,"Ġalbac":7326,"Ġboysen":7327,"Ġ108":7328,"Ġslit":7329,"Ġslits":7330,"Ġwells":7331,"Ġblan":7332,"Ġblitz":7333,"Ġcara":7334,"Ġturtle":7335,"Ġ307":7336,"Ġtell":7337,"Ġsoups":7338,"ceed":7339,"Ġdoughnut":7340,"Ġcorns":7341,"Ġextend":7342,"kshire":7343,"Ġchilaquil":7344,"Ġ206":7345,"Ġdesserts":7346,"Ġenvelop":7347,"Ġpicky":7348,"lova":7349,"Ġthemsel":7350,"Ġ356":7351,"Ġ357":7352,"ersed":7353,"Ġmargherita":7354,"Ġscape":7355,"oreo":7356,"Ġprof":7357,"Ġproduc":7358,"Ġproceed":7359,"Ġhighly":7360,"osable":7361,"Ġspots":7362,"Ġ403":7363,"Ġbrat":7364,"Ġbrittle":7365,"Ġbraci":7366,"Ġ253":7367,"Ġanymore":7368,"Ġprocessed":7369,"Ġ162":7370,"Ġ168":7371,"Ġ113":7372,"Ġ184":7373,"Ġ185":7374,"Ġlocation":7375,"Ġ132":7376,"Ġcurly":7377,"Ġpozole":7378,"Ġbarberry":7379,"Ġ243":7380,"Ġcrackle":7381,"nutella":7382,"Ġsizes":7383,"Ġ377":7384,"Ġdrizzles":7385,"Ġburfi":7386,"Ġflavorless":7387,"Ġ326":7388,"Ġ327":7389,"Ġfolded":7390,"Ġsource":7391,"ahi":7392,"Ġstrata":7393,"Ġ172":7394,"Ġ173":7395,"Ġ221":7396,"Ġ225":7397,"Ġ212":7398,"Ġclar":7399,"Ġclam":7400,"Ġmedjool":7401,"Ġsmoker":7402,"Ġpatriotic":7403,"Ġshortcakes":7404,"Ġ503":7405,"Ġ429":7406,"Ġ260":7407,"Ġ263":7408,"Ġ265":7409,"Ġmashing":7410,"ĠâĢĿ":7411,"indian":7412,"Ġsurround":7413,"Ġ282":7414,"Ġ287":7415,"Ġadheres":7416,"Ġadsby":7417,"boil":7418,"Ġgreatest":7419,"Ġneiman":7420,"Ġarg":7421,"Ġ360":7422,"Ġscooper":7423,"Ġamerica":7424,"Ġ311":7425,"Ġindones":7426,"Ġhock":7427,"Ġpulsing":7428,"Ġ346":7429,"Ġ347":7430,"Ġtbsps":7431,"Ġbraise":7432,"Ġmayonaise":7433,"Ġdivided":7434,"Ġscraper":7435,"Ġgreaseproof":7436,"Ġ550":7437,"Ġ397":7438,"Ġ382":7439,"Ġ384":7440,"october":7441,"Ġminiature":7442,"Ġ431":7443,"Ġ433":7444,"Ġ472":7445,"Ġtiniest":7446,"Ġwilton":7447,"Ġundercooked":7448,"Ġ494":7449,"Ġ440":7450,"Ġ442":7451,"Ġ443":7452,"Ġ541":7453,"Ġ{}":7454,"Ġexposed":7455,"Ġemuls":7456,"cauliflower":7457,"Ġ568":7458,"Ġhardboiled":7459,"Ġ530":7460,"Ġbournvita":7461,"Ġ519":7462,"Ġarugulan":7463,"Ġ2009":7464,"Ġgeneral":7465,"Ġ700":7466,"Ġ661":7467,"Ġ669":7468,"Ġ712":7469,"Ġelbow":7470,"february":7471,"Ġpicadillo":7472,"Ġbigoli":7473,"Ġromesco":7474,"Ġswirls":7475,"Ġtrimming":7476,"Ġmonkey":7477,"Ġlining":7478,"Ġcurdling":7479,"Ġvalve":7480,"super":7481,"Ġnestle":7482,"Ġjoints":7483,"Ġjambalayan":7484,"Ġsorrel":7485,"Ġbuckle":7486,"watering":7487,"Ġ[]":7488,"Ġovercooking":7489,"Ġdidn":7490,"Ġintact":7491,"Ġintend":7492,"Ġsucanat":7493,"Ġalex":7494,"Ġgalan":7495,"Ġmortadella":7496,"Ġtraditionally":7497,"Ġbulgogi":7498,"Ġvariet":7499,"Ġappearing":7500,"Ġ2011":7501,"Ġpitted":7502,"Ġpappu":7503,"Ġwafer":7504,"Ġdisapp":7505,"Ġpleats":7506,"blackberry":7507,"Ġreleased":7508,"Ġreleasing":7509,"Ġquantities":7510,"Ġprovencal":7511,"Ġuniformly":7512,"Ġmalai":7513,"Ġkalamata":7514,"Ġbaklava":7515,"Ġdanishes":7516,"Ġmassage":7517,"hlrabi":7518,"Ġajar":7519,"Ġanglaise":7520,"Ġsnickers":7521,"Ġcampari":7522,"Ġdispersed":7523,"Ġdisposable":7524,"Ġnettles":7525,"Ġsunchokes":7526,"basil":7527,"Ġmulberry":7528,"crockpot":7529,"valentine":7530,"Ġbihon":7531,"rained":7532,"Ġchapati":7533,"Ġschnit":7534,"Ġgyros":7535,"Ġchallen":7536,"Ġdigestive":7537,"Ġmorsels":7538,"Ġdamn":7539,"Ġbrookie":7540,"Ġkenyan":7541,"Ġsnickerdoodle":7542,"Ġcylinder":7543,"Ġpavlova":7544,"Ġchampagne":7545,"Ġjewish":7546,"Ġeggrolls":7547,"Ġcollapse":7548,"julia":7549,"Ġinformation":7550,"Ġspuds":7551,"terior":7552,"Ġtechni":7553,"google":7554,"Ġfabulous":7555,"Ġtidbits":7556,"Ġczech":7557,"Ġfifteen":7558,"alhau":7559,"Ġgiven":7560,"Ġyufka":7561,"Ġcharmoul":7562,"ppuccino":7563,"Ġriesling":7564,"Ġcreuset":7565,"Ġfoodandspice":7566,"Ġalbacore":7567,"Ġchilaquiles":7568,"Ġthemselves":7569,"Ġbraciole":7570,"Ġadsbygoogle":7571,"Ġindonesian":7572,"Ġschnitzel":7573,"ais":7574,"aver":7575,"bone":7576,"buffalo":7577,"cd":7578,"cut":7579,"cents":7580,"dut":7581,"dec":7582,"fen":7583,"gen":7584,"ground":7585,"gest":7586,"greek":7587,"gÃ¨":7588,"hni":7589,"iently":7590,"japanese":7591,"line":7592,"luck":7593,"mi":7594,"make":7595,"mins":7596,"ng":7597,"nay":7598,"ngth":7599,"oa":7600,"oles":7601,"oss":7602,"pa":7603,"ption":7604,"ral":7605,"rian":7606,"sou":7607,"set":7608,"squ":7609,"sun":7610,"south":7611,"tano":7612,"uary":7613,"uzu":7614,"vid":7615,"vietnamese":7616,"wur":7617,"west":7618,"Ġaip":7619,"Ġtrees":7620,"inas":7621,"inate":7622,"rench":7623,"recipes":7624,"Ġsoo":7625,"Ġsot":7626,"Ġselt":7627,"erto":7628,"Ġcell":7629,"Ġcafe":7630,"Ġthou":7631,"Ġpk":7632,"Ġpen":7633,"Ġpig":7634,"Ġfri":7635,"Ġfiddle":7636,"Ġbah":7637,"Ġbind":7638,"Ġbaker":7639,"Ġmull":7640,"Ġmama":7641,"ingbird":7642,"arat":7643,"arug":7644,"isÃ©e":7645,"atian":7646,"onst":7647,"onom":7648,"onnay":7649,"Ġwent":7650,"Ġwall":7651,"itching":7652,"annual":7653,"anuary":7654,"Ġreactive":7655,"utter":7656,"Ġdries":7657,"aline":7658,"icer":7659,"rosemary":7660,"Ġgot":7661,"Ġgaps":7662,"ipot":7663,"ipment":7664,"aks":7665,"Ġlb":7666,"Ġhom":7667,"Ġhuck":7668,"acious":7669,"Ġcoff":7670,"Ġcoke":7671,"Ġyuzu":7672,"lebr":7673,"Ġum":7674,"ades":7675,"this":7676,"though":7677,"iding":7678,"amed":7679,"Ġspinner":7680,"Ġspunk":7681,"ppe":7682,"ppine":7683,"Ġisn":7684,"Ġstur":7685,"atel":7686,"Ġrisk":7687,"Ġrican":7688,"ddess":7689,"Ġunfor":7690,"ulated":7691,"Ġnar":7692,"Ġnational":7693,"Ġsofr":7694,"ĠplÃ¡":7695,"chipot":7696,"Ġhav":7697,"Ġhapp":7698,"Ġsaltiness":7699,"quite":7700,"Ġflaked":7701,"iffy":7702,"seared":7703,"Ġjean":7704,"Ġjiffy":7705,"pperware":7706,"Ġviana":7707,"Ġview":7708,"Ġshakes":7709,"Ġshish":7710,"Ġshaken":7711,"eled":7712,"Ġjug":7713,"Ġjuk":7714,"Ġjuicer":7715,"Ġheats":7716,"Ġspoons":7717,"atore":7718,"Ġlive":7719,"Ġlighter":7720,"Ġfatty":7721,"about":7722,"abatta":7723,"Ġcreated":7724,"Ġoverwork":7725,"ophan":7726,"ingredients":7727,"moist":7728,"Ġcant":7729,"usage":7730,"Ġchose":7731,"Ġ454":7732,"Ġkom":7733,"Ġkung":7734,"Ġhandy":7735,"Ġhandles":7736,"Ġgrass":7737,"Ġgrams":7738,"Ġgrating":7739,"Ġparboil":7740,"Ġcontaining":7741,"Ġalthough":7742,"Ġbody":7743,"Ġboenz":7744,"Ġlargest":7745,"Ġblister":7746,"ols":7747,"Ġcarn":7748,"Ġcarne":7749,"Ġturf":7750,"Ġtend":7751,"Ġapproximate":7752,"ashi":7753,"Ġdoughy":7754,"Ġ154":7755,"Ġ205":7756,"Ġ208":7757,"Ġsmallest":7758,"Ġgoddess":7759,"Ġzu":7760,"Ġzipp":7761,"Ġzomppa":7762,"Ġpickling":7763,"Ġhandfuls":7764,"Ġ127":7765,"Ġscrew":7766,"Ġremains":7767,"ĠpiÃ±":7768,"Ġincis":7769,"Ġpuerto":7770,"Ġii":7771,"Ġlaya":7772,"Ġ404":7773,"Ġ407":7774,"arma":7775,"Ġvinegars":7776,"Ġcrustless":7777,"Ġ254":7778,"Ġdove":7779,"Ġ164":7780,"Ġ166":7781,"Ġlost":7782,"Ġpopped":7783,"Ġamber":7784,"ĠfrisÃ©e":7785,"Ġ245":7786,"Ġcompleted":7787,"Ġ144":7788,"Ġ370":7789,"Ġburgu":7790,"Ġburdock":7791,"erell":7792,"kah":7793,"sausage":7794,"Ġ197":7795,"Ġcaution":7796,"Ġstronger":7797,"Ġ176":7798,"Ġ218":7799,"Ġ219":7800,"Ġ236":7801,"Ġ237":7802,"Ġnothing":7803,"Ġtartlet":7804,"Ġcleaned":7805,"Ġcasings":7806,"Ġclick":7807,"Ġclass":7808,"Ġcloud":7809,"pically":7810,"Ġpastries":7811,"Ġknots":7812,"Ġcroatian":7813,"Ġbrushed":7814,"Ġtypically":7815,"Ġ428":7816,"Ġ268":7817,"Ġhomefebruary":7818,"Ġmacer":7819,"ĠâĢĶ":7820,"ĠâĢĺ":7821,"crack":7822,"Ġ280":7823,"Ġ283":7824,"iteroles":7825,"Ġswitching":7826,"Ġ297":7827,"Ġseparates":7828,"Ġamazingly":7829,"Ġruby":7830,"Ġscooping":7831,"Ġconfetti":7832,"Ġ312":7833,"Ġ316":7834,"Ġxo":7835,"Ġpulver":7836,"Ġpackages":7837,"ructed":7838,"Ġ333":7839,"Ġ336":7840,"Ġ349":7841,"Ġconsum":7842,"Ġworked":7843,"Ġ555":7844,"Ġ396":7845,"Ġ380":7846,"Ġ387":7847,"Ġ388":7848,"Ġjamun":7849,"Ġlids":7850,"Ġ419":7851,"Ġ434":7852,"Ġ471":7853,"Ġ473":7854,"heart":7855,"ciatore":7856,"Ġ485":7857,"Ġ496":7858,"Ġ498":7859,"Ġ441":7860,"Ġ548":7861,"Ġbecoming":7862,"Ġstrained":7863,"Ġdeeply":7864,"Ġempan":7865,"Ġ659":7866,"Ġ567":7867,"Ġequipment":7868,"Ġ587":7869,"Ġabsorbs":7870,"Ġ2008":7871,"Ġcardamon":7872,"Ġ680":7873,"Ġ689":7874,"Ġ726":7875,"Ġherby":7876,"Ġ618":7877,"heads":7878,"Ġcollards":7879,"ivor":7880,"Ġ814":7881,"Ġcocktails":7882,"aloppine":7883,"Ġmonte":7884,"Ġ788":7885,"Ġlines":7886,"Ġbulbs":7887,"Ġsplatter":7888,"Ġdecorations":7889,"Ġchardonnay":7890,"Ġplaces":7891,"Ġalternative":7892,"Ġplantains":7893,"Ġstrength":7894,"Ã¨re":7895,"ukkah":7896,"Ġbriskly":7897,"Ġcrescents":7898,"Ġfeels":7899,"Ġcountertop":7900,"Ġovercooked":7901,"Ġcacik":7902,"Ġcacciatore":7903,"flank":7904,"Ġvein":7905,"Ġrussian":7906,"Ġstripes":7907,"Ġkielbas":7908,"Ġpassover":7909,"ĠgruyÃ¨re":7910,"Ġsilicon":7911,"Ġbeautifully":7912,"iggly":7913,"Ġkohlrabi":7914,"Ġmagn":7915,"Ġhunks":7916,"Ġindentations":7917,"Ġideally":7918,"Ġsnail":7919,"Ġcarbonated":7920,"Ġsubmerged":7921,"Ġbench":7922,"Ġswirled":7923,"Ġchiffonade":7924,"Ġconcentrated":7925,"gingerbread":7926,"Ġmugs":7927,"ysis":7928,"Ġfleur":7929,"Ġgulab":7930,"Ġhanging":7931,"Ġpersimmons":7932,"hattan":7933,"Ġthreads":7934,"Ġbrewed":7935,"Ġtorch":7936,"Ġstorage":7937,"Ġclementines":7938,"triple":7939,"Ġmouthwatering":7940,"smoked":7941,"Ġmakhani":7942,"Ġtupperware":7943,"Ġciabatta":7944,"Ġhanukkah":7945,"Ġoxtail":7946,"farro":7947,"Ġmesquite":7948,"Ġwidth":7949,"anghon":7950,"Ġescape":7951,"Ġtrinidadian":7952,"Âºf":7953,"Ġotis":7954,"Ġpurchased":7955,"spanish":7956,"Ġslashes":7957,"Ġdehydrator":7958,"Ġpomogranate":7959,"Ġamaranth":7960,"Ġsubstantial":7961,"tuna":7962,"Ġculinary":7963,"Ġchanterell":7964,"Ġeffect":7965,"Ġshawarma":7966,"Ġasafetida":7967,"Ġcalamari":7968,"Ġanalysis":7969,"Ġprofiteroles":7970,"Ġalexander":7971,"Ġdisappe":7972,"Ġtechnique":7973,"Ġcharmoula":7974,"dutch":7975,"gÃ¨res":7976,"southern":7977,"Ġsotanghon":7978,"Ġseltzer":7979,"Ġcellophan":7980,"Ġthought":7981,"Ġfiddleheads":7982,"arugula":7983,"onstructed":7984,"Ġhuckle":7985,"Ġspunkmeyer":7986,"Ġsofrito":7987,"ĠplÃ¡tano":7988,"chipotle":7989,"Ġboenzli":7990,"Ġburgundy":7991,"Ġcellophane":7992,"11":7993,"air":7994,"bit":7995,"back":7996,"beet":7997,"balsamic":7998,"crou":7999,"cap":8000,"cand":8001,"cery":8002,"cabbage":8003,"cup":8004,"dor":8005,"dried":8006,"dog":8007,"dark":8008,"died":8009,"epp":8010,"fect":8011,"frozen":8012,"french":8013,"hood":8014,"halloween":8015,"ju":8016,"jalap":8017,"jambalay":8018,"kwa":8019,"late":8020,"mashed":8021,"ning":8022,"old":8023,"peas":8024,"rd":8025,"ripe":8026,"rhubarb":8027,"sday":8028,"sia":8029,"sicated":8030,"tart":8031,"tropical":8032,"uis":8033,"ught":8034,"vir":8035,"vage":8036,"wards":8037,"xible":8038,"yogurt":8039,"ycle":8040,"zone":8041,"zino":8042,"Åĵ":8043,"Ġ]":8044,"Ġaim":8045,"Ġaust":8046,"Ġtar":8047,"reactive":8048,"Ġsach":8049,"Ġsnacks":8050,"Ġsipping":8051,"Ġcus":8052,"Ġcycle":8053,"Ġoctober":8054,"Ġomit":8055,"esive":8056,"Ġpamp":8057,"Ġfut":8058,"Ġfeat":8059,"Ġfain":8060,"Ġfeed":8061,"Ġbakes":8062,"Ġband":8063,"Ġbang":8064,"Ġboul":8065,"ĠbÅĵ":8066,"Ġmm":8067,"Ġmich":8068,"Ġmong":8069,"Ġmacha":8070,"Ġmats":8071,"ouffee":8072,"ouston":8073,"Ġwom":8074,"Ġwiggle":8075,"itol":8076,"itoni":8077,"itori":8078,"Ġdh":8079,"Ġdie":8080,"Ġdole":8081,"Ġdraw":8082,"Ġdrawn":8083,"alent":8084,"role":8085,"orr":8086,"orkshire":8087,"Ġgala":8088,"Ġgoose":8089,"Ġlatin":8090,"Ġluis":8091,"Ġhy":8092,"Ġhick":8093,"Ġhouston":8094,"Ġcoh":8095,"Ġinit":8096,"Ġinten":8097,"Ġinward":8098,"Ġyes":8099,"Ġchan":8100,"Ġchal":8101,"Ġchases":8102,"Ġforno":8103,"ido":8104,"idan":8105,"entu":8106,"Ġspec":8107,"cot":8108,"Ġstif":8109,"Ġstamp":8110,"Ġdavid":8111,"ddha":8112,"Ġunref":8113,"Ġsaving":8114,"Ġnast":8115,"Ġplun":8116,"Ġplating":8117,"char":8118,"chili":8119,"chatel":8120,"Ġsupp":8121,"ifruit":8122,"Ġjans":8123,"Ġjoe":8124,"Ġleak":8125,"gella":8126,"Ġweed":8127,"Ġshut":8128,"Ġshoo":8129,"Ġshade":8130,"Ġsheep":8131,"Ġshield":8132,"Ġshao":8133,"Ġsharing":8134,"Ġshadow":8135,"Ġjus":8136,"apore":8137,"apricot":8138,"apchae":8139,"abag":8140,"Ġdesicc":8141,"Ġdessicated":8142,"Ġchickens":8143,"Ġoverbake":8144,"Ġcris":8145,"licious":8146,"Ġcalzone":8147,"lied":8148,"mogen":8149,"Ġrocks":8150,"avash":8151,"Ġanti":8152,"Ġapptit":8153,"Ġchosen":8154,"Ġ456":8155,"Ġpotluck":8156,"Ġcured":8157,"Ġkef":8158,"Ġkcal":8159,"Ġcontr":8160,"Ġfoodnet":8161,"agie":8162,"Ġgoodness":8163,"Ġmineral":8164,"istered":8165,"Ġboat":8166,"Ġboston":8167,"Ġbodied":8168,"Ġmoments":8169,"Ġblistered":8170,"olor":8171,"olian":8172,"olati":8173,"raid":8174,"Ġouts":8175,"Ġ301":8176,"Ġ306":8177,"Ġcutlet":8178,"Ġoptions":8179,"Ġ152":8180,"Ġ158":8181,"Ġchilly":8182,"Ġgochu":8183,"Ġzepp":8184,"unity":8185,"arti":8186,"Ġcouldnt":8187,"Ġbeefsteak":8188,"Ġscaloppine":8189,"Ġprimaver":8190,"Ġhits":8191,"Ġhotdog":8192,"Ġhigher":8193,"plus":8194,"place":8195,"oses":8196,"Ġhoneyed":8197,"Ġworth":8198,"Ġmanage":8199,"perfect":8200,"Ġsmoother":8201,"Ġsmoothing":8202,"Ġturnip":8203,"Ġtablespoonful":8204,"Ġfillings":8205,"Ġearly":8206,"Ġtheyve":8207,"Ġmeals":8208,"âĢĵ":8209,"Ġ402":8210,"Ġ406":8211,"Ġ408":8212,"Ġ259":8213,"soft":8214,"Ġchillis":8215,"Ġtots":8216,"Ġallows":8217,"Ġ118":8218,"Ġrefrigerating":8219,"Ġ189":8220,"Ġload":8221,"Ġlover":8222,"Ġlocal":8223,"Ġlovage":8224,"Ġoffset":8225,"Ġamcho":8226,"Ġambro":8227,"Ġfrache":8228,"Ġframes":8229,"ello":8230,"Ġ147":8231,"Ġ148":8232,"Ġ372":8233,"Ġbursts":8234,"Ġoatcakes":8235,"Ġflavorings":8236,"Ġliquef":8237,"awal":8238,"Ġ322":8239,"Ġ328":8240,"Ġspiciness":8241,"nails":8242,"Ġafrole":8243,"Ġafraid":8244,"Ġ178":8245,"Ġfoils":8246,"spiced":8247,"salt":8248,"Ġclay":8249,"izzle":8250,"Ġnonreactive":8251,"Ġpinenuts":8252,"Ġpath":8253,"Ġpizzan":8254,"Ġ501":8255,"Ġ505":8256,"Ġ506":8257,"Ġ426":8258,"Ġmacau":8259,"Ġcuban":8260,"Ġsurpr":8261,"Ġ284":8262,"Ġswizzle":8263,"Ġ298":8264,"selback":8265,"Ġcolby":8266,"Ġneuf":8267,"Ġseparating":8268,"Ġarran":8269,"Ġ367":8270,"Ġguide":8271,"Ġcape":8272,"Ġwhoppers":8273,"Ġindic":8274,"Ġhomogen":8275,"Ġhowever":8276,"Ġ342":8277,"Ġ348":8278,"Ġpeachy":8279,"Ġworkable":8280,"Ġ551":8281,"Ġ394":8282,"ocks":8283,"Ġ430":8284,"Ġ474":8285,"Ġcolorful":8286,"Ġarrabi":8287,"Ġ462":8288,"Ġ483":8289,"Ġ487":8290,"Ġ490":8291,"Ġ523":8292,"Ġ528":8293,"Ġ544":8294,"Ġfilo":8295,"Ġpulls":8296,"Ġskewars":8297,"Ġbuitoni":8298,"Ġbuddha":8299,"Ġsqueezed":8300,"Ġsummery":8301,"Ġ574":8302,"Ġ575":8303,"Ġequiv":8304,"Ġ596":8305,"Ġ580":8306,"Ġhardened":8307,"Ġ536":8308,"Ġ538":8309,"Ġ514":8310,"Ġ517":8311,"Ġ701":8312,"Ġfourths":8313,"Ġnectarines":8314,"Ġhummingbird":8315,"Ġ762":8316,"Ġpraline":8317,"Ġladled":8318,"Ġjoint":8319,"Ġhelped":8320,"Ġmeasured":8321,"Ġ620":8322,"Ġ624":8323,"Ġsecs":8324,"Ġ907":8325,"guinness":8326,"pesto":8327,"Ġ732":8328,"Ġ737":8329,"Ġlengthways":8330,"Ġbranzino":8331,"Ġfallen":8332,"Ġ742":8333,"Ġ747":8334,"Ġclosely":8335,"Ġcurdled":8336,"Ġalternate":8337,"Ġthermomix":8338,"Ġsmokehouse":8339,"Ġstreaks":8340,"Ġpiercing":8341,"prosciutto":8342,"Ġsafflower":8343,"Ġcarbohydrates":8344,"sugar":8345,"Ġfeast":8346,"Ġturnover":8347,"Ġtaboola":8348,"Ġcrouton":8349,"Ġjules":8350,"Ġfeeling":8351,"Ġsliding":8352,"Ġcharles":8353,"Ġsilpat":8354,"Ġshirley":8355,"Ġgorgonzolan":8356,"baby":8357,"Ġpaula":8358,"Ġfloor":8359,"Ġmortal":8360,"Ġtrifolati":8361,"Ġlobia":8362,"Ġetouffee":8363,"Ġheaped":8364,"Ġideas":8365,"Ġstrands":8366,"Ġglobe":8367,"Ġchurning":8368,"Ġsometimes":8369,"Ġpleat":8370,"Ġpleas":8371,"Ġsnails":8372,"Ġprize":8373,"Ġdetail":8374,"ĠgougÃ¨res":8375,"Ġcrystallize":8376,"Ġtiming":8377,"Ġsardinas":8378,"Ġundrained":8379,"Ġplanks":8380,"Ġxantham":8381,"Ġmalt":8382,"Ġcalifornian":8383,"Ġcelebr":8384,"Ġflecks":8385,"Ġflexible":8386,"Ġnigella":8387,"Ġsuperfine":8388,"Ġswitchel":8389,"Ġgingersnap":8390,"Ġtrivet":8391,"Ġcamar":8392,"Ġfloridan":8393,"urious":8394,"Ġhorizontal":8395,"Ġsambar":8396,"Ġsuggestions":8397,"Ġtrue":8398,"Ġchapchae":8399,"Ġkisses":8400,"Ġchallah":8401,"Ġhanout":8402,"Ġfuji":8403,"Ġwhirls":8404,"Ġsufficient":8405,"Ġsufficiently":8406,"Ġkaro":8407,"Ġkabobs":8408,"Ġkabocha":8409,"Ġbenefit":8410,"Ġbenefits":8411,"Ġooey":8412,"Ġbullion":8413,"Ġyakhni":8414,"Ġtrail":8415,"Ġslabs":8416,"Ġcourgette":8417,"Ġscald":8418,"Ġimmerse":8419,"Ġrapidly":8420,"Ġmandoline":8421,"Ġbacalhau":8422,"Ġgajar":8423,"Ġhuge":8424,"Ġinnards":8425,"Ġsteril":8426,"Ġpresentation":8427,"Ġfantastic":8428,"Ġrelleno":8429,"Ġoverflow":8430,"Ġblanco":8431,"Ġchallenge":8432,"fennel":8433,"southwest":8434,"wurst":8435,"Ġpkt":8436,"onomiyaki":8437,"Ġwalls":8438,"Ġsturdy":8439,"Ġnarrow":8440,"olsot":8441,"Ġcarnitas":8442,"Ġzuppa":8443,"ĠpiÃ±a":8444,"Ġmacerate":8445,"ivoracious":8446,"Ġkielbasa":8447,"Ġmagnific":8448,"Ġchanterelles":8449,"Ġhuckleberry":8450,"candied":8451,"jalapeno":8452,"jambalaya":8453,"Ġpampered":8454,"Ġfuture":8455,"Ġfeatured":8456,"Ġboulettes":8457,"ĠbÅĵuf":8458,"Ġmongolian":8459,"Ġluisiana":8460,"Ġhickory":8461,"Ġstiffer":8462,"Ġplunge":8463,"Ġdesiccated":8464,"Ġkefir":8465,"Ġfoodnetwork":8466,"Ġzeppole":8467,"Ġprimavera":8468,"Ġamchoor":8469,"Ġambrosia":8470,"Ġafrolems":8471,"Ġneufchatel":8472,"Ġarrabiata":8473,"Ġequivalent":8474,"20":8475,"33":8476,"38":8477,"42":8478,"47":8479,"aet":8480,"ael":8481,"bbles":8482,"barb":8483,"brie":8484,"cas":8485,"cru":8486,"cilantro":8487,"cucumber":8488,"du":8489,"date":8490,"dulce":8491,"eel":8492,"easter":8493,"even":8494,"elek":8495,"fil":8496,"food":8497,"face":8498,"fried":8499,"fetti":8500,"foc":8501,"foot":8502,"ga":8503,"gl":8504,"gra":8505,"glaz":8506,"gots":8507,"hound":8508,"humm":8509,"ially":8510,"ibly":8511,"iuse":8512,"iotic":8513,"jang":8514,"ki":8515,"kk":8516,"kas":8517,"kick":8518,"lis":8519,"lay":8520,"lined":8521,"lÃ©":8522,"mic":8523,"marr":8524,"miso":8525,"oat":8526,"oor":8527,"oiled":8528,"pine":8529,"pans":8530,"pink":8531,"penne":8532,"rustic":8533,"sim":8534,"sco":8535,"sesame":8536,"sky":8537,"tz":8538,"tes":8539,"tow":8540,"tbs":8541,"table":8542,"udd":8543,"uel":8544,"vitz":8545,"view":8546,"wor":8547,"winter":8548,"xocai":8549,"zle":8550,"zette":8551,"Ã¢":8552,"Ġile":8553,"Ġain":8554,"Ġties":8555,"Ġtrun":8556,"rero":8557,"rest":8558,"Ġson":8559,"Ġsite":8560,"Ġsort":8561,"Ġsucc":8562,"erman":8563,"Ġoelek":8564,"ndon":8565,"ndido":8566,"eses":8567,"Ġpum":8568,"Ġpits":8569,"Ġpasses":8570,"Ġfies":8571,"Ġfag":8572,"Ġbust":8573,"Ġma":8574,"Ġmatter":8575,"Ġmaster":8576,"Ġmoons":8577,"Ġmention":8578,"oumi":8579,"Ġtheres":8580,"ingered":8581,"isers":8582,"atapp":8583,"Ġwring":8584,"Ġwrink":8585,"Ġwiggly":8586,"ildi":8587,"anas":8588,"anfer":8589,"anzan":8590,"enaise":8591,"Ġrewarm":8592,"Ġreusing":8593,"Ġreeses":8594,"Ġtokwa":8595,"Ġdom":8596,"Ġdue":8597,"Ġdilly":8598,"Ġdunk":8599,"aly":8600,"alie":8601,"almic":8602,"icul":8603,"edish":8604,"rol":8605,"rose":8606,"orable":8607,"orrain":8608,"Ġge":8609,"Ġgour":8610,"Ġgame":8611,"Ġgrow":8612,"Ġgiuse":8613,"Ġgingered":8614,"Ġlan":8615,"Ġluc":8616,"Ġlab":8617,"Ġland":8618,"Ġlone":8619,"Ġlazy":8620,"Ġlavash":8621,"Ġlorrain":8622,"Ġhat":8623,"Ġhall":8624,"Ġhors":8625,"Ġhens":8626,"Ġhence":8627,"acute":8628,"Ġcored":8629,"Ġcoach":8630,"Ġcondiments":8631,"Ġcoca":8632,"Ġinterior":8633,"Ġyorkshire":8634,"Ġchanges":8635,"Ġchance":8636,"Ġyoung":8637,"Ġur":8638,"Ġudon":8639,"Ġminor":8640,"Ġea":8641,"thor":8642,"three":8643,"imate":8644,"Ġitaly":8645,"idate":8646,"idant":8647,"idity":8648,"tos":8649,"ental":8650,"entuck":8651,"Ġspin":8652,"Ġspill":8653,"Ġspik":8654,"Ġspaet":8655,"lyn":8656,"cocoa":8657,"ooks":8658,"ionally":8659,"Ġpeking":8660,"Ġpebbles":8661,"Ġmir":8662,"oodle":8663,"ickerdood":8664,"Ġunless":8665,"Ġunsi":8666,"Ġuneven":8667,"Ġunoiled":8668,"Ġvegenaise":8669,"Ġmixes":8670,"iant":8671,"tilly":8672,"Ġnic":8673,"Ġnine":8674,"Ġname":8675,"Ġsopping":8676,"Ġsocks":8677,"Ġplop":8678,"cher":8679,"chon":8680,"cheddar":8681,"chorizo":8682,"chitos":8683,"chmarr":8684,"Ġwhir":8685,"ggis":8686,"Ġfroth":8687,"Ġsuits":8688,"Ġsuzette":8689,"Ġhaggis":8690,"Ġflipped":8691,"ifi":8692,"Ġperdu":8693,"Ġjanuary":8694,"Ġlebo":8695,"rous":8696,"geres":8697,"geous":8698,"Ġwelco":8699,"rotisserie":8700,"resher":8701,"Ġshoy":8702,"Ġsheen":8703,"Ġshots":8704,"aya":8705,"Ġsaucepot":8706,"Ġsimpl":8707,"Ġjud":8708,"urgh":8709,"apol":8710,"april":8711,"Ġliving":8712,"Ġassor":8713,"Ġdescri":8714,"Ġsequ":8715,"Ġseep":8716,"Ġselect":8717,"achino":8718,"Ġoverheat":8719,"Ġovertop":8720,"Ġoverload":8721,"Ġoverripe":8722,"Ġcraf":8723,"Ġcrud":8724,"Ġcriss":8725,"Ġbowel":8726,"Ġpantry":8727,"Ġcanes":8728,"Ġrosa":8729,"Ġroman":8730,"wny":8731,"Ġango":8732,"Ġupon":8733,"Ġ459":8734,"Ġkash":8735,"Ġkata":8736,"Ġkesar":8737,"Ġkentuck":8738,"Ġgratine":8739,"Ġcontess":8740,"Ġcontrol":8741,"bert":8742,"Ġfoodie":8743,"Ġlikes":8744,"aging":8745,"Ġdeconstructed":8746,"Ġparboiled":8747,"Ġalot":8748,"Ġbob":8749,"Ġmocktail":8750,"Ġexc":8751,"Ġhass":8752,"Ġhasselback":8753,"Ġslurry":8754,"Ġgren":8755,"Ġgreasing":8756,"Ġblast":8757,"Ġblank":8758,"Ġcakey":8759,"Ġcaram":8760,"Ġ303":8761,"Ġdeen":8762,"Ġskilled":8763,"Ġsoupy":8764,"Ġcutout":8765,"Ġcornish":8766,"izing":8767,"Ġ202":8768,"Ġ207":8769,"Ġtrust":8770,"Ġtranfer":8771,"igata":8772,"Ġgingerdood":8773,"Ġroaster":8774,"Ġroller":8775,"ighbor":8776,"Ġmarbella":8777,"Ġmarachino":8778,"Ġagu":8779,"Ġimam":8780,"Ġquince":8781,"Ġbleed":8782,"Ġprom":8783,"Ġproble":8784,"Ġmelanzan":8785,"african":8786,"Ġsquirt":8787,"Ġpersian":8788,"Ġblackout":8789,"Ġblackened":8790,"Ġskillets":8791,"Ġworries":8792,"Ġsauting":8793,"Ġdrape":8794,"azine":8795,"Ġiacute":8796,"Ġfiller":8797,"Ġrefresher":8798,"Ġbrick":8799,"Ġbrined":8800,"Ġcrumbed":8801,"Ġsoftens":8802,"Ġ256":8803,"Ġratio":8804,"panelle":8805,"Ġzesty":8806,"Ġlondon":8807,"Ġthroughly":8808,"Ġcheer":8809,"Ġpopping":8810,"Ġpoking":8811,"Ġreading":8812,"Ġfrang":8813,"Ġcracking":8814,"Ġwaldor":8815,"Ġdrizzling":8816,"Ġballer":8817,"Ġtoasting":8818,"Ġbayildi":8819,"Ġturkeys":8820,"awa":8821,"Ġfirmer":8822,"Ġfisherman":8823,"Ġ191":8824,"Ġcontinually":8825,"Ġwanted":8826,"Ġ228":8827,"Ġmints":8828,"Ġliquidy":8829,"Ġfrosty":8830,"Ġhorns":8831,"Ġdeliciously":8832,"Ġdeliciousness":8833,"Ġsupermark":8834,"Ġshredd":8835,"Ġlighten":8836,"blt":8837,"Ġclub":8838,"Ġmedley":8839,"Ġpaprikan":8840,"Ġpastas":8841,"Ġpasticc":8842,"Ġexception":8843,"Ġshortribs":8844,"Ġ504":8845,"Ġ261":8846,"Ġhomeoctober":8847,"Ġmacchi":8848,"Ġ273":8849,"Ġ276":8850,"Ġ277":8851,"plantain":8852,"ĠâĢ¢":8853,"Ġroundup":8854,"Ġsandies":8855,"Ġ286":8856,"ambas":8857,"Ġcakespy":8858,"Ġadorable":8859,"Ġ290":8860,"Ġ292":8861,"Ġneighbor":8862,"Ġperfection":8863,"Ġ366":8864,"Ġ319":8865,"turkish":8866,"Ġxob":8867,"Ġxyl":8868,"Ġhoagie":8869,"Ġpuloa":8870,"Ġpackaging":8871,"Ġ331":8872,"Ġ339":8873,"Ġruns":8874,"Ġskinned":8875,"Ġricer":8876,"Ġwrapping":8877,"Ġdividing":8878,"Ġscraped":8879,"Ġreturns":8880,"Ġ553":8881,"Ġ554":8882,"Ġ556":8883,"Ġ559":8884,"Ġ395":8885,"Ġ399":8886,"Ġapril":8887,"Ġ383":8888,"Ġ389":8889,"Ġsnug":8890,"Ġsits":8891,"Ġ411":8892,"Ġfirmed":8893,"Ġ432":8894,"Ġ438":8895,"Ġbunny":8896,"Ġ600":8897,"Ġ603":8898,"potato":8899,"nchy":8900,"Ġdoubles":8901,"Ġ460":8902,"Ġ466":8903,"Ġ480":8904,"Ġ489":8905,"Ġ495":8906,"Ġcrushing":8907,"Ġ449":8908,"Ġ525":8909,"Ġ546":8910,"Ġ549":8911,"Ġfiltered":8912,"ptember":8913,"Ġdeflate":8914,"Ġ650":8915,"Ġ656":8916,"party":8917,"Ġwoody":8918,"Ġ565":8919,"Ġ571":8920,"Ġ583":8921,"Ġ537":8922,"Ġ539":8923,"Ġ513":8924,"Ġ2003":8925,"Ġ2006":8926,"Ġgelatine":8927,"ĠĠĠĠĠĠĠĠ":8928,"Ġ687":8929,"Ġburners":8930,"Ġ754":8931,"Ã©s":8932,"Ġ641":8933,"Ġ643":8934,"Ġ614":8935,"Ġ691":8936,"Ġ698":8937,"Ġpointy":8938,"peeled":8939,"june":8940,"Ġ634":8941,"Ġcollected":8942,"Ġattention":8943,"Ġflattening":8944,"guest":8945,"oulet":8946,"Ġmostacc":8947,"Ġ881":8948,"Ġmargaritas":8949,"Ġpalace":8950,"Ġ968":8951,"Ġtrimmed":8952,"Ġplants":8953,"Ġnutrition":8954,"Ġsingapore":8955,"Ġcrunchies":8956,"Ġprevious":8957,"Ġcurds":8958,"Ġsplutter":8959,"Ġdecoration":8960,"Ġ858":8961,"Ġmilder":8962,"Ġpossibly":8963,"Ġensures":8964,"Ġfrito":8965,"Ġweekday":8966,"meatball":8967,"Ġokonomiyaki":8968,"lemony":8969,"Ġstarchy":8970,"Ġtests":8971,"Ġtikkan":8972,"cana":8973,"cannellini":8974,"Ġgorgeous":8975,"Ġsilver":8976,"Ġstacked":8977,"Ġlaid":8978,"Ġpiped":8979,"Ġfirecrack":8980,"Ġgrande":8981,"Ġfunfetti":8982,"Ġfloating":8983,"ultimate":8984,"Ġsuccot":8985,"Ġtagli":8986,"Ġavoiding":8987,"Ġfrappuccino":8988,"Ġburrata":8989,"Ġbiscochitos":8990,"Ġbenedictine":8991,"Ġspiralizer":8992,"Ġvaries":8993,"Ġidlis":8994,"Ġnorma":8995,"almost":8996,"lotte":8997,"Ġhunk":8998,"snickerdood":8999,"Ġkiwifruit":9000,"Ġcrystals":9001,"bowl":9002,"Ġfacebook":9003,"Ġcalls":9004,"Ġversions":9005,"Ġtapping":9006,"Ġsangr":9007,"ipane":9008,"oda":9009,"Ġsnappy":9010,"Ġbirds":9011,"Ġbutterflied":9012,"brussels":9013,"Ġcassoulet":9014,"Ġbeneath":9015,"Ġ1999":9016,"vanian":9017,"Ġsardines":9018,"ylvanian":9019,"oxidant":9020,"Ġajillo":9021,"Ġcampanelle":9022,"Ġpointed":9023,"Ġgrouper":9024,"Ġresulting":9025,"Ġmulberries":9026,"Ġlimone":9027,"Ġgreyhound":9028,"refreshing":9029,"Ġmadame":9030,"Ġghosts":9031,"Ġdecadence":9032,"Ġfizzy":9033,"Ġchanging":9034,"swiss":9035,"Ġoxid":9036,"Ġkarahi":9037,"Ġbagels":9038,"foil":9039,"Ġmeets":9040,"Ġhumidity":9041,"Ġyakitori":9042,"Ġtataki":9043,"Ġhope":9044,"lectable":9045,"Ġbelgian":9046,"Ġbelgium":9047,"steamed":9048,"Ġkumquat":9049,"Ġkumquats":9050,"Ã³n":9051,"Ġsultanas":9052,"Ġbreezy":9053,"Ġepicurious":9054,"Ġresidue":9055,"peppermint":9056,"Ġflorentine":9057,"Ġpakoda":9058,"Ġpassed":9059,"Ġpimien":9060,"Ġyuca":9061,"Ġuntill":9062,"Ġwhistle":9063,"Ġclarified":9064,"Ġemulsified":9065,"Ġvariety":9066,"ossible":9067,"Ġpigs":9068,"Ġmulligata":9069,"Ġlively":9070,"Ġzippy":9071,"Ġxocolate":9072,"hearty":9073,"croute":9074,"ughty":9075,"Ġaiming":9076,"Ġtarget":9077,"Ġsachet":9078,"Ġmichael":9079,"Ġwoman":9080,"Ġgooseberry":9081,"Ġhydr":9082,"Ġcohesive":9083,"Ġchalet":9084,"Ġunrefined":9085,"Ġjansson":9086,"Ġantioxidant":9087,"Ġoutsides":9088,"Ġliquefied":9089,"Ġsurprise":9090,"Ġcamarones":9091,"Ġmagnificent":9092,"barbec":9093,"crunchy":9094,"focaccia":9095,"glazed":9096,"layered":9097,"oatmeal":9098,"towel":9099,"Ġpumkin":9100,"Ġfiesta":9101,"Ġfagioli":9102,"Ġbuster":9103,"iserschmarr":9104,"atappi":9105,"iculously":9106,"Ġgiuseppe":9107,"Ġlorraine":9108,"Ġhalloumi":9109,"Ġspiked":9110,"Ġspaetzle":9111,"Ġunsightly":9112,"Ġlebovitz":9113,"Ġshoyu":9114,"apolitan":9115,"Ġassorted":9116,"Ġcraft":9117,"Ġkataifi":9118,"Ġkentucky":9119,"Ġgratinee":9120,"Ġcontessa":9121,"Ġblanket":9122,"Ġgingerdoodle":9123,"Ġmelanzane":9124,"Ġfrangipane":9125,"Ġwaldorf":9126,"Ġmacchiato":9127,"Ġxobiotic":9128,"Ġxylitol":9129,"Ġsnugly":9130,"Ġmostaccioli":9131,"Ġfirecracker":9132,"Ġsuccotash":9133,"Ġmulligatawny":9134,"iserschmarrn":9135,"22":9136,"99":9137,"aello":9138,"bian":9139,"buch":9140,"burger":9141,"cre":9142,"cate":9143,"cise":9144,"cider":9145,"cque":9146,"cacc":9147,"din":9148,"div":9149,"drunken":9150,"dinary":9151,"eg":9152,"ege":9153,"eessary":9154,"fter":9155,"fall":9156,"fire":9157,"foods":9158,"fig":9159,"got":9160,"gant":9161,"girl":9162,"gatoni":9163,"hour":9164,"high":9165,"hature":9166,"hibiscus":9167,"iac":9168,"iade":9169,"iata":9170,"iggiano":9171,"jou":9172,"jet":9173,"jee":9174,"lin":9175,"lit":9176,"len":9177,"lion":9178,"luscious":9179,"men":9180,"mac":9181,"mould":9182,"miri":9183,"munity":9184,"nes":9185,"nge":9186,"nik":9187,"oha":9188,"pb":9189,"powd":9190,"pol":9191,"pint":9192,"pea":9193,"pier":9194,"rr":9195,"rat":9196,"rid":9197,"rine":9198,"rific":9199,"rÃ³":9200,"sat":9201,"sian":9202,"sals":9203,"sberry":9204,"tar":9205,"tage":9206,"tort":9207,"tsp":9208,"tled":9209,"trin":9210,"var":9211,"vide":9212,"vious":9213,"vates":9214,"weed":9215,"you":9216,"ype":9217,"yond":9218,"zes":9219,"Ġut":9220,"Ġaver":9221,"Ġagar":9222,"Ġts":9223,"ĠtÃº":9224,"into":9225,"inato":9226,"rean":9227,"repo":9228,"Ġsate":9229,"Ġsitting":9230,"ering":9231,"erve":9232,"eriac":9233,"Ġcure":9234,"Ġcli":9235,"Ġcado":9236,"Ġcabb":9237,"Ġthur":9238,"Ġthom":9239,"Ġthinness":9240,"Ġpc":9241,"Ġpage":9242,"Ġpung":9243,"Ġpiment":9244,"Ġft":9245,"Ġfist":9246,"Ġfare":9247,"Ġfib":9248,"Ġfeather":9249,"Ġfidget":9250,"Ġbf":9251,"Ġbat":9252,"Ġbakery":9253,"ĠbÃ©":9254,"Ġbongs":9255,"Ġbtw":9256,"Ġbhature":9257,"Ġming":9258,"Ġmice":9259,"Ġmile":9260,"Ġmud":9261,"Ġmater":9262,"Ġmagg":9263,"Ġmurgh":9264,"arash":9265,"arroz":9266,"issed":9267,"iscoll":9268,"atted":9269,"ona":9270,"ilst":9271,"itef":9272,"ango":9273,"enned":9274,"Ġrelo":9275,"Ġremin":9276,"Ġreview":9277,"utes":9278,"utral":9279,"Ġding":9280,"Ġdices":9281,"Ġdipp":9282,"Ġdull":9283,"Ġdata":9284,"Ġdanc":9285,"Ġdaring":9286,"Ġdolsot":9287,"alan":9288,"aled":9289,"aldi":9290,"icor":9291,"icular":9292,"iclet":9293,"icolor":9294,"Ġgt":9295,"Ġgirl":9296,"Ġgau":9297,"Ġgambas":9298,"ipro":9299,"Ġled":9300,"Ġlip":9301,"Ġlakes":9302,"Ġlest":9303,"Ġlimp":9304,"Ġlicor":9305,"Ġhel":9306,"asuri":9307,"Ġrecently":9308,"acity":9309,"Ġcost":9310,"Ġcobs":9311,"Ġcocacc":9312,"etas":9313,"Ġinvest":9314,"Ġyams":9315,"Ġyok":9316,"Ġcha":9317,"Ġchi":9318,"Ġchic":9319,"Ġchew":9320,"Ġchee":9321,"lle":9322,"Ġforth":9323,"Ġforward":9324,"Ġforgot":9325,"leed":9326,"Ġminis":9327,"adziki":9328,"Ġemer":9329,"Ġebb":9330,"ths":9331,"thest":9332,"iminate":9333,"Ġspell":9334,"Ġspagh":9335,"Ġspheres":9336,"copy":9337,"comb":9338,"Ġbeur":9339,"Ġbeyond":9340,"ghum":9341,"redded":9342,"Ġminutesor":9343,"Ġstages":9344,"Ġstorm":9345,"Ġstudd":9346,"ingsep":9347,"Ġmirepo":9348,"Ġrush":9349,"Ġrave":9350,"stura":9351,"illiant":9352,"asty":9353,"astery":9354,"Ġuni":9355,"Ġuncle":9356,"Ġunpeeled":9357,"Ġunlit":9358,"Ġunmould":9359,"Ġsaver":9360,"Ġsapa":9361,"ulg":9362,"umes":9363,"umvir":9364,"garu":9365,"garlicky":9366,"Ġnail":9367,"Ġsold":9368,"Ġsomed":9369,"Ġsofter":9370,"Ġplated":9371,"Ġcookingsep":9372,"ches":9373,"chan":9374,"chef":9375,"chee":9376,"chive":9377,"christmas":9378,"chewy":9379,"Ġwhey":9380,"Ġwhiz":9381,"Ġwhilst":9382,"Ġwhitef":9383,"ggles":9384,"Ġfrogs":9385,"Ġsurim":9386,"Ġsuppos":9387,"Ġcone":9388,"quillo":9389,"ifli":9390,"Ġperiso":9391,"Ġperno":9392,"Ġjose":9393,"Ġjaff":9394,"Ġjava":9395,"Ġjones":9396,"Ġvans":9397,"Ġviol":9398,"Ġyours":9399,"Ġordinary":9400,"irish":9401,"esean":9402,"Ġlear":9403,"Ġlechon":9404,"Ġweigh":9405,"Ġweird":9406,"Ġmakeover":9407,"rigatoni":9408,"Ġshor":9409,"Ġshack":9410,"Ġshave":9411,"Ġshared":9412,"Ġshagg":9413,"Ġshitake":9414,"Ġshangh":9415,"ayfish":9416,"elve":9417,"elain":9418,"Ġaren":9419,"aper":9420,"apoor":9421,"Ġeggy":9422,"Ġintoler":9423,"abais":9424,"Ġcreates":9425,"Ġcreative":9426,"Ġcreations":9427,"Ġoverly":9428,"Ġoverbrown":9429,"opian":9430,"Ġcracks":9431,"Ġcrayfish":9432,"Ġcalc":9433,"Ġprotect":9434,"lier":9435,"moms":9436,"Ġwatt":9437,"Ġcanada":9438,"Ġcancel":9439,"Ġcanning":9440,"Ġcheeseburger":9441,"Ġfol":9442,"Ġrojo":9443,"irect":9444,"Ġlactose":9445,"wnup":9446,"Ġanjou":9447,"Ġchoi":9448,"Ġ452":9449,"Ġ453":9450,"Ġ458":9451,"Ġpotted":9452,"Ġpottage":9453,"Ġcommon":9454,"Ġcompan":9455,"Ġkab":9456,"Ġkra":9457,"Ġkissed":9458,"Ġkasuri":9459,"Ġkifli":9460,"Ġkapoor":9461,"Ġgrav":9462,"Ġcontam":9463,"Ġcontact":9464,"Ġbyaldi":9465,"Ġparcel":9466,"ffaello":9467,"Ġtomatoe":9468,"Ġaloha":9469,"Ġbother":9470,"Ġstores":9471,"Ġremoval":9472,"Ġheel":9473,"Ġslather":9474,"Ġgreas":9475,"Ġgrecque":9476,"Ġblac":9477,"Ġblini":9478,"Ġblind":9479,"Ġcombo":9480,"Ġcarib":9481,"Ġmilks":9482,"efully":9483,"uffy":9484,"Ġpotatoe":9485,"Ġsett":9486,"essity":9487,"Ġturbo":9488,"Ġtends":9489,"Ġopened":9490,"Ġdead":9491,"gettable":9492,"gerian":9493,"german":9494,"Ġskipped":9495,"Ġbreading":9496,"estyle":9497,"Ġoptionally":9498,"ization":9499,"Ġsmallish":9500,"Ġsearing":9501,"Ġgoan":9502,"Ġgoggles":9503,"Ġzig":9504,"unj":9505,"Ġtrash":9506,"Ġtricolor":9507,"arest":9508,"Ġencrust":9509,"eek":9510,"Ġsteams":9511,"Ġseasonal":9512,"Ġonionsheat":9513,"Ġdiethood":9514,"Ġgingery":9515,"Ġroasts":9516,"Ġrollup":9517,"Ġ352":9518,"Ġlikely":9519,"Ġmars":9520,"Ġmarry":9521,"Ġimages":9522,"Ġproces":9523,"ively":9524,"Ġsweetbread":9525,"Ġmeaty":9526,"Ġpiquillo":9527,"Ġbases":9528,"Ġbasalmic":9529,"Ġhighest":9530,"Ġmanhattan":9531,"Ġdrips":9532,"Ġdriscoll":9533,"Ġgrillers":9534,"zzled":9535,"Ġparmiggiano":9536,"Ġparmesean":9537,"Ġfills":9538,"Ġearlier":9539,"Ġtransform":9540,"Ġtransylvanian":9541,"Ġ409":9542,"Ġcookingm":9543,"Ġicebox":9544,"Ġbrings":9545,"Ġtenderizer":9546,"Ġcloser":9547,"Ġtwelve":9548,"Ġpapertowel":9549,"Ġsoftly":9550,"assionally":9551,"Ġ255":9552,"Ġallowed":9553,"Ġrefrigeration":9554,"panko":9555,"Ġimpossible":9556,"Ġloll":9557,"Ġloves":9558,"Ġsticker":9559,"Ġbatters":9560,"Ġbeancur":9561,"Ġamchar":9562,"Ġcheesiest":9563,"Ġ241":9564,"Ġlooses":9565,"Ġceleriac":9566,"Ġcrackling":9567,"Ġmayan":9568,"Ġ142":9569,"Ġ1429":9570,"Ġcranks":9571,"Ġ373":9572,"Ġmarinating":9573,"Ġmarinaded":9574,"Ġseaweed":9575,"Ġcrispier":9576,"Ġinstrum":9577,"Ġ321":9578,"Ġglazing":9579,"Ġ194":9580,"Ġcentim":9581,"shredded":9582,"Ġfolds":9583,"Ġspicier":9584,"Ġteaspoonful":9585,"Ġdelicate":9586,"Ġ222":9587,"abbiata":9588,"Ġminty":9589,"Ġ211":9590,"Ġescal":9591,"Ġnose":9592,"Ġhero":9593,"Ġmangolicious":9594,"Ġshreded":9595,"Ġcleaning":9596,"Ġcasein":9597,"Ġlotus":9598,"Ġfetta":9599,"Ġpeels":9600,"Ġknishes":9601,"Ġknorr":9602,"Ġpintere":9603,"Ġcroque":9604,"Ġleafy":9605,"Ġshortcrust":9606,"Ġ502":9607,"Ġ508":9608,"Ġ427":9609,"Ġbagnat":9610,"Ġhomeapril":9611,"Ġthickening":9612,"Ġoccasions":9613,"Ġcuisipro":9614,"ĠâĢ¦":9615,"Ġdarken":9616,"Ġdarkened":9617,"Ġlettuc":9618,"Ġraffaello":9619,"iterrean":9620,"Ġswas":9621,"Ġswell":9622,"Ġswedish":9623,"Ġneapolitan":9624,"Ġneutral":9625,"Ġnearest":9626,"Ġseparated":9627,"Ġpinky":9628,"Ġcandle":9629,"Ġcandidate":9630,"Ġperfume":9631,"Ġ363":9632,"Ġ364":9633,"Ġcapacity":9634,"Ġfruity":9635,"Ġ313":9636,"Ġ314":9637,"turn":9638,"Ġindirect":9639,"Ġarticlet":9640,"Ġpulsed":9641,"ettini":9642,"Ġbegun":9643,"Ġ344":9644,"eps":9645,"Ġricher":9646,"Ġbrave":9647,"Ġbraided":9648,"chopped":9649,"Ġreset":9650,"encian":9651,"Ġworkbowl":9652,"Ġdirection":9653,"aille":9654,"Ġtremendously":9655,"Ġ5551":9656,"Ġ391":9657,"Ġ393":9658,"Ġmicro":9659,"Ġconsistently":9660,"Ġmicrowaving":9661,"Ġmacaroon":9662,"Ġtsps":9663,"Ġ418":9664,"Ġ439":9665,"Ġtines":9666,"Ġtinfoil":9667,"Ġ605":9668,"Ġ606":9669,"Ġelegant":9670,"Ġelevates":9671,"Ġwiltion":9672,"Ġparticular":9673,"Ġdoux":9674,"Ġ467":9675,"Ġ469":9676,"ciated":9677,"Ġ484":9678,"Ġ492":9679,"Ġ497":9680,"Ġ499":9681,"Ġ446":9682,"Ġ522":9683,"Ġ540":9684,"Ġ543":9685,"Ġ545":9686,"Ġanchoiade":9687,"Ġexpress":9688,"Ġdefatted":9689,"Ġverment":9690,"Ġneceessary":9691,"Ġnecessity":9692,"cajet":9693,"Ġkneaded":9694,"Ġ561":9695,"Ġ562":9696,"Ġ563":9697,"Ġ569":9698,"Ġsummertime":9699,"Ġ570":9700,"Ġ577":9701,"Ġ579":9702,"Ġ592":9703,"Ġ585":9704,"Ġhardly":9705,"Ġ533":9706,"Ġ535":9707,"grate":9708,"Ġ510":9709,"Ġfavorites":9710,"Ġ2002":9711,"Ġherbage":9712,"Ġrotel":9713,"Ġcardamoms":9714,"Ġ610":9715,"Ġpoptart":9716,"Ġpointing":9717,"Ġpounds":9718,"Ġ636":9719,"Ġ638":9720,"Ġ672":9721,"Ġ678":9722,"Ġopening":9723,"Ġ932":9724,"Ġ835":9725,"Ġholders":9726,"Ġeliminate":9727,"dev":9728,"Ġhelping":9729,"Ġ621":9730,"Ġsecuring":9731,"Ġghana":9732,"Ġ895":9733,"guacamole":9734,"Ġmolcajet":9735,"Ġ819":9736,"Ġpalette":9737,"Ġroots":9738,"Ġentre":9739,"Ġ910":9740,"Ġ919":9741,"Ġfarthest":9742,"Ġbulgar":9743,"Ġmeringu":9744,"Ġ841":9745,"Ġrava":9746,"Ġravan":9747,"ample":9748,"Ġladlefuls":9749,"Ġ803":9750,"Ġ859":9751,"Ġlumpia":9752,"Ġvalley":9753,"Ġpreventing":9754,"tangy":9755,"Ġsnowpeas":9756,"ĠÂ¾":9757,"Ġshaping":9758,"Ã¨vre":9759,"Ġkris":9760,"process":9761,"Ġfritatta":9762,"carolina":9763,"Ġskimming":9764,"cornmeal":9765,"Ġboudin":9766,"Ġpilau":9767,"Ġtostada":9768,"Ġcavatappi":9769,"mbert":9770,"Ġcastor":9771,"Ġflavoured":9772,"Ġtikkas":9773,"Ġbuds":9774,"canal":9775,"Ġbruleed":9776,"Ġsorghum":9777,"Ġmuscat":9778,"Ġgermain":9779,"Ġnatalie":9780,"chaun":9781,"Ġbourguignonne":9782,"Ġcharlotte":9783,"Ġnaughty":9784,"Ġdevour":9785,"Ġdevice":9786,"Ġstacking":9787,"Ġresembling":9788,"tember":9789,"Ġlaunch":9790,"broiled":9791,"Ġmeasures":9792,"Ġbaguettes":9793,"malai":9794,"oriental":9795,"Ġdidnt":9796,"Ġstops":9797,"Ġintroduce":9798,"flour":9799,"fluffy":9800,"Ġaromas":9801,"Ġbarefoot":9802,"Ġtoscana":9803,"Ġblogg":9804,"Ġmounding":9805,"Ġsaucer":9806,"Ġabsorbing":9807,"Ġreheated":9808,"Ġthumbnails":9809,"Ġproofing":9810,"Ġporcelain":9811,"Ġcontinues":9812,"Ġpushing":9813,"Ġmatchan":9814,"leek":9815,"hiopian":9816,"Ġfacial":9817,"Ġcongealed":9818,"Ġthinking":9819,"Ġ2010":9820,"Ġ2014":9821,"Ġphotos":9822,"Ġhollowing":9823,"Ġhollowed":9824,"cheesecake":9825,"Ġkiwis":9826,"Ġpowerhouse":9827,"Ġseamless":9828,"Ġ1254":9829,"quetaille":9830,"Ġtau":9831,"Ġtapped":9832,"Ġpleated":9833,"Ġpleating":9834,"Ġhousemoms":9835,"Ġideal":9836,"Ġpriv":9837,"Ġbottled":9838,"Ġgougeres":9839,"Ġbutterfinger":9840,"Ġcarbonade":9841,"Ġmandarins":9842,"Ġflute":9843,"Ġ1994":9844,"Ġ1995":9845,"Ġridged":9846,"Ġridiculously":9847,"Ġsanjee":9848,"Ġgathering":9849,"molasses":9850,"Ġcomfortably":9851,"Ġ1015":9852,"Ġagedashi":9853,"rocky":9854,"Ġsegment":9855,"Ġcrowding":9856,"buttermilk":9857,"brownie":9858,"minestrone":9859,"minutes":9860,"Ġobvious":9861,"Ġmaharash":9862,"curry":9863,"Ġgulf":9864,"Ġcornflakes":9865,"Ġguests":9866,"Ġfern":9867,"Ġferrero":9868,"Ġdropping":9869,"Ġnorthern":9870,"Ġangle":9871,"Ġflatbreads":9872,"olive":9873,"Ġtrio":9874,"Ġtriumvir":9875,"Ġsiu":9876,"Ġheavily":9877,"Ġdeveloped":9878,"Ġescargots":9879,"Ġfingertip":9880,"Ġjulienned":9881,"ramid":9882,"trian":9883,"Ġmulti":9884,"Ġeights":9885,"Ġ1053":9886,"Ġ1112":9887,"Ġadhered":9888,"Ġresistance":9889,"Ġcertain":9890,"Ġsparkler":9891,"Ġoverhanging":9892,"Ġcompact":9893,"Ġsinking":9894,"smoky":9895,"Ġgynge":9896,"ĠsoufflÃ©":9897,"Ġcigar":9898,"Ġpyramid":9899,"Ġkaiserschmarrn":9900,"Ġencour":9901,"Ġenclo":9902,"Ġ1191":9903,"Ġfundido":9904,"Ġdamaged":9905,"Ġbrooklyn":9906,"Ġkenny":9907,"Ġ1035":9908,"Ġsnickerdoodles":9909,"citrusy":9910,"Ġcylinders":9911,"farfalle":9912,"Ġbullet":9913,"Ġmalaysian":9914,"Ġwidest":9915,"Ġlitre":9916,"Ġhumba":9917,"Ġincredibleegg":9918,"Ġpouches":9919,"Ġtrinidad":9920,"Ġselter":9921,"Ġcampbell":9922,"Ġcampfire":9923,"Ġboozy":9924,"Ġhopefully":9925,"Ġchoucroute":9926,"Ġcourgettes":9927,"Ġimmersed":9928,"Ġ2169":9929,"Ġmandolin":9930,"Ġdrafts":9931,"Ġsultana":9932,"Ġlifted":9933,"Ġlifestyle":9934,"Ġassam":9935,"Ġ35951":9936,"Ġmaryland":9937,"Ġbursting":9938,"Ġresidual":9939,"Ġmicrowaved":9940,"Ġmicrowavable":9941,"Ġflorentines":9942,"Ġcamembert":9943,"Ġboysenberry":9944,"Ġboysenberries":9945,"Ġenvelope":9946,"Ġenvelopes":9947,"Ġproduct":9948,"Ġargentine":9949,"cdata":9950,"squash":9951,"Ġpenang":9952,"Ġfrizzled":9953,"Ġbaharat":9954,"Ġunforgettable":9955,"Ġhavarti":9956,"Ġhappen":9957,"Ġkombuch":9958,"Ġincisions":9959,"Ġclassy":9960,"Ġpulverized":9961,"Ġconsumed":9962,"Ġempanada":9963,"Ġdisappeared":9964,"cups":9965,"sdays":9966,"Ġ]]":9967,"Ġaustrian":9968,"Ġfaint":9969,"Ġchantilly":9970,"Ġshoots":9971,"Ġshadows":9972,"abaglion":9973,"Ġgochugaru":9974,"Ġclaypot":9975,"Ġindicates":9976,"Ġcharleston":9977,"Ġoverflowing":9978,"hummus":9979,"pineapple":9980,"world":9981,"Ġtrung":9982,"Ġmasterfoods":9983,"Ġwrinkly":9984,"Ġgourd":9985,"Ġlucia":9986,"Ġmirch":9987,"Ġnicoise":9988,"Ġjudging":9989,"Ġangostura":9990,"Ġkashmiri":9991,"Ġcaramalized":9992,"Ġproblem":9993,"Ġshredding":9994,"snickerdoodle":9995,"Ġoxidization":9996,"Ġhydrated":9997,"Ġpumkiny":9998,"hours":9999,"powdered":10000,"pintere":10001,"salsa":10002,"trinid":10003,"Ġutil":10004,"ĠtÃºrÃ³":10005,"Ġsateay":10006,"Ġclique":10007,"Ġcabbages":10008,"Ġthursdays":10009,"Ġpungent":10010,"Ġfarenheit":10011,"ĠbÃ©chamel":10012,"Ġmaterial":10013,"Ġmaggi":10014,"Ġrelocate":10015,"Ġdippers":10016,"Ġgauge":10017,"Ġlicorice":10018,"Ġcocaccino":10019,"Ġyoke":10020,"Ġebbitt":10021,"Ġspaghettini":10022,"copycat":10023,"Ġbeurre":10024,"Ġstormy":10025,"Ġstudded":10026,"Ġmirepoix":10027,"Ġsomeday":10028,"Ġcookingseptember":10029,"Ġwhitefish":10030,"Ġsurimi":10031,"Ġsupposed":10032,"Ġperisoare":10033,"Ġpernod":10034,"Ġjoseph":10035,"Ġshaggy":10036,"Ġshanghai":10037,"Ġintolerant":10038,"abaisse":10039,"Ġcompany":10040,"Ġkraft":10041,"Ġcaribbean":10042,"Ġencrusted":10043,"Ġprocessing":10044,"Ġdriscollsberry":10045,"Ġbeancurd":10046,"Ġinstrument":10047,"Ġescalop":10048,"Ġarticletype":10049,"Ġpoptarts":10050,"Ġmolcajete":10051,"Ġmeringues":10052,"Ġsanjeev":10053,"Ġmaharashtrian":10054,"Ġtriumvirate":10055,"Ġgyngell":10056,"abaglione":10057,"21":10058,"27":10059,"40":10060,"50":10061,"53":10062,"aho":10063,"bi":10064,"bour":10065,"beat":10066,"blic":10067,"bites":10068,"cube":10069,"dou":10070,"dream":10071,"em":10072,"eve":10073,"eous":10074,"eecake":10075,"five":10076,"fruit":10077,"frost":10078,"gi":10079,"gry":10080,"gain":10081,"gie":10082,"glish":10083,"gumes":10084,"hn":10085,"hou":10086,"hum":10087,"hur":10088,"hale":10089,"here":10090,"haw":10091,"heck":10092,"holiday":10093,"haps":10094,"iver":10095,"iel":10096,"iardi":10097,"jade":10098,"jean":10099,"juv":10100,"kn":10101,"kitchen":10102,"kien":10103,"lc":10104,"lies":10105,"lus":10106,"lime":10107,"mar":10108,"mings":10109,"mart":10110,"match":10111,"mussels":10112,"nor":10113,"nag":10114,"noodle":10115,"oh":10116,"osing":10117,"off":10118,"pow":10119,"prot":10120,"pistach":10121,"pita":10122,"rams":10123,"rasco":10124,"sil":10125,"sour":10126,"sec":10127,"sure":10128,"serves":10129,"sol":10130,"soup":10131,"sard":10132,"scr":10133,"scotch":10134,"tor":10135,"tini":10136,"tuscan":10137,"tbsp":10138,"uit":10139,"uro":10140,"ury":10141,"ugar":10142,"uine":10143,"uation":10144,"ughter":10145,"vit":10146,"vice":10147,"vuel":10148,"wc":10149,"well":10150,"wind":10151,"week":10152,"xing":10153,"yard":10154,"za":10155,"zomppa":10156,"zuma":10157,"Ã¬":10158,"ÃĹ":10159,"Ġ\\":10160,"Ġnd":10161,"Ġest":10162,"Ġais":10163,"Ġali":10164,"Ġawhile":10165,"Ġaiol":10166,"Ġtide":10167,"Ġtrout":10168,"Ġtaken":10169,"iner":10170,"inded":10171,"rent":10172,"Ġsf":10173,"Ġsin":10174,"Ġsip":10175,"Ġsac":10176,"Ġsake":10177,"Ġsum":10178,"Ġsne":10179,"Ġsister":10180,"erred":10181,"erby":10182,"Ġcage":10183,"Ġcsa":10184,"Ġthro":10185,"Ġthru":10186,"Ġomitting":10187,"ndma":10188,"esca":10189,"Ġpate":10190,"Ġpay":10191,"Ġputs":10192,"Ġpare":10193,"Ġpries":10194,"Ġpump":10195,"Ġpacks":10196,"Ġpopular":10197,"Ġfou":10198,"Ġfuss":10199,"Ġandd":10200,"Ġbus":10201,"Ġbist":10202,"Ġbump":10203,"Ġmou":10204,"Ġmim":10205,"Ġmid":10206,"Ġmam":10207,"Ġmate":10208,"Ġmitch":10209,"Ġmult":10210,"Ġmmm":10211,"Ġmabo":10212,"Ġmawa":10213,"Ġmwc":10214,"ĠmÃ¬":10215,"arini":10216,"aroni":10217,"isan":10218,"isred":10219,"isce":10220,"isado":10221,"atins":10222,"atie":10223,"atia":10224,"onion":10225,"onents":10226,"Ġwr":10227,"Ġwin":10228,"Ġwit":10229,"Ġwake":10230,"Ġwest":10231,"Ġwisk":10232,"Ġwider":10233,"Ġwestern":10234,"ilog":10235,"ilton":10236,"ital":10237,"anade":10238,"anger":10239,"anks":10240,"enchilad":10241,"enating":10242,"english":10243,"Ġret":10244,"Ġrehydr":10245,"Ġrejuv":10246,"Ġrewind":10247,"Ġtold":10248,"Ġtool":10249,"Ġdim":10250,"Ġdale":10251,"Ġdsh":10252,"Ġdung":10253,"Ġdales":10254,"Ġdugu":10255,"Ġdoses":10256,"Ġdsky":10257,"Ġderby":10258,"alt":10259,"aler":10260,"alia":10261,"icing":10262,"ical":10263,"icirc":10264,"rois":10265,"roast":10266,"rocery":10267,"orge":10268,"orman":10269,"Ġgap":10270,"akia":10271,"Ġlop":10272,"Ġlatter":10273,"Ġlame":10274,"ĠlÃ©":10275,"Ġlanc":10276,"Ġlcd":10277,"Ġhi":10278,"Ġhip":10279,"Ġhim":10280,"Ġhoo":10281,"Ġhsing":10282,"Ġhok":10283,"Ġhong":10284,"Ġhurry":10285,"assing":10286,"Ġrecheck":10287,"acy":10288,"acake":10289,"acate":10290,"action":10291,"Ġcoco":10292,"eta":10293,"etown":10294,"Ġinvol":10295,"Ġinte":10296,"Ġinhale":10297,"Ġyumm":10298,"Ġchese":10299,"Ġchino":10300,"Ġchori":10301,"Ġchvre":10302,"ĠchÃ¨vre":10303,"llen":10304,"llab":10305,"Ġforce":10306,"least":10307,"Ġusa":10308,"Ġulek":10309,"owtor":10310,"adilla":10311,"aditional":10312,"Ġeast":10313,"Ġeigh":10314,"Ġeatin":10315,"Ġegi":10316,"imbo":10317,"imadas":10318,"ucture":10319,"ucial":10320,"tot":10321,"tore":10322,"tolen":10323,"aming":10324,"amaret":10325,"entan":10326,"ĠStore":10327,"Ġspe":10328,"com":10329,"coction":10330,"coastal":10331,"Ġbeli":10332,"Ġbeasty":10333,"ghoff":10334,"ppie":10335,"Ġish":10336,"reddo":10337,"otion":10338,"Ġminutesstir":10339,"Ġstap":10340,"Ġstud":10341,"Ġstress":10342,"Ġstilton":10343,"Ġmia":10344,"veggie":10345,"Ġdaughter":10346,"Ġsalata":10347,"Ġcooper":10348,"Ġru":10349,"Ġrut":10350,"step":10351,"stewy":10352,"ickpea":10353,"Ġaddict":10354,"Ġunlo":10355,"Ġunfl":10356,"Ġunfo":10357,"Ġunsure":10358,"Ġsaw":10359,"ulas":10360,"umulated":10361,"Ġnas":10362,"Ġnet":10363,"Ġnif":10364,"Ġnanan":10365,"Ġnature":10366,"Ġnama":10367,"Ġsoap":10368,"Ġsocc":10369,"Ġsobr":10370,"Ġplanch":10371,"chun":10372,"chavrie":10373,"chapchae":10374,"chickpea":10375,"Ġwhisp":10376,"gging":10377,"Ġsup":10378,"Ġsupper":10379,"Ġsuns":10380,"Ġsupr":10381,"Ġbutcher":10382,"Ġhaven":10383,"Ġprem":10384,"Ġpreso":10385,"Ġprecious":10386,"Ġprebake":10387,"Ġprecise":10388,"Ġsalts":10389,"Ġsaltimbo":10390,"quipe":10391,"Ġflay":10392,"Ġflag":10393,"Ġflash":10394,"Ġflare":10395,"Ġflatter":10396,"Ġflames":10397,"ifies":10398,"ifreddo":10399,"Ġperuv":10400,"Ġperhaps":10401,"sely":10402,"Ġjj":10403,"Ġjade":10404,"Ġjamon":10405,"Ġjapchae":10406,"Ġvib":10407,"irable":10408,"Ġleach":10409,"Ġlepre":10410,"Ġweb":10411,"rivel":10412,"ribean":10413,"Ġbutterchicken":10414,"Ġshine":10415,"Ġshop":10416,"Ġshards":10417,"Ġsheer":10418,"Ġshears":10419,"Ġshanks":10420,"Ġshrivel":10421,"Ġovals":10422,"Ġsauceingredients":10423,"Ġsaucepans":10424,"elent":10425,"Ġsimone":10426,"Ġjun":10427,"Ġarent":10428,"Ġarequipe":10429,"Ġheath":10430,"Ġheatadd":10431,"Ġspooning":10432,"Ġspooned":10433,"Ġlie":10434,"Ġash":10435,"Ġaband":10436,"Ġabsol":10437,"aba":10438,"abone":10439,"abama":10440,"Ġdeserve":10441,"Ġseitan":10442,"achi":10443,"Ġoverdo":10444,"Ġoverbeat":10445,"opted":10446,"Ġcrucial":10447,"Ġcalf":10448,"Ġgarlc":10449,"lightly":10450,"modate":10451,"acky":10452,"Ġcanton":10453,"Ġfoams":10454,"Ġross":10455,"Ġrocco":10456,"Ġropes":10457,"Ġfewer":10458,"wned":10459,"Ġansw":10460,"Ġappeal":10461,"ĠappÃ©":10462,"Ġupgr":10463,"Ġ455":10464,"Ġpotion":10465,"lesbites":10466,"Ġbrownness":10467,"Ġcue":10468,"Ġcommunity":10469,"Ġkad":10470,"Ġkate":10471,"Ġkitt":10472,"Ġkho":10473,"Ġkong":10474,"Ġkett":10475,"Ġkof":10476,"Ġkraut":10477,"Ġkeller":10478,"Ġkugel":10479,"Ġkawal":10480,"Ġkona":10481,"Ġkunj":10482,"Ġgrid":10483,"Ġgrates":10484,"Ġgridd":10485,"Ġgrinded":10486,"Ġdecide":10487,"Ġparagon":10488,"Ġparsely":10489,"ffron":10490,"hering":10491,"ansion":10492,"Ġvital":10493,"Ġvitamin":10494,"istribute":10495,"antly":10496,"Ġaltar":10497,"Ġalabama":10498,"Ġsmile":10499,"Ġatta":10500,"Ġatleast":10501,"Ġbosc":10502,"Ġmoves":10503,"Ġmodel":10504,"Ġexper":10505,"Ġexterior":10506,"Ġexample":10507,"Ġlard":10508,"Ġhell":10509,"Ġheres":10510,"Ġslim":10511,"Ġslides":10512,"Ġmaintaining":10513,"Ġblu":10514,"Ġblush":10515,"Ġblisters":10516,"Ġblunt":10517,"Ġblowtor":10518,"Ġcarr":10519,"Ġcarribean":10520,"rapped":10521,"Ġcorquettes":10522,"uffle":10523,"Ġmadeira":10524,"omi":10525,"Ġserbian":10526,"Ġdied":10527,"Ġletter":10528,"Ġriceingredients":10529,"alada":10530,"Ġoutlined":10531,"Ġteen":10532,"Ġtext":10533,"Ġtears":10534,"Ġteacake":10535,"Ġoptim":10536,"Ġdeal":10537,"Ġdelectable":10538,"Ġdeisred":10539,"Ġhourbut":10540,"Ġbreadstick":10541,"ashe":10542,"cept":10543,"estly":10544,"cone":10545,"conan":10546,"Ġ209":10547,"Ġsmalls":10548,"Ġgoji":10549,"Ġwilling":10550,"Ġzag":10551,"Ġzabaglione":10552,"Ġtrap":10553,"Ġtricky":10554,"Ġhaldi":10555,"Ġenvuel":10556,"igo":10557,"Ġredfish":10558,"Ġredux":10559,"Ġredistribute":10560,"Ġdietary":10561,"Ġgingerroot":10562,"Ġbeefless":10563,"Ġrollint":10564,"ĠHome":10565,"Ġ1215":10566,"Ġwhenever":10567,"angel":10568,"Ġmarble":10569,"Ġmarconan":10570,"Ġscen":10571,"Ġscum":10572,"Ġquot":10573,"Ġquiver":10574,"Ġproja":10575,"Ġprosc":10576,"Ġproject":10577,"after":10578,"Ġmorel":10579,"Ġhott":10580,"Ġbaconnaise":10581,"Ġbasa":10582,"Ġparsi":10583,"oguri":10584,"Ġhoneycomb":10585,"Ġpersonal":10586,"Ġpersonalized":10587,"ĠNot":10588,"Ġwords":10589,"Ġmanche":10590,"Ġbreabone":10591,"Ġpublic":10592,"peri":10593,"azteca":10594,"Ġgrillonce":10595,"zzle":10596,"Ġearl":10597,"Ġtheyll":10598,"Ġrefrid":10599,"Ġreferred":10600,"Ġsolidify":10601,"Ġsays":10602,"Ġmeen":10603,"âĢ³":10604,"âĢľ":10605,"Ġbrans":10606,"Ġbridget":10607,"Ġbrilliant":10608,"Ġclosing":10609,"Ġsoymilk":10610,"Ġsoftest":10611,"assada":10612,"Ġ251":10613,"Ġdock":10614,"Ġanyway":10615,"Ġ00":10616,"Ġweren":10617,"Ġdownward":10618,"Ġrates":10619,"Ġ1113":10620,"Ġeasly":10621,"Ġfrypan":10622,"panc":10623,"blend":10624,"Ġputtan":10625,"Ġoffers":10626,"Ġstickiness":10627,"Ġcurve":10628,"Ġcurling":10629,"Ġcurrent":10630,"Ġminuteuntil":10631,"Ġrival":10632,"Ġsquashes":10633,"Ġpopper":10634,"Ġpovit":10635,"Ġamino":10636,"luding":10637,"Ġincluded":10638,"Ġaccentu":10639,"Ġaccumulated":10640,"Ġreadily":10641,"Ġbargain":10642,"Ġfrango":10643,"Ġloos":10644,"Ġlooser":10645,"plets":10646,"Ġsyllab":10647,"amsicle":10648,"Ġceleryand":10649,"Ġwalk":10650,"Ġdrive":10651,"Ġmarinates":10652,"Ġmelty":10653,"Ġburns":10654,"Ġburson":10655,"mentaler":10656,"Ġbayou":10657,"Ġsalmonella":10658,"Ġcrispbread":10659,"awe":10660,"awless":10661,"Ġsprayer":10662,"Ġspraying":10663,"saut":10664,"saimadas":10665,"saffron":10666,"Ġtortillan":10667,"hopper":10668,"Ġ193":10669,"Ġcentral":10670,"Ġcentury":10671,"short":10672,"Ġedna":10673,"Ġcappuccino":10674,"Ġstructure":10675,"spain":10676,"Ġ238":10677,"Ġcurrya":10678,"Ġnovice":10679,"Ġcleanly":10680,"Ġcleanup":10681,"healthyrecipes":10682,"Ġcentering":10683,"Ġespuma":10684,"Ġtemperatures":10685,"Ġpinecone":10686,"Ġdonuts":10687,"what":10688,"wheel":10689,"Ġpastits":10690,"Ġknob":10691,"Ġknocks":10692,"Ġpints":10693,"Ġpinpo":10694,"Ġpinwheel":10695,"Ġcrocod":10696,"Ġeveryday":10697,"Ġpats":10698,"Ġ421":10699,"Ġhomejune":10700,"Ġmacinto":10701,"Ġoccassionally":10702,"Ġcoffeebean":10703,"Ġmealdiv":10704,"Ġmyself":10705,"Ġadopted":10706,"Ġadhering":10707,"Ġswap":10708,"Ġswishes":10709,"Ġfluffing":10710,"board":10711,"body":10712,"Ġcola":10713,"Ġcolors":10714,"inte":10715,"Ġmasalan":10716,"Ġrepeating":10717,"Ġguides":10718,"Ġguisado":10719,"Ġvirt":10720,"Ġscooped":10721,"Ġcapture":10722,"Ġwhoppie":10723,"Ġslicer":10724,"Ġspringtime":10725,"Ġindulg":10726,"Ġholy":10727,"Ġhoison":10728,"Ġhocks":10729,"Ġartisan":10730,"Ġbeginner":10731,"Ġpacking":10732,"Ġ341":10733,"Ġ343":10734,"Ġ3413":10735,"Ġinstruction":10736,"Ġbragg":10737,"Ġinstructionsin":10738,"Ġkitchensim":10739,"ences":10740,"Ġboxes":10741,"Ġ552":10742,"Ġaprox":10743,"Ġ386":10744,"Ġsituation":10745,"Ġsteamy":10746,"tersweet":10747,"Ġfirmness":10748,"ĠGrocery":10749,"Ġmicrowaveable":10750,"Ġ436":10751,"Ġ437":10752,"Ġcubescube":10753,"Ġ470":10754,"Ġ476":10755,"Ġ478":10756,"couscous":10757,"Ġcousin":10758,"Ġ608":10759,"Ġelement":10760,"Ġbroiling":10761,"Ġsemicirc":10762,"Ġsemifreddo":10763,"Ġcolorings":10764,"linguine":10765,"Ġunderbake":10766,"Ġarrabbiata":10767,"Ġdouse":10768,"Ġsubbed":10769,"Ġ461":10770,"Ġ463":10771,"Ġarrangement":10772,"Ġeaters":10773,"Ġ482":10774,"Ġwashing":10775,"Ġ493":10776,"seeds":10777,"Ġdeepest":10778,"Ġcrocker":10779,"Ġexpose":10780,"Ġexposing":10781,"Ġexpansion":10782,"buttered":10783,"Ġvera":10784,"Ġemmentaler":10785,"Ġ652":10786,"Ġ658":10787,"Ġ6547":10788,"Ġsummerdessert":10789,"Ġfixed":10790,"upine":10791,"Ġ572":10792,"Ġ593":10793,"Ġ594":10794,"Ġ598":10795,"Ġ581":10796,"Ġ531":10797,"Ġ532":10798,"grain":10799,"Ġ511":10800,"Ġ2001":10801,"Ġ2004":10802,"Ġ2007":10803,"masala":10804,"Ġcardboard":10805,"Ġindianhealthyrecipes":10806,"Ġpolentan":10807,"ĠĠĠĠĠĠĠĠĠĠ":10808,"Ġ682":10809,"Ġ721":10810,"Ġ722":10811,"Ġ724":10812,"Ġ728":10813,"Ġlasnag":10814,"Ġherbivoracious":10815,"Ġgenerally":10816,"Ġ750":10817,"Ġ755":10818,"Ġ617":10819,"Ġ703":10820,"Ġ704":10821,"Ġ708":10822,"Ġ709":10823,"atsu":10824,"Ġ665":10825,"Ġ666":10826,"Ġ667":10827,"Ġ768":10828,"Ġrumble":10829,"ensions":10830,"Ġ637":10831,"kofat":10832,"Ġaction":10833,"Ġ710":10834,"Ġ714":10835,"Ġ715":10836,"Ġ930":10837,"Ġjohn":10838,"Ġ831":10839,"Ġcollege":10840,"Ġ877":10841,"Ġ954":10842,"Ġwasnt":10843,"Ġ824":10844,"Ġ829":10845,"Ġ892":10846,"Ġrinds":10847,"Ġentree":10848,"Ġ945":10849,"Ġ912":10850,"Ġtrimmings":10851,"Ġmonitor":10852,"Ġ786":10853,"Ġreaching":10854,"Ġplantation":10855,"Ġtouches":10856,"Ġ842":10857,"Ġbison":10858,"Ġbisquick":10859,"Ġprevents":10860,"Ġwaited":10861,"Ġdistilled":10862,"Ġ853":10863,"Ġensalada":10864,"Ġvalue":10865,"Ġvalencian":10866,"Ġgrinds":10867,"Ġgrindings":10868,"Ġbrands":10869,"ike":10870,"Ġfinds":10871,"Ġnews":10872,"Ġtruffled":10873,"Ġfritter":10874,"carole":10875,"uki":10876,"Ġtripled":10877,"Ġtriplesbites":10878,"Ġfoaming":10879,"great":10880,"Ġsubstituting":10881,"Ġsubstitutions":10882,"Ġvalentino":10883,"Ġappetit":10884,"beans":10885,"Ġfaux":10886,"Ġtriangular":10887,"Ġchurro":10888,"Ġchurrasco":10889,"Ġcavities":10890,"Ġtablet":10891,"Ġrealised":10892,"Ġpositions":10893,"venison":10894,"Ġjulian":10895,"mixture":10896,"Ġslicingor":10897,"cannoli":10898,"Ġmusc":10899,"Ġmuslin":10900,"Ġrouge":10901,"Ġnaomi":10902,"Ġharina":10903,"Ġharira":10904,"Ġgalletas":10905,"abeche":10906,"Ġlevels":10907,"Ġdrinks":10908,"Ġpausing":10909,"Ġsixth":10910,"Ġspirals":10911,"Ġcobb":10912,"Ġcopyright":10913,"Ġhaddock":10914,"Ġkimchee":10915,"Ġwatchers":10916,"Ġvelve":10917,"Ġterrine":10918,"ĠkahlÃº":10919,"Ġphone":10920,"Ġreheats":10921,"Ġkeawe":10922,"bananas":10923,"Ġpassata":10924,"Ġbouillion":10925,"Ġbouillabaisse":10926,"Ġethiopian":10927,"Ġkochu":10928,"Ġporcupine":10929,"ĠtiramisÃ¹":10930,"Ġinternational":10931,"Ġforever":10932,"Ġforego":10933,"Ġidaho":10934,"Ġclumpy":10935,"Ġberghoff":10936,"Ġhawthor":10937,"Ġdelightful":10938,"Ġmagazine":10939,"Ġhunt":10940,"Ġhungry":10941,"Ġbrioches":10942,"Ġsplashes":10943,"Ġwonderfully":10944,"Ġversus":10945,"Ġpiccatan":10946,"Ġsignific":10947,"Ġfastest":10948,"Ġstaying":10949,"Ġtempted":10950,"Ġsuccessfully":10951,"Ġdisinte":10952,"Ġadventu":10953,"Ġchiffanade":10954,"Ġdots":10955,"Ġconcentric":10956,"mushrooms":10957,"Ġkinds":10958,"Ġridges":10959,"Ġportobellos":10960,"Ġ1390":10961,"caldo":10962,"Ġtearing":10963,"Ġprovided":10964,"Ġprovides":10965,"Ġ1757":10966,"eggless":10967,"âĦ¢":10968,"âĦĥ":10969,"Ġmaldon":10970,"Ġretaining":10971,"Ġinspir":10972,"tomize":10973,"Ġobject":10974,"Ġopposed":10975,"Ġmessages":10976,"keto":10977,"Ġsteeped":10978,"Ġrinsing":10979,"Ġnigerian":10980,"Ġprickly":10981,"Ġajo":10982,"Ġdrool":10983,"Ġdroplets":10984,"Ġstained":10985,"Ġmignons":10986,"Ġtricks":10987,"Ġ1224":10988,"Ġbrewing":10989,"Ġsiamese":10990,"Ġsavoiardi":10991,"Ġkicked":10992,"Ġdeveloping":10993,"Ġmillion":10994,"Ġlunchbox":10995,"gediner":10996,"traditional":10997,"Ġ1377":10998,"Ġgoudan":10999,"Ġpunjab":11000,"Ġaccommodate":11001,"Ġtruly":11002,"Ġtruvia":11003,"Ġoscar":11004,"Ġpounder":11005,"Ġbias":11006,"Ġgimchi":11007,"Ġnapkin":11008,"Ġcomponents":11009,"Ġâħ":11010,"Ġmaduro":11011,"Ġvineyard":11012,"Ġcrimson":11013,"Ġ1248":11014,"Ġheavenly":11015,"poached":11016,"Ġmakings":11017,"Ġmakers":11018,"Ġtrinity":11019,"Ġpairing":11020,"Ġobtained":11021,"clean":11022,"Ġsomewhere":11023,"Ġsherbert":11024,"Ġscorch":11025,"Ġ2140":11026,"Ġpicnics":11027,"Ġsuggested":11028,"Ġdigestives":11029,"philadelphia":11030,"Ġszegediner":11031,"Ġmadeleine":11032,"Ġknockwurst":11033,"Ġmuddler":11034,"scall":11035,"summery":11036,"Ġooze":11037,"Ġmessing":11038,"Ġhrs":11039,"Ġrasmalai":11040,"lightened":11041,"herbivoracious":11042,"Ġescabeche":11043,"Ġexcessively":11044,"Ġdiamondnuts":11045,"Ġtatashe":11046,"Ġottolen":11047,"Ġbooster":11048,"Ġgrocery":11049,"Ġgrownup":11050,"Ġapplying":11051,"Ġscalded":11052,"Ġpurchase":11053,"texas":11054,"Ġhuatia":11055,"Ġsterling":11056,"Ġassist":11057,"Ġbloomin":11058,"Ġacids":11059,"Ġacidity":11060,"Ġchocolaty":11061,"Ġpassing":11062,"Ġpetals":11063,"Ġpetite":11064,"Ġmissing":11065,"Ġmissed":11066,"Ġwww":11067,"itterpintere":11068,"Ġdreamy":11069,"Ġlawry":11070,"collard":11071,"Ġextending":11072,"Ġbratwurst":11073,"Ġclarify":11074,"Ġemulsify":11075,"Ġvarieties":11076,"december":11077,"Ġsoooo":11078,"Ġbahia":11079,"Ġhometown":11080,"Ġcoffins":11081,"Ġcoffeecake":11082,"Ġumame":11083,"Ġumami":11084,"Ġunforgiving":11085,"Ġkombu":11086,"Ġincision":11087,"Ġpulverize":11088,"Ġconsuming":11089,"Ġempanadas":11090,"Ġmontezuma":11091,"Ġdisappear":11092,"bittersweet":11093,"caprese":11094,"july":11095,"Ġcustomize":11096,"Ġdhaba":11097,"Ġinitial":11098,"Ġintens":11099,"Ġintense":11100,"Ġspecks":11101,"Ġstamps":11102,"Ġstamped":11103,"Ġsupplies":11104,"Ġshaoxing":11105,"Ġcristo":11106,"Ġcontrast":11107,"Ġcontrary":11108,"Ġmanageable":11109,"Ġarranged":11110,"Ġarranging":11111,"Ġhomogenous":11112,"Ġhomogeneous":11113,"Ġpleasure":11114,"Ġdetails":11115,"Ġdetailed":11116,"Ġcelebrating":11117,"casserole":11118,"facebook":11119,"grandma":11120,"kicked":11121,"restaurant":11122,"Ġsuccelent":11123,"Ġmajor":11124,"rosewater":11125,"Ġgeorge":11126,"Ġlabel":11127,"Ġurad":11128,"Ġwelcome":11129,"Ġdescribe":11130,"Ġsequel":11131,"Ġcrudite":11132,"Ġkesari":11133,"Ġexcluding":11134,"Ġgrenache":11135,"Ġcutouts":11136,"Ġaguacate":11137,"Ġpromise":11138,"Ġcheerful":11139,"Ġsupermarkets":11140,"Ġpasticcera":11141,"Ġtagliarini":11142,"Ġpimiento":11143,"barbecued":11144,"creamsicle":11145,"macaroni":11146,"nessee":11147,"ratatouille":11148,"rificial":11149,"video":11150,"Ġthomas":11151,"Ġpcs":11152,"Ġpimenton":11153,"Ġfeathers":11154,"Ġbattered":11155,"Ġreminisce":11156,"Ġdancing":11157,"Ġchicory":11158,"Ġunique":11159,"Ġjaffrey":11160,"Ġviolently":11161,"Ġlearn":11162,"Ġshorter":11163,"Ġcalculated":11164,"Ġkabab":11165,"Ġcontaminate":11166,"Ġgreasy":11167,"Ġsettings":11168,"Ġmarscarpone":11169,"Ġlolly":11170,"Ġcentimet":11171,"Ġswasthis":11172,"deviled":11173,"processed":11174,"Ġblogger":11175,"Ġprivacy":11176,"Ġobviously":11177,"Ġenclose":11178,"Ġkombucha":11179,"Ġutilizing":11180,"Ġescalopes":11181,"double":11182,"dreamy":11183,"houg":11184,"hawaiian":11185,"matcha":11186,"north":11187,"protein":11188,"pistachio":11189,"soupy":11190,"sardine":11191,"uitto":11192,"Ġndash":11193,"Ġalign":11194,"Ġaiolo":11195,"Ġsacrificial":11196,"Ġsumac":11197,"Ġpriest":11198,"Ġfouace":11199,"Ġfussy":11200,"Ġbumpy":11201,"Ġmitchell":11202,"Ġmultiple":11203,"Ġrehydrate":11204,"Ġrejuvenating":11205,"Ġdungeness":11206,"Ġduguid":11207,"ĠlÃ©gumes":11208,"Ġlancinato":11209,"Ġhokkien":11210,"Ġyumminess":11211,"Ġeighths":11212,"amaretto":11213,"Ġbelieve":11214,"Ġminutesstirring":11215,"Ġstaples":11216,"Ġunlock":11217,"Ġunflav":11218,"Ġunfold":11219,"Ġsoccarat":11220,"Ġsobrassada":11221,"Ġplancha":11222,"chunky":11223,"Ġperuvian":11224,"Ġvibrant":11225,"Ġleprechaun":11226,"Ġabandon":11227,"Ġabsolute":11228,"Ġrosso":11229,"Ġanswering":11230,"Ġappealing":11231,"ĠappÃ©tit":11232,"Ġkittencal":11233,"Ġkettle":11234,"Ġkofat":11235,"Ġkawali":11236,"Ġkunjit":11237,"Ġgriddled":11238,"Ġblowtorch":11239,"Ġtextured":11240,"Ġoptima":11241,"Ġenvueltos":11242,"Ġrollintini":11243,"ĠHomemade":11244,"Ġquivering":11245,"Ġproscuitto":11246,"Ġmanchego":11247,"Ġpublication":11248,"Ġrefridger":11249,"Ġ11132":11250,"Ġputtanesca":11251,"Ġaccentuating":11252,"Ġsyllabub":11253,"shortbread":11254,"Ġpastitsio":11255,"Ġpinpoint":11256,"Ġcrocodile":11257,"Ġmacintosh":11258,"Ġmealdiva":11259,"Ġindulgences":11260,"Ġkitchensimone":11261,"Ġ65475":11262,"Ġsummerdessertweek":11263,"Ġlasnaga":11264,"Ġtabletop":11265,"ĠkahlÃºa":11266,"Ġkochujang":11267,"Ġhawthorne":11268,"Ġadventurous":11269,"Ġottolenghi":11270,"Ġhuatiao":11271,"''":11272,"17":11273,"199":11274,"28":11275,"35":11276,"37":11277,"49":11278,"73":11279,"86":11280,"aul":11281,"aust":11282,"august":11283,"bes":11284,"boo":11285,"bine":11286,"bring":11287,"bra":11288,"big":11289,"blo":11290,"bah":11291,"buck":11292,"barr":11293,"bug":11294,"books":11295,"cin":11296,"cture":11297,"card":11298,"cini":11299,"craw":11300,"csa":11301,"cano":11302,"ctions":11303,"det":11304,"dam":11305,"dand":11306,"dump":11307,"dos":11308,"down":11309,"dome":11310,"dirty":11311,"dilly":11312,"dolsot":11313,"ez":11314,"eil":11315,"emon":11316,"eggs":11317,"euvre":11318,"four":11319,"fun":11320,"full":11321,"fizz":11322,"fett":11323,"field":11324,"falafel":11325,"gq":11326,"gou":11327,"good":11328,"gul":11329,"gans":11330,"give":11331,"golf":11332,"hr":11333,"hine":11334,"hun":11335,"hand":11336,"hib":11337,"houette":11338,"ii":11339,"iate":11340,"jic":11341,"jas":11342,"jamp":11343,"jados":11344,"jama":11345,"jumbo":11346,"jaci":11347,"january":11348,"kid":11349,"kster":11350,"krain":11351,"kvar":11352,"katsu":11353,"las":11354,"lick":11355,"lice":11356,"lone":11357,"lano":11358,"lah":11359,"lai":11360,"latin":11361,"lait":11362,"lettes":11363,"mad":11364,"muff":11365,"mash":11366,"mand":11367,"miss":11368,"mediately":11369,"middle":11370,"macha":11371,"mouth":11372,"moulade":11373,"mama":11374,"mardi":11375,"moosewood":11376,"mades":11377,"nan":11378,"nings":11379,"nies":11380,"noon":11381,"new":11382,"nig":11383,"nio":11384,"nium":11385,"native":11386,"note":11387,"njic":11388,"oer":11389,"oir":11390,"occo":11391,"overs":11392,"ollini":11393,"oignon":11394,"okshire":11395,"ps":11396,"pour":11397,"pop":11398,"pages":11399,"port":11400,"pizz":11401,"papp":11402,"presso":11403,"prin":11404,"peno":11405,"pira":11406,"paper":11407,"ras":11408,"rate":11409,"radish":11410,"slic":11411,"sue":11412,"sage":11413,"ssel":11414,"sthe":11415,"sons":11416,"smashed":11417,"sadilla":11418,"scarole":11419,"tin":11420,"tou":11421,"tac":11422,"ties":11423,"tice":11424,"tab":11425,"tra":11426,"tching":11427,"taste":11428,"tric":11429,"teen":11430,"times":11431,"tarragon":11432,"tured":11433,"teps":11434,"uh":11435,"uan":11436,"ugh":11437,"uze":11438,"vis":11439,"vados":11440,"vention":11441,"win":11442,"wan":11443,"wal":11444,"will":11445,"wain":11446,"want":11447,"xious":11448,"yed":11449,"yak":11450,"yum":11451,"yuntil":11452,"zi":11453,"zucch":11454,"¬Â":11455,"Â½":11456,"Ã§":11457,"Ã¸":11458,"âĤ":11459,"Ġie":11460,"ĠÃ©":11461,"Ġutter":11462,"Ġai":11463,"Ġaer":11464,"Ġasem":11465,"Ġaverage":11466,"Ġaarti":11467,"Ġtut":11468,"Ġtas":11469,"Ġtour":11470,"Ġtant":11471,"Ġtact":11472,"Ġtaz":11473,"Ġtone":11474,"Ġtint":11475,"Ġtaff":11476,"Ġtava":11477,"Ġtawa":11478,"Ġtrois":11479,"Ġtjamp":11480,"ining":11481,"inch":11482,"inav":11483,"inire":11484,"inag":11485,"inista":11486,"inart":11487,"inja":11488,"remo":11489,"reated":11490,"relli":11491,"rewd":11492,"reciated":11493,"Ġsich":11494,"Ġsuck":11495,"Ġslee":11496,"erican":11497,"ergy":11498,"erhouse":11499,"ernio":11500,"Ġcit":11501,"Ġcip":11502,"Ġcuten":11503,"Ġceas":11504,"Ġcir":11505,"Ġcult":11506,"Ġcawal":11507,"Ġthinn":11508,"Ġthinning":11509,"Ġthongs":11510,"Ġthirty":11511,"Ġoc":11512,"Ġol":11513,"Ġobs":11514,"Ġoaky":11515,"ndogs":11516,"eside":11517,"esli":11518,"essing":11519,"esday":11520,"esign":11521,"espresso":11522,"Ġpf":11523,"Ġpm":11524,"Ġped":11525,"Ġpry":11526,"Ġpoo":11527,"Ġpir":11528,"Ġpab":11529,"Ġpist":11530,"Ġpom":11531,"Ġpog":11532,"Ġpract":11533,"Ġpran":11534,"Ġpool":11535,"Ġpenz":11536,"Ġff":11537,"Ġfly":11538,"Ġful":11539,"Ġfanned":11540,"Ġfest":11541,"Ġfell":11542,"Ġfield":11543,"Ġfava":11544,"Ġba":11545,"Ġbor":11546,"Ġbuc":11547,"Ġbian":11548,"Ġbice":11549,"Ġbav":11550,"Ġbhat":11551,"Ġbilt":11552,"Ġbais":11553,"Ġborr":11554,"Ġbinag":11555,"Ġbeside":11556,"Ġmood":11557,"Ġmast":11558,"Ġmum":11559,"Ġmarian":11560,"Ġmant":11561,"Ġmerry":11562,"Ġmilled":11563,"oull":11564,"oust":11565,"ouns":11566,"ingo":11567,"inging":11568,"ingled":11569,"aru":11570,"arin":11571,"arom":11572,"ario":11573,"arago":11574,"iser":11575,"isini":11576,"atic":11577,"atim":11578,"atus":11579,"aturated":11580,"atient":11581,"attan":11582,"onian":11583,"onment":11584,"onnaise":11585,"onstitut":11586,"oncini":11587,"Ġwa":11588,"Ġwi":11589,"Ġwar":11590,"Ġwow":11591,"Ġwad":11592,"Ġwitch":11593,"ĠwÃ¡":11594,"Ġwolf":11595,"Ġwacky":11596,"ilc":11597,"ilia":11598,"ilute":11599,"ilocks":11600,"ilbert":11601,"ited":11602,"itation":11603,"itÃ©":11604,"itaki":11605,"ane":11606,"anced":11607,"ancient":11608,"aniel":11609,"ento":11610,"enous":11611,"enos":11612,"enjaci":11613,"ennium":11614,"Ġreve":11615,"Ġrever":11616,"Ġreind":11617,"Ġreroll":11618,"Ġreaction":11619,"Ġreaming":11620,"Ġtoor":11621,"Ġtoll":11622,"Ġtopper":11623,"Ġtoka":11624,"Ġtotop":11625,"Ġtoppers":11626,"Ġtoler":11627,"utious":11628,"Ġdu":11629,"Ġdw":11630,"Ġdals":11631,"Ġdens":11632,"Ġdeseed":11633,"Ġdeter":11634,"Ġdadd":11635,"Ġdital":11636,"Ġdyed":11637,"Ġdilute":11638,"Ġdaniel":11639,"alac":11640,"aloup":11641,"alore":11642,"along":11643,"alicious":11644,"alizing":11645,"icot":11646,"icone":11647,"edo":11648,"edec":11649,"edamame":11650,"edonian":11651,"ories":11652,"orish":11653,"orra":11654,"orful":11655,"orious":11656,"orzo":11657,"orba":11658,"organic":11659,"oranger":11660,"Ġggh":11661,"Ġgain":11662,"Ġgher":11663,"Ġgue":11664,"Ġgave":11665,"Ġgell":11666,"Ġgully":11667,"Ġgator":11668,"Ġgilbert":11669,"iper":11670,"ipur":11671,"akies":11672,"akley":11673,"akka":11674,"Ġlam":11675,"Ġlack":11676,"Ġliter":11677,"Ġluck":11678,"Ġlang":11679,"Ġlank":11680,"Ġlug":11681,"Ġlava":11682,"Ġlicious":11683,"Ġloses":11684,"Ġhon":11685,"Ġhate":11686,"Ġhol":11687,"Ġhtt":11688,"Ġharr":11689,"Ġhref":11690,"Ġhiding":11691,"Ġhike":11692,"Ġhakka":11693,"Ġrecent":11694,"Ġrecette":11695,"Ġreconstitut":11696,"acter":11697,"acado":11698,"acoa":11699,"veling":11700,"Ġcope":11701,"ethe":11702,"etions":11703,"etoss":11704,"etÃ³n":11705,"etrate":11706,"Ġinver":11707,"Ġinter":11708,"Ġintil":11709,"Ġince":11710,"Ġinsal":11711,"Ġinject":11712,"Ġinez":11713,"Ġrecipeprint":11714,"Ġrecipeza":11715,"Ġyop":11716,"Ġyee":11717,"Ġcherv":11718,"Ġcheat":11719,"Ġchul":11720,"Ġchir":11721,"Ġchous":11722,"Ġchaf":11723,"Ġchamb":11724,"Ġchars":11725,"Ġchook":11726,"Ġchron":11727,"lls":11728,"llar":11729,"llon":11730,"llama":11731,"Ġforag":11732,"Ġforgiving":11733,"Ġforbes":11734,"lefto":11735,"Ġoni":11736,"Ġudi":11737,"Ġukrain":11738,"Ġminimal":11739,"Ġmincing":11740,"Ġmintot":11741,"owa":11742,"adi":11743,"adent":11744,"adine":11745,"adjust":11746,"Ġew":11747,"Ġecl":11748,"Ġeffic":11749,"ervatively":11750,"thick":11751,"thyme":11752,"thaw":11753,"thered":11754,"thumb":11755,"imo":11756,"iments":11757,"imately":11758,"imichurri":11759,"immediately":11760,"Ġitll":11761,"ucy":11762,"ucca":11763,"ident":11764,"idly":11765,"idik":11766,"amol":11767,"ambled":11768,"amrock":11769,"american":11770,"entino":11771,"entially":11772,"Ġspred":11773,"Ġspian":11774,"Ġspilla":11775,"Ġspink":11776,"Ġspong":11777,"Ġspitting":11778,"lyun":11779,"cold":11780,"cock":11781,"coholic":11782,"Ġbeak":11783,"ghly":11784,"ghetti":11785,"Ġistim":11786,"Ġissue":11787,"Ġisernio":11788,"Ġpepp":11789,"Ġpech":11790,"Ġserver":11791,"Ġservicing":11792,"Ġstk":11793,"Ġstated":11794,"Ġstale":11795,"Ġstenc":11796,"Ġstations":11797,"Ġstones":11798,"Ġstony":11799,"Ġstatus":11800,"ourakia":11801,"atelli":11802,"atelle":11803,"Ġdaiy":11804,"Ġsalat":11805,"Ġrd":11806,"Ġrak":11807,"Ġrate":11808,"Ġrive":11809,"Ġraz":11810,"Ġripp":11811,"Ġrang":11812,"Ġrita":11813,"ĠrÃ©":11814,"Ġrago":11815,"Ġrabi":11816,"Ġrsqu":11817,"sta":11818,"stel":11819,"strained":11820,"stinging":11821,"illips":11822,"icking":11823,"Ġglug":11824,"Ġglitter":11825,"Ġglorious":11826,"Ġunthaw":11827,"Ġunstrained":11828,"Ġsago":11829,"Ġsaved":11830,"ulu":11831,"ulent":11832,"ulation":11833,"ulating":11834,"teriyaki":11835,"Ġvegans":11836,"umference":11837,"gary":11838,"garden":11839,"ianan":11840,"tily":11841,"Ġnan":11842,"Ġnant":11843,"Ġnilla":11844,"Ġness":11845,"Ġnone":11846,"Ġnitr":11847,"Ġnib":11848,"Ġnook":11849,"Ġnative":11850,"Ġnana":11851,"Ġnooks":11852,"Ġninja":11853,"Ġsop":11854,"Ġcookin":11855,"Ġcookout":11856,"Ġcookied":11857,"Ġcookbooks":11858,"chile":11859,"chia":11860,"chilli":11861,"chimichurri":11862,"chcock":11863,"Ġwhizz":11864,"Ġwheel":11865,"ggies":11866,"ggers":11867,"Ġsue":11868,"Ġsusp":11869,"Ġsuero":11870,"Ġsupa":11871,"Ġsuvar":11872,"easiest":11873,"Ġbuta":11874,"Ġconcept":11875,"Ġconvention":11876,"Ġhaas":11877,"Ġhaus":11878,"Ġpreap":11879,"Ġpremix":11880,"Ġprecut":11881,"ques":11882,"quent":11883,"quire":11884,"quito":11885,"Ġflush":11886,"Ġflawless":11887,"ifts":11888,"Ġperky":11889,"Ġpernik":11890,"Ġpermiss":11891,"sea":11892,"sear":11893,"september":11894,"sequent":11895,"Ġjan":11896,"Ġjour":11897,"Ġjump":11898,"Ġjale":11899,"Ġjams":11900,"Ġjigg":11901,"Ġjitter":11902,"Ġjiggly":11903,"oong":11904,"Ġfromages":11905,"Ġfromage":11906,"Ġvong":11907,"Ġorgans":11908,"iring":11909,"irts":11910,"Ġlekvar":11911,"Ġpeppertop":11912,"Ġpepperoncini":11913,"gelow":11914,"Ġweak":11915,"river":11916,"Ġshal":11917,"Ġshard":11918,"Ġshini":11919,"Ġshiso":11920,"Ġshock":11921,"Ġshili":11922,"Ġsheil":11923,"Ġshingled":11924,"Ġshitaki":11925,"Ġshamrock":11926,"ayonnaise":11927,"Ġsugaralong":11928,"Ġsaucein":11929,"elettes":11930,"Ġjune":11931,"urally":11932,"urities":11933,"urface":11934,"apes":11935,"apone":11936,"apalac":11937,"ishing":11938,"Ġlighly":11939,"Ġbroc":11940,"Ġbrocco":11941,"Ġfatted":11942,"Ġasso":11943,"Ġasked":11944,"Ġaborra":11945,"abets":11946,"Ġdesirable":11947,"Ġcrease":11948,"Ġseper":11949,"Ġseptember":11950,"Ġvegetarians":11951,"achumb":11952,"Ġovers":11953,"Ġovertur":11954,"Ġoverbaked":11955,"Ġoverdone":11956,"Ġoversear":11957,"ewa":11958,"open":11959,"Ġcrated":11960,"Ġcrump":11961,"licy":11962,"Ġcalend":11963,"Ġcalvados":11964,"Ġprotection":11965,"Ġprotected":11966,"Ġgarilc":11967,"Ġbowties":11968,"Ġcreamier":11969,"Ġpanning":11970,"mom":11971,"mozzare":11972,"Ġcana":11973,"Ġcanuck":11974,"Ġcannings":11975,"user":11976,"usale":11977,"usually":11978,"Ġcheesey":11979,"Ġrob":11980,"Ġrod":11981,"Ġstirred":11982,"avage":11983,"avos":11984,"monastery":11985,"Ġlace":11986,"Ġlacing":11987,"Ġans":11988,"Ġanis":11989,"meadow":11990,"Ġappams":11991,"Ġappreciated":11992,"Ġupto":11993,"Ġupman":11994,"Ġupward":11995,"Ġupwards":11996,"Ġchopper":11997,"Ġchokes":11998,"Ġpotential":11999,"lesauce":12000,"Ġcullama":12001,"Ġcomment":12002,"Ġkur":12003,"Ġkala":12004,"Ġkanch":12005,"Ġkoul":12006,"Ġkura":12007,"Ġklus":12008,"Ġkatie":12009,"Ġkorman":12010,"Ġkachumb":12011,"Ġhandling":12012,"Ġgray":12013,"Ġgrade":12014,"Ġgratins":12015,"Ġgringo":12016,"Ġovenor":12017,"Ġplacement":12018,"Ġdecent":12019,"ffÃ©e":12020,"herbed":12021,"anson":12022,"Ġgoodies":12023,"colored":12024,"colorful":12025,"istic":12026,"antic":12027,"anted":12028,"antasch":12029,"antipasto":12030,"Ġalm":12031,"Ġalph":12032,"Ġsmush":12033,"Ġchocolatey":12034,"Ġeachother":12035,"Ġataul":12036,"eyes":12037,"Ġcupfuls":12038,"Ġbold":12039,"Ġstollen":12040,"Ġpowders":12041,"Ġmosa":12042,"Ġmochan":12043,"Ġmoorish":12044,"Ġexud":12045,"Ġ1030":12046,"Ġlarges":12047,"Ġremoves":12048,"Ġslc":12049,"Ġslat":12050,"Ġslime":12051,"Ġslider":12052,"Ġslug":12053,"Ġslavos":12054,"Ġnoticed":12055,"Ġfollower":12056,"Ġmaine":12057,"Ġgremol":12058,"Ġblot":12059,"Ġbladed":12060,"Ġblades":12061,"ĠcakeÃ¢":12062,"Ġcarry":12063,"Ġcarlo":12064,"Ġcaramb":12065,"Ġcarrie":12066,"Ġcarafe":12067,"Ġeggsmix":12068,"efor":12069,"efoot":12070,"Ġcorndogs":12071,"oma":12072,"Ġseries":12073,"Ġserran":12074,"Ġdive":12075,"Ġdiagram":12076,"Ġseth":12077,"usters":12078,"Ġgrounds":12079,"Ġgrounded":12080,"Ġoutdo":12081,"Ġoutward":12082,"Ġturbon":12083,"roximately":12084,"Ġteaps":12085,"Ġopt":12086,"Ġdevel":12087,"Ġdecoction":12088,"Ġwouldn":12089,"Ġskye":12090,"Ġfreshness":12091,"Ġuseful":12092,"Ġcorning":12093,"Ġcornell":12094,"Ġcornets":12095,"Ġextensions":12096,"izes":12097,"inni":12098,"Ġ2013":12099,"Ġgod":12100,"Ġgobi":12101,"Ġgossel":12102,"Ġwilli":12103,"Ġzap":12104,"Ġzinger":12105,"Ġzuch":12106,"Ġzester":12107,"Ġzhoug":12108,"Ġzaru":12109,"Ġzucca":12110,"Ġtries":12111,"Ġtrilog":12112,"Ġhalt":12113,"poons":12114,"arer":12115,"Ġenh":12116,"Ġenamel":12117,"Ġenzy":12118,"Ġenvir":12119,"Ġensaimadas":12120,"igang":12121,"igrams":12122,"Ġpreheats":12123,"Ġpicks":12124,"Ġredesign":12125,"Ġsteve":12126,"andinav":12127,"Ġdieters":12128,"Ġgingers":12129,"Ġgingernut":12130,"Ġgingerlemon":12131,"los":12132,"Ġlowfat":12133,"Ġmarried":12134,"Ġmarron":12135,"Ġpapery":12136,"Ġaga":12137,"Ġagua":12138,"Ġscale":12139,"Ġsclice":12140,"Ġscrewd":12141,"Ġscandinav":12142,"Ġimitation":12143,"orecchiette":12144,"Ġpropor":12145,"Ġproven":12146,"Ġprohib":12147,"Ġsweeten":12148,"Ġhotel":12149,"Ġsquish":12150,"Ġsquach":12151,"Ġsquirts":12152,"Ġbacony":12153,"avorful":12154,"cca":12155,"Ġapplewood":12156,"Ġlimeju":12157,"Ġbass":12158,"Ġbasin":12159,"Ġhighball":12160,"Ġtoosday":12161,"Ġblacken":12162,"plah":12163,"ogies":12164,"Ġpersons":12165,"Ġworse":12166,"Ġmanpans":12167,"Ġbreath":12168,"perial":12169,"pernik":12170,"Ġdrag":12171,"Ġdrumm":12172,"Ġsmoosh":12173,"endd":12174,"endots":12175,"zza":12176,"zzy":12177,"zzes":12178,"Ġalmondaise":12179,"Ġparmayonnaise":12180,"Ġiv":12181,"Ġiil":12182,"Ġivy":12183,"Ġiowa":12184,"Ġchopstick":12185,"Ġspotty":12186,"Ġrefill":12187,"Ġsolidified":12188,"Ġseedless":12189,"Ġmellon":12190,"tier":12191,"Ġdryness":12192,"Ġ405":12193,"Ġcookingoctober":12194,"Ġcookingjuly":12195,"Ġbellini":12196,"armen":12197,"Ġtenderness":12198,"Ġtenderize":12199,"nered":12200,"neiman":12201,"Ġ2530":12202,"itten":12203,"ittata":12204,"Ġdose":12205,"Ġdome":12206,"Ġdoeuvre":12207,"Ġwholegrain":12208,"Ġanytime":12209,"soy":12210,"sored":12211,"Ġportioning":12212,"Ġ3507":12213,"ownchef":12214,"Ġblendtec":12215,"Ġzests":12216,"Ġzested":12217,"Ġimpress":12218,"Ġimpatient":12219,"Ġimpurities":12220,"Ġdrains":12221,"Ġdrainer":12222,"Ġgranitan":12223,"ĠgranitÃ©":12224,"blender":12225,"Ġloved":12226,"Ġtasteusually":12227,"Ġneedles":12228,"Ġcurved":12229,"Ġchevre":12230,"Ġriver":12231,"Ġriggies":12232,"Ġbeany":12233,"Ġpoor":12234,"Ġpolyun":12235,"Ġpolicy":12236,"Ġshouldn":12237,"Ġaccess":12238,"Ġstraws":12239,"Ġbaru":12240,"Ġframe":12241,"Ġfrance":12242,"Ġframed":12243,"ellan":12244,"Ġloop":12245,"Ġcrackly":12246,"Ġcrackles":12247,"Ġsyste":12248,"semi":12249,"nutty":12250,"Ġcrank":12251,"Ġcranny":12252,"Ġcrannies":12253,"Ġwalmart":12254,"Ġmarinire":12255,"Ġmarination":12256,"Ġtoastie":12257,"Ġseasoningmash":12258,"Ġcoatings":12259,"Ġcrisply":12260,"Ġflavorbut":12261,"Ġliquer":12262,"awesome":12263,"Ġworksurface":12264,"saucy":12265,"Ġ3229":12266,"ongang":12267,"Ġdelish":12268,"Ġyeah":12269,"Ġyears":12270,"Ġcleans":12271,"Ġcleavage":12272,"Ġclearer":12273,"Ġ1915":12274,"Ġcentered":12275,"Ġfactor":12276,"Ġedition":12277,"Ġcares":12278,"Ġcauli":12279,"Ġcautious":12280,"Ġbrownedapp":12281,"Ġafresh":12282,"Ġafric":12283,"Ġstray":12284,"Ġstrict":12285,"Ġmapo":12286,"Ġbreastbone":12287,"Ġ1713":12288,"goat":12289,"Ġwanting":12290,"Ġwheatberry":12291,"abba":12292,"spring":12293,"spider":12294,"spaper":12295,"Ġpressuri":12296,"Ġbackbone":12297,"Ġbackground":12298,"Ġended":12299,"Ġendives":12300,"Ġnoir":12301,"Ġnoxious":12302,"Ġdips":12303,"Ġtartlettes":12304,"Ġtartelettes":12305,"Ġafterwards":12306,"Ġafternoon":12307,"Ġbreaks":12308,"healthier":12309,"Ġcleansing":12310,"blings":12311,"Ġdonate":12312,"Ġdonna":12313,"Ġpectin":12314,"Ġfreezes":12315,"Ġsmothered":12316,"whisk":12317,"whipped":12318,"Ġclaw":12319,"Ġclasp":12320,"Ġclusters":12321,"Ġtablespoonsful":12322,"Ġmediterrean":12323,"Ġimmunity":12324,"Ġpasting":12325,"Ġpastel":12326,"Ġsmokery":12327,"isca":12328,"Ġknot":12329,"Ġkneed":12330,"Ġknuck":12331,"appa":12332,"applesauce":12333,"Ġpinon":12334,"Ġpinot":12335,"Ġpinquito":12336,"arkhani":12337,"Ġscrummy":12338,"Ġeverybody":12339,"Ġpatted":12340,"Ġpatio":12341,"Ġpatting":12342,"Ġpatient":12343,"Ġpatatim":12344,"Ġflaten":12345,"Ġleafs":12346,"Ġpeasy":12347,"Ġlinear":12348,"Ġshortly":12349,"Ġtypes":12350,"Ġtyson":12351,"Ġbagoong":12352,"Ġhomemades":12353,"Ġfinishes":12354,"Ġsurely":12355,"axed":12356,"Ġpuddles":12357,"Ġoccur":12358,"Ġtastydecember":12359,"Ġthickener":12360,"asionally":12361,"Ġblueberryies":12362,"Ġoccasional":12363,"ctic":12364,"Ġmealtimes":12365,"crabby":12366,"Ġmyzucch":12367,"Ġsurplus":12368,"Ġsanding":12369,"Ġswish":12370,"Ġswipe":12371,"Ġswanson":12372,"Ġ293":12373,"Ġfluffed":12374,"Ġfluffiness":12375,"Ġgreater":12376,"Ġcoloured":12377,"Ġnearb":12378,"Ġnegra":12379,"Ġneoguri":12380,"Ġcandiqu":12381,"Ġbabybella":12382,"Ġarm":12383,"Ġarrest":12384,"Ġarmen":12385,"Ġarctic":12386,"Ġguf":12387,"Ġguessing":12388,"Ġfrestel":12389,"Ġmeaning":12390,"Ġscoopable":12391,"Ġcapellini":12392,"Ġcaptain":12393,"aiola":12394,"Ġwholes":12395,"Ġbothered":12396,"Ġ318":12397,"Ġpearhattan":12398,"Ġxmas":12399,"Ġindia":12400,"Ġindicated":12401,"Ġindigo":12402,"Ġartfully":12403,"ettis":12404,"Ġsungl":12405,"Ġspatchcock":12406,"Ġ332":12407,"Ġinstructed":12408,"Ġriced":12409,"Ġbraz":12410,"breaded":12411,"Ġinstructionsheat":12412,"Ġinstructionsnote":12413,"chobani":12414,"Ġconsci":12415,"Ġconservatively":12416,"Ġreserves":12417,"Ġresume":12418,"Ġdivine":12419,"Ġscrapings":12420,"Ġglassy":12421,"Ġapron":12422,"Ġ381":12423,"crumbled":12424,"Ġconsistence":12425,"Ġconsistanc":12426,"octop":12427,"Ġhamantasch":12428,"Ġjamie":12429,"ĠjamÃ³n":12430,"Ġlidded":12431,"Ġ414":12432,"anga":12433,"Ġ479":12434,"Ġ601":12435,"Ġincorporating":12436,"heirloom":12437,"Ġenchiladan":12438,"Ġchecked":12439,"alao":12440,"chiquetaille":12441,"Ġpartake":12442,"Ġparticles":12443,"Ġpartnered":12444,"Ġdoug":12445,"Ġpuffing":12446,"Ġsubtle":12447,"Ġsubsequent":12448,"Ġreservoir":12449,"cedar":12450,"Ġ468":12451,"Ġeater":12452,"Ġlongest":12453,"Ġlongmeadow":12454,"Ġ444":12455,"Ġ448":12456,"Ġshelled":12457,"Ġloafs":12458,"Ġloaft":12459,"ricotta":12460,"Ġ526":12461,"Ġtherefore":12462,"Ġthereafter":12463,"Ġ542":12464,"Ġ547":12465,"Ġstraining":12466,"Ġairline":12467,"Ġexpected":12468,"Ġverts":12469,"Ġemit":12470,"Ġembarr":12471,"Ġ651":12472,"Ġ655":12473,"Ġgradual":12474,"Ġskewered":12475,"Ġribeyes":12476,"Ġbuon":12477,"Ġbuzzes":12478,"Ġseemed":12479,"Ġ573":12480,"Ġ591":12481,"Ġ597":12482,"Ġ588":12483,"Ġ589":12484,"Ġhardest":12485,"Ġtranslucency":12486,"grated":12487,"grating":12488,"Ġ512":12489,"Ġheartbreak":12490,"Ġ2000":12491,"Ġ2005":12492,"Ġbarbacoa":12493,"mascarpone":12494,"Ġcircling":12495,"Ġcirculation":12496,"Ġcircumference":12497,"Ġpolish":12498,"Ġ686":12499,"Ġ688":12500,"Ġ720":12501,"Ġ725":12502,"Ġ729":12503,"Ġfragments":12504,"Ġdependent":12505,"Ġlasanga":12506,"Ġherbalicious":12507,"Ġ759":12508,"Ġlasagne":12509,"Ġlasagnan":12510,"Ġ642":12511,"Ġ644":12512,"Ġ648":12513,"Ġ6400":12514,"Ġ6442":12515,"Ġtamil":12516,"Ġ611":12517,"Ġ613":12518,"Ġ702":12519,"Ġ707":12520,"Ġrunners":12521,"Ġchristmasannual":12522,"Ġsavor":12523,"Ġpopovers":12524,"Ġ690":12525,"Ġ697":12526,"Ġ699":12527,"Ġ660":12528,"Ġ664":12529,"Ġ794":12530,"Ġ761":12531,"Ġ7616":12532,"ension":12533,"ensation":12534,"Ġprime":12535,"Ġprongs":12536,"ĠprÃ©s":12537,"Ġ670":12538,"Ġ673":12539,"Ġ674":12540,"Ġ677":12541,"Ġfennelseeds":12542,"Ġirio":12543,"Ġladles":12544,"Ġladling":12545,"Ġacquire":12546,"Ġ711":12547,"Ġ713":12548,"Ġ719":12549,"Ġkiddos":12550,"Ġ938":12551,"Ġjojo":12552,"Ġ834":12553,"Ġ873":12554,"Ġ878":12555,"delectable":12556,"Ġ951":12557,"Ġ953":12558,"Ġ958":12559,"Ġsecured":12560,"Ġ826":12561,"Ġ8242":12562,"Ġ9022":12563,"Ġexpands":12564,"Ġghir":12565,"Ġghoul":12566,"Ġwonky":12567,"Ġ896":12568,"feast":12569,"guise":12570,"guilt":12571,"Ġrhubarby":12572,"Ġ863":12573,"Ġ865":12574,"Ġ866":12575,"Ġ884":12576,"Ġmolida":12577,"Ġpica":12578,"Ġpics":12579,"Ġpictured":12580,"Ġ811":12581,"Ġ815":12582,"Ġ817":12583,"Ġ818":12584,"ributed":12585,"Ġparmigianan":12586,"Ġ733":12587,"Ġromantic":12588,"Ġ770":12589,"Ġ946":12590,"Ġ949":12591,"Ġ9473":12592,"Ġ916":12593,"Ġ961":12594,"Ġ963":12595,"Ġ965":12596,"Ġ967":12597,"Ġmonastery":12598,"Ġmonouns":12599,"Ġ781":12600,"Ġ782":12601,"Ġ783":12602,"Ġ784":12603,"Ġ785":12604,"Ġlinded":12605,"Ġmerging":12606,"Ġ740":12607,"Ġ744":12608,"Ġ925":12609,"Ġprettier":12610,"Ġstiffly":12611,"Ġ843":12612,"Ġ848":12613,"Ġfrittatan":12614,"Ġbismati":12615,"Ġravenous":12616,"Ġprevient":12617,"Ġsplitting":12618,"Ġ989":12619,"Ġdecoratively":12620,"Ġdistance":12621,"Ġskewering":12622,"Ġ801":12623,"Ġ854":12624,"Ġoriginating":12625,"Ġgrinding":12626,"Ġprevention":12627,"Ġdistribution":12628,"ugulu":12629,"Ġtextures":12630,"uccine":12631,"mediterrean":12632,"Ġ973":12633,"alayan":12634,"Ġkerala":12635,"Ġkerrie":12636,"Ġreasons":12637,"Ġzipper":12638,"Ġsnowy":12639,"Ġsnowfl":12640,"Ġaffect":12641,"Ġaffair":12642,"Ġstrega":12643,"Ġstretching":12644,"Ġslots":12645,"chocolatey":12646,"Ġnewbury":12647,"Ġnewspaper":12648,"Ġkriss":12649,"clate":12650,"click":12651,"clams":12652,"Ġpancakies":12653,"Ġcrossways":12654,"Ġtapered":12655,"Ġheresee":12656,"Ġfritattan":12657,"ukemon":12658,"Ġskimp":12659,"Ġskimmer":12660,"Ġboun":12661,"Ġ991":12662,"Ġ9912":12663,"Ġramblings":12664,"Ġdashi":12665,"Ġsubstitution":12666,"Ġerr":12667,"Ġoklah":12668,"Ġfebruary":12669,"Ġappetito":12670,"beer":12671,"Ġaux":12672,"Ġscattering":12673,"Ġsirachi":12674,"Ġposni":12675,"Ġnestling":12676,"Ġnestled":12677,"Ġcavatelli":12678,"Ġjoining":12679,"Ġtesting":12680,"Ġ3006":12681,"Ġlovemeat":12682,"Ġscrambling":12683,"mixed":12684,"Ġsundays":12685,"fusilli":12686,"Ġbruised":12687,"Ġholidays":12688,"Ġuses":12689,"Ġusage":12690,"Ġnatkin":12691,"Ġcharacter":12692,"Ġdeviate":12693,"kenyan":12694,"Ġsilly":12695,"Ġsilhouette":12696,"Ġstackers":12697,"Ġtinsthor":12698,"Ġharicot":12699,"teada":12700,"Ġlauki":12701,"broccolini":12702,"Ġtons":12703,"eera":12704,"watercress":12705,"Ġamongst":12706,"Ġfirend":12707,"Ġfiregrate":12708,"Ġstroke":12709,"Ġbeetroots":12710,"maltz":12711,"Ġcounty":12712,"orial":12713,"Ġreplacing":12714,"Ġmovements":12715,"noch":12716,"Ġfunnel":12717,"Ġfunction":12718,"Ġfunctions":12719,"Ġsooner":12720,"Ġmethodical":12721,"Ġsixten":12722,"Ġsixteen":12723,"flavorful":12724,"Ġveins":12725,"Ġrecombine":12726,"Ġcopying":12727,"lazy":12728,"Ġblackberriesmix":12729,"Ġstriploin":12730,"Ġphillips":12731,"Ġbeds":12732,"Ġjerusale":12733,"Ġmsg":12734,"Ġreheating":12735,"Ġkeel":12736,"Ġlobsters":12737,"Ġmenthe":12738,"Ġsponsored":12739,"Ġvarious":12740,"Ġgruyre":12741,"Ġdrippy":12742,"Ġsplendidly":12743,"Ġnuoc":12744,"Ġkodi":12745,"Ġporcine":12746,"Ġ1654":12747,"Ġforeman":12748,"letter":12749,"Ġmatches":12750,"Ġmatchstick":12751,"Ġinsure":12752,"Ġclingfil":12753,"Ġclumping":12754,"Ġpowered":12755,"Ġfaces":12756,"Ġstrand":12757,"Ġmilkshakes":12758,"Ġhunger":12759,"Ġhungary":12760,"Ġ2016":12761,"Ġsplashing":12762,"Ġtzadziki":12763,"Ġtennessee":12764,"Ġmartinis":12765,"Ġhollows":12766,"Ġpiccatas":12767,"Ġshepherds":12768,"snap":12769,"Ġfasten":12770,"Ġbalanced":12771,"Ġmissi":12772,"Ġlatest":12773,"Ġlattice":12774,"Ġtempered":12775,"Ġtempura":12776,"Ġultra":12777,"strawberries":12778,"Ġeatingwell":12779,"Ġsmells":12780,"Ġdiscolored":12781,"Ġdisguise":12782,"Ġcombinations":12783,"Ġadvise":12784,"Ġadvanc":12785,"Ġpatternmake":12786,"Ġsangrian":12787,"Ġliberty":12788,"Ġbokke":12789,"mmm":12790,"Ġprizes":12791,"ances":12792,"Ġdetach":12793,"Ġstringy":12794,"Ġmojo":12795,"brined":12796,"bruschetta":12797,"Ã¡csa":12798,"Ġbennig":12799,"Ġunified":12800,"Ġ1998":12801,"Ġsweats":12802,"Ãªmes":12803,"Ġsardeg":12804,"ifornia":12805,"Ġsubscribe":12806,"caramelised":12807,"Ġaromatics":12808,"calories":12809,"california":12810,"overmix":12811,"skirt":12812,"Ġmeshed":12813,"molten":12814,"Ġcomfortable":12815,"Ġpatricks":12816,"Ġsaracha":12817,"Ġmuesli":12818,"Ġmalted":12819,"Ġmalteada":12820,"Ġspaces":12821,"Ġunwashed":12822,"Ġunwrapped":12823,"Ġunwaxed":12824,"Ġlocking":12825,"Ġinterval":12826,"Ġconvertkitpages":12827,"minted":12828,"minced":12829,"Ġbakarkhani":12830,"Ġsukiyaki":12831,"Ġ1159":12832,"Ġpuncture":12833,"Ġmassala":12834,"Ġhangs":12835,"Ġsteeping":12836,"Ġweighted":12837,"Ġtreatzza":12838,"Ġcaponatan":12839,"Ġbuying":12840,"Ġedie":12841,"Ġaji":12842,"Ġajwain":12843,"Ġthreading":12844,"Ġgoop":12845,"Ġluke":12846,"Ġstainer":12847,"stuffing":12848,"Ġvarying":12849,"Ġangie":12850,"Ġslushee":12851,"Ġtrickle":12852,"Ġ1102":12853,"Ġbunchs":12854,"Ġbunches":12855,"olives":12856,"Ġavacado":12857,"Ġdispose":12858,"Ġgiftcard":12859,"Ġkickin":12860,"Ġmangalore":12861,"Ġbarker":12862,"wholemeal":12863,"mangoes":12864,"mangolicious":12865,"Ġbrighten":12866,"Ġsilken":12867,"Ġmillennium":12868,"Ġmilligrams":12869,"Ġkeeper":12870,"Ġ1335":12871,"Ġreplacement":12872,"trans":12873,"Ġmooncakes":12874,"Ġremind":12875,"Ġchefs":12876,"steaks":12877,"Ġ1260":12878,"Ġ1263":12879,"Ġ1117":12880,"delta":12881,"Ġqts":12882,"Ġpoulos":12883,"Ġbigelow":12884,"Ġmorisca":12885,"Ġlimon":12886,"Ġnaptime":12887,"Ġcompressing":12888,"Ġ1411":12889,"Ġ1416":12890,"Ġconfiture":12891,"Ġmadhur":12892,"Ġvinegared":12893,"Ġalcoholic":12894,"Ġ1699":12895,"Ġ16911":12896,"Ġ1928":12897,"Ġ3689":12898,"Ġglossies":12899,"Ġundistributed":12900,"pozole":12901,"smokey":12902,"Ġschug":12903,"Ġschmaltz":12904,"Ġfrescas":12905,"Ġdragging":12906,"Ġstingy":12907,"Ġ1029":12908,"Ġ1068":12909,"Ġ1148":12910,"Ġpairs":12911,"Ġdetoxinista":12912,"joles":12913,"Ã»t":12914,"Ġtuesday":12915,"Ġciorba":12916,"Ġchangs":12917,"Ġunrolling":12918,"Ġcookbookannual":12919,"Ġvidalia":12920,"Ġkaap":12921,"Ġ1562":12922,"Ġencased":12923,"Ġencasing":12924,"Ġ3518":12925,"Ġ2582":12926,"Ġfloatsabout":12927,"Ġachiever":12928,"Ġsuggests":12929,"Ġtangerines":12930,"Ġgroups":12931,"Ġaccompaniments":12932,"Ġunmolding":12933,"brunch":12934,"philly":12935,"swordfish":12936,"Ġcabot":12937,"Ġfuzzy":12938,"Ġfarms":12939,"Ġfarmgirl":12940,"Ġheartily":12941,"Ġscrubbed":12942,"Ġbraids":12943,"Ġportabello":12944,"Ġfavourites":12945,"frittata":12946,"jarati":12947,"Ġoozing":12948,"Ġpavisini":12949,"Ġrelax":12950,"Ġhumble":12951,"Ġrasher":12952,"Ġperogie":12953,"Ġshowing":12954,"Ġannualannual":12955,"Ġ1040":12956,"Ġactivate":12957,"bacalhau":12958,"patriotic":12959,"Ġtrapped":12960,"Ġboost":12961,"Ġyumyum":12962,"Ġchoux":12963,"stemail":12964,"Ġjewel":12965,"Ġ1096":12966,"Ġ1834":12967,"Ġ1860":12968,"Ġ1866":12969,"Ġdefrosted":12970,"Ġbuilding":12971,"Ġcollapsed":12972,"Ġphotographs":12973,"Ġwindows":12974,"iolas":12975,"spanakopita":12976,"Ġsounds":12977,"Ġbacalao":12978,"Ġbreeze":12979,"Ġbreezes":12980,"Ġlicking":12981,"Ġmindful":12982,"Ġbending":12983,"Ġassure":12984,"Ġrolos":12985,"Ġ1343":12986,"Ġ4246":12987,"Ġsubstantially":12988,"pepperoni":12989,"Ġvisiting":12990,"deliciously":12991,"Ġghostly":12992,"market":12993,"naturally":12994,"rumday":12995,"twice":12996,"twitterpintere":12997,"Ġpimento":12998,"Ġfantans":12999,"Ġmisto":13000,"Ġmistakes":13001,"Ġrellenos":13002,"Ġlaws":13003,"Ġyucca":13004,"Ġuntreated":13005,"Ġoverfill":13006,"Ġblanche":13007,"Ġsoupspoons":13008,"Ġproducts":13009,"Ġproceeding":13010,"Ġproceeded":13011,"Ġsurrounding":13012,"Ġargentino":13013,"Ġargiolas":13014,"Ġ3119":13015,"Ġelbows":13016,"Ġchallenging":13017,"cutting":13018,"deconstructed":13019,"decadent":13020,"Ġsoothing":13021,"Ġsoozi":13022,"Ġpenetrate":13023,"Ġfrijoles":13024,"Ġbinding":13025,"Ġmulled":13026,"Ġhomedec":13027,"Ġnationalrumday":13028,"Ġhavent":13029,"Ġhappens":13030,"Ġoverworking":13031,"Ġcantaloup":13032,"Ġblistering":13033,"Ġdoughyoull":13034,"Ġ1545":13035,"Ġzippered":13036,"Ġ1669":13037,"Ġ1978":13038,"Ġveining":13039,"Ġtorched":13040,"Ġwidthwise":13041,"Ġeffective":13042,"Ġeffectively":13043,"airs":13044,"rhubarby":13045,"Ġaustin":13046,"Ġcusp":13047,"Ġfainted":13048,"Ġfeeding":13049,"Ġbandages":13050,"Ġbandage":13051,"Ġdrawer":13052,"Ġchannel":13053,"Ġspeculas":13054,"Ġsupply":13055,"abagan":13056,"Ġcrisco":13057,"Ġgochujang":13058,"Ġ5744":13059,"Ġ5803":13060,"Ġpleaser":13061,"Ġcelebrations":13062,"Ġsterilise":13063,"Ġsterilized":13064,"2013":13065,"glass":13066,"kkkk":13067,"kickin":13068,"simit":13069,"scoop":13070,"scoops":13071,"skye":13072,"tzadziki":13073,"Ġsucculent":13074,"Ġmatters":13075,"Ġdomed":13076,"Ġgrows":13077,"Ġlabeled":13078,"Ġcoaches":13079,"Ġcocao":13080,"Ġurb":13081,"Ġwhirrr":13082,"Ġwelcomes":13083,"Ġsimplified":13084,"Ġsimplifies":13085,"Ġdescribed":13086,"Ġsequence":13087,"Ġbobby":13088,"Ġexcuse":13089,"Ġgrenadine":13090,"Ġtranferring":13091,"Ġaguas":13092,"Ġpromotion":13093,"Ġcheerios":13094,"Ġsupermarket":13095,"Ġpasticcio":13096,"Ġneighborhood":13097,"Ġweekdaysupper":13098,"Ġsilverware":13099,"Ġtagliatelle":13100,"Ġpimientos":13101,"barbecue":13102,"polenta":13103,"pierogi":13104,"pierogies":13105,"satay":13106,"saturated":13107,"tortellini":13108,"Ġtsukemon":13109,"Ġfibre":13110,"Ġfibrous":13111,"Ġmingled":13112,"Ġmicellar":13113,"Ġreviews":13114,"Ġhelen":13115,"Ġhelper":13116,"Ġcostamol":13117,"Ġinvestment":13118,"Ġchae":13119,"Ġchaat":13120,"Ġchiquetaille":13121,"Ġcheezy":13122,"Ġforgotten":13123,"Ġemerges":13124,"Ġunclear":13125,"Ġoverbrowning":13126,"Ġfolk":13127,"Ġfolks":13128,"Ġgravad":13129,"Ġgravied":13130,"Ġparcels":13131,"Ġrollups":13132,"Ġtransforming":13133,"Ġcookingmay":13134,"Ġcookingmarch":13135,"Ġpinterest":13136,"Ġpinterestand":13137,"Ġ4275":13138,"Ġlettuces":13139,"Ġlettucetoss":13140,"Ġswelling":13141,"Ġneutralize":13142,"Ġvermentino":13143,"Ġvermentinos":13144,"Ġ8596":13145,"flourless":13146,"Ġencourage":13147,"Ġencouraged":13148,"trinidad":13149,"trinidadian":13150,"ĠtÃºrÃ³s":13151,"Ġkraftrecipes":13152,"bournvita":13153,"frosted":13154,"humble":13155,"kitchenaid":13156,"powerhouse":13157,"silicone":13158,"sourdough":13159,"scrambled":13160,"Ġestate":13161,"Ġaisu":13162,"Ġsinigang":13163,"Ġthrown":13164,"Ġbusy":13165,"Ġbistec":13166,"Ġmoules":13167,"Ġmimicking":13168,"Ġmaman":13169,"Ġmmmmmm":13170,"Ġwrong":13171,"enchiladas":13172,"Ġretention":13173,"Ġdimension":13174,"Ġhimalayan":13175,"Ġhooplah":13176,"Ġcocotte":13177,"Ġinvoltini":13178,"Ġintegrated":13179,"Ġchesee":13180,"Ġchinois":13181,"Ġrule":13182,"Ġrutabagan":13183,"Ġnasi":13184,"Ġnetwork":13185,"Ġnananut":13186,"Ġwhisps":13187,"Ġsupreme":13188,"Ġsunset":13189,"ĠsuprÃªmes":13190,"Ġpremium":13191,"Ġpresoak":13192,"Ġsaltimbocca":13193,"Ġjuniper":13194,"Ġcantonese":13195,"Ġupgrade":13196,"Ġkadala":13197,"Ġboscaiola":13198,"Ġmodelo":13199,"Ġexperience":13200,"ĠcarrÃ©s":13201,"estlye":13202,"Ġscenario":13203,"Ġhottendots":13204,"Ġearliest":13205,"Ġpovitica":13206,"Ġloosening":13207,"Ġvirtual":13208,"Ġsemicircle":13209,"Ġjulianne":13210,"Ġvelveeta":13211,"Ġsignificantly":13212,"Ġdisintegrating":13213,"Ġinspiration":13214,"Ġlunchboxes":13215,"scallion":13216,"Ġintensify":13217,"Ġkababs":13218,"Ġcentimeters":13219,"Ġunflavoured":13220,"Ġabsolutely":13221,"Ġrefridgerate":13222,"boozy":13223,"bigoli":13224,"bloggers":13225,"buckwheat":13226,"crawfish":13227,"detox":13228,"damn":13229,"dandelion":13230,"funghetti":13231,"fizzy":13232,"fettuccine":13233,"gulasch":13234,"giveaway":13235,"hungarian":13236,"jamaican":13237,"kids":13238,"muffins":13239,"mandarin":13240,"njici":13241,"pizza":13242,"pappardelle":13243,"prints":13244,"sliced":13245,"touffÃ©e":13246,"taco":13247,"taboola":13248,"tricolor":13249,"¬Â¦":13250,"âĤ¬Â¦":13251,"ĠÃ©touffÃ©e":13252,"Ġasembling":13253,"Ġtutorial":13254,"Ġtantalizing":13255,"Ġtaziki":13256,"Ġtaffyuntil":13257,"Ġtjampoer":13258,"inirecipes":13259,"Ġsichuan":13260,"Ġsuckers":13261,"Ġcitric":13262,"Ġcipollini":13263,"Ġcuteness":13264,"Ġceases":13265,"Ġcultured":13266,"Ġcawalnuts":13267,"Ġthinnest":13268,"Ġobsess":13269,"Ġpooled":13270,"Ġpirouette":13271,"Ġpablano":13272,"Ġpistou":13273,"ĠpogÃ¡csa":13274,"Ġpractically":13275,"Ġprankster":13276,"Ġpenzey":13277,"Ġborwned":13278,"Ġbuckey":13279,"Ġbianca":13280,"Ġbicep":13281,"Ġbavarian":13282,"Ġbhatura":13283,"Ġbiltmore":13284,"Ġbaiser":13285,"Ġborracho":13286,"Ġmasters":13287,"Ġmariano":13288,"Ġmantain":13289,"oustines":13290,"aromatic":13291,"aragosta":13292,"ĠwÃ¡ter":13293,"Ġreverse":13294,"Ġreindeer":13295,"Ġtokaji":13296,"Ġtotopos":13297,"Ġtolerance":13298,"Ġdensity":13299,"Ġdetermine":13300,"Ġdaddio":13301,"Ġditalini":13302,"Ġggholiday":13303,"Ġgains":13304,"Ġgherkin":13305,"Ġgueuze":13306,"Ġgelled":13307,"Ġgatorade":13308,"ipuram":13309,"Ġlangoustines":13310,"Ġlankan":13311,"Ġlugaw":13312,"Ġhttps":13313,"Ġharris":13314,"Ġreconstitute":13315,"Ġinverting":13316,"Ġinsalata":13317,"Ġrecipezaar":13318,"Ġyoplait":13319,"Ġchervil":13320,"ĠchuletÃ³n":13321,"Ġchirashi":13322,"Ġchafing":13323,"Ġchambord":13324,"Ġchronicles":13325,"Ġforagers":13326,"leftover":13327,"Ġukrainian":13328,"Ġmintotal":13329,"Ġeclairs":13330,"Ġefficient":13331,"thumbnails":13332,"idikaya":13333,"americana":13334,"Ġspianch":13335,"Ġspillage":13336,"Ġspinkles":13337,"Ġspongy":13338,"Ġistimewa":13339,"Ġpechay":13340,"Ġstencil":13341,"Ġstonyfield":13342,"Ġdaiya":13343,"Ġraznjici":13344,"Ġrangoon":13345,"ĠrÃ©moulade":13346,"ĠragoÃ»t":13347,"Ġrsquo":13348,"Ġunthawed":13349,"Ġnantaise":13350,"Ġnanaimo":13351,"Ġsuspendd":13352,"Ġsuvarna":13353,"Ġconventional":13354,"Ġhausa":13355,"Ġpermission":13356,"Ġjalepeno":13357,"Ġjiggles":13358,"Ġjitterbug":13359,"Ġvongole":13360,"Ġshinier":13361,"Ġsheila":13362,"Ġbroccoflower":13363,"Ġassociated":13364,"Ġaborrajados":13365,"Ġseperate":13366,"Ġoverturned":13367,"Ġcalendar":13368,"mozzarella":13369,"Ġcanningsteps":13370,"Ġkanchipuram":13371,"Ġkluski":13372,"Ġkachumbari":13373,"Ġalphabets":13374,"Ġataulfo":13375,"Ġmosaic":13376,"Ġexude":13377,"Ġslavosalt":13378,"Ġgremolata":13379,"Ġcarambola":13380,"Ġserranos":13381,"Ġoutdoor":13382,"Ġturbonado":13383,"Ġteapsoon":13384,"Ġdevelops":13385,"Ġgosselin":13386,"Ġzuchinni":13387,"Ġtrilogy":13388,"Ġenzymes":13389,"Ġenvironment":13390,"Ġgingerlemongirl":13391,"Ġmarrons":13392,"Ġscrewdriver":13393,"Ġscandinavian":13394,"ĠprovenÃ§":13395,"Ġprohibited":13396,"Ġlimejuice":13397,"Ġdrummettes":13398,"Ġpolyunsaturated":13399,"Ġsystem":13400,"Ġbrownedapproximately":13401,"Ġafrica":13402,"Ġstrictly":13403,"Ġ17134":13404,"Ġknuckles":13405,"Ġmyzucchinirecipes":13406,"Ġnearby":13407,"Ġcandiquik":13408,"Ġarmenian":13409,"Ġfrestelse":13410,"Ġsunglasses":13411,"Ġconscience":13412,"Ġconsistancy":13413,"octopus":13414,"Ġhamantaschen":13415,"Ġembarrassing":13416,"Ġherbaliciousness":13417,"Ġ64426":13418,"ĠprÃ©sident":13419,"Ġmonounsaturated":13420,"Ġsnowflake":13421,"Ġoklahoma":13422,"Ġcharacteristic":13423,"Ġtinsthoroughly":13424,"Ġjerusalem":13425,"Ġclingfilm":13426,"Ġadvancefor":13427,"Ġbennigan":13428,"Ġsardegna":13429,"twitterpinterestemail":13430,"Ġhomedecember":13431,"Ġwhirrrr":13432,"Ġtsukemono":13433,"Ġcostamolino":13434,"08":13435,"18":13436,"23":13437,"24":13438,"25":13439,"200":13440,"31":13441,"32":13442,"36":13443,"39":13444,"41":13445,"44":13446,"45":13447,"46":13448,"48":13449,"52":13450,"57":13451,"60":13452,"62":13453,"63":13454,"65":13455,"74":13456,"81":13457,"87":13458,"89":13459,"92":13460,"93":13461,"ae":13462,"aj":13463,"aies":13464,"aire":13465,"aich":13466,"aign":13467,"aÃ±":13468,"aarbonate":13469,"ault":13470,"aisin":13471,"ajo":13472,"aigo":13473,"bou":13474,"bar":13475,"bal":13476,"bak":13477,"bay":13478,"bel":13479,"bur":13480,"bef":13481,"bare":13482,"bud":13483,"bble":13484,"batch":13485,"bbled":13486,"biche":13487,"banese":13488,"broad":13489,"bbab":13490,"benedict":13491,"bibim":13492,"bby":13493,"birthday":13494,"bamboo":13495,"borscht":13496,"boud":13497,"bitter":13498,"bols":13499,"bulg":13500,"cer":13501,"cis":13502,"cro":13503,"cum":13504,"cav":13505,"cime":13506,"care":13507,"clo":13508,"canan":13509,"cub":13510,"cado":13511,"cled":13512,"cipe":13513,"city":13514,"cros":13515,"cys":13516,"cloth":13517,"carmen":13518,"da":13519,"dg":13520,"dak":13521,"dry":13522,"dill":13523,"dge":13524,"dri":13525,"due":13526,"dressed":13527,"dho":13528,"dep":13529,"dless":13530,"diet":13531,"dori":13532,"dified":13533,"drelli":13534,"eu":13535,"ev":13536,"ear":13537,"eit":13538,"eim":13539,"ely":13540,"eot":13541,"east":13542,"eople":13543,"eper":13544,"eiving":13545,"evan":13546,"eji":13547,"emp":13548,"fc":13549,"fit":13550,"fut":13551,"fth":13552,"fam":13553,"fill":13554,"few":13555,"fest":13556,"fand":13557,"favor":13558,"fud":13559,"fered":13560,"fork":13561,"fret":13562,"fau":13563,"fidget":13564,"falan":13565,"gf":13566,"gic":13567,"gro":13568,"gor":13569,"gly":13570,"gour":13571,"gate":13572,"gther":13573,"gall":13574,"gue":13575,"gently":13576,"gai":13577,"gift":13578,"gium":13579,"grette":13580,"ginner":13581,"gress":13582,"gumbo":13583,"gically":13584,"gentine":13585,"gira":13586,"gambas":13587,"gprotein":13588,"gdiet":13589,"hal":13590,"hor":13591,"has":13592,"hoon":13593,"heet":13594,"hnic":13595,"hom":13596,"hole":13597,"hee":13598,"hog":13599,"hully":13600,"happ":13601,"hips":13602,"huli":13603,"hidden":13604,"hassi":13605,"ij":13606,"iice":13607,"iull":13608,"ienta":13609,"iugh":13610,"jj":13611,"jer":13612,"jans":13613,"jole":13614,"jection":13615,"jana":13616,"jÃº":13617,"juki":13618,"japalac":13619,"jeera":13620,"jeot":13621,"jgira":13622,"kl":13623,"kar":13624,"kim":13625,"kate":13626,"kum":13627,"kli":13628,"kist":13629,"kom":13630,"kets":13631,"kara":13632,"koul":13633,"kno":13634,"kla":13635,"kung":13636,"kabo":13637,"kuma":13638,"kaline":13639,"katie":13640,"kdg":13641,"ls":13642,"lar":13643,"lim":13644,"lake":13645,"little":13646,"lett":13647,"louis":13648,"lavash":13649,"lfeast":13650,"mam":13651,"mill":13652,"mies":13653,"mse":13654,"may":13655,"mish":13656,"mag":13657,"must":13658,"maf":13659,"mgs":13660,"mik":13661,"malay":13662,"mbe":13663,"mishes":13664,"murgh":13665,"motion":13666,"mugh":13667,"miring":13668,"nar":13669,"nal":13670,"nth":13671,"nese":13672,"nish":13673,"nins":13674,"ners":13675,"nana":13676,"nachos":13677,"nces":13678,"noodles":13679,"nected":13680,"nmi":13681,"nownchef":13682,"oil":13683,"oto":13684,"ost":13685,"och":13686,"ocolate":13687,"oest":13688,"oves":13689,"occ":13690,"oors":13691,"opping":13692,"oats":13693,"othe":13694,"onds":13695,"oetida":13696,"ollen":13697,"oakley":13698,"pu":13699,"pal":13700,"pad":13701,"pid":13702,"poo":13703,"peat":13704,"pain":13705,"pri":13706,"pres":13707,"pap":13708,"panned":13709,"pite":13710,"pun":13711,"pers":13712,"pass":13713,"pub":13714,"pull":13715,"pho":13716,"pared":13717,"pitch":13718,"pett":13719,"prawn":13720,"please":13721,"phyllo":13722,"press":13723,"pomegranate":13724,"psy":13725,"pacc":13726,"poppy":13727,"pson":13728,"pandan":13729,"pudd":13730,"punj":13731,"qul":13732,"rs":13733,"rre":13734,"ris":13735,"ray":13736,"rust":13737,"rated":13738,"rich":13739,"rss":13740,"rise":13741,"rase":13742,"rano":13743,"ritional":13744,"rift":13745,"rita":13746,"radicchio":13747,"rainbow":13748,"rabbit":13749,"ritol":13750,"sre":13751,"sip":13752,"serv":13753,"sto":13754,"sch":13755,"season":13756,"sri":13757,"silk":13758,"sus":13759,"sous":13760,"salad":13761,"sce":13762,"sand":13763,"spl":13764,"sub":13765,"skin":13766,"sna":13767,"sang":13768,"srir":13769,"sÃ©":13770,"sier":13771,"schicken":13772,"sug":13773,"sbeer":13774,"sletter":13775,"sgift":13776,"tre":13777,"tis":13778,"tut":13779,"tried":13780,"tru":13781,"tact":13782,"tined":13783,"toun":13784,"tiness":13785,"tically":13786,"tux":13787,"tasty":13788,"trois":13789,"uw":13790,"uz":13791,"und":13792,"ues":13793,"uent":13794,"uif":13795,"uie":13796,"uka":13797,"uites":13798,"uethe":13799,"uefoot":13800,"ujeot":13801,"vat":13802,"vents":13803,"vices":13804,"vace":13805,"vation":13806,"vare":13807,"vig":13808,"vise":13809,"viso":13810,"viy":13811,"vana":13812,"vichyssoise":13813,"vivor":13814,"wl":13815,"wo":13816,"wy":13817,"wil":13818,"was":13819,"wrap":13820,"wired":13821,"western":13822,"wool":13823,"wild":13824,"wifruit":13825,"weg":13826,"witterpintere":13827,"xer":13828,"xie":13829,"xtail":13830,"xedo":13831,"xocolate":13832,"yn":13833,"yu":13834,"yish":13835,"yos":13836,"yib":13837,"ylish":13838,"yno":13839,"yoghurt":13840,"yuri":13841,"yony":13842,"yorkshire":13843,"ychee":13844,"yokshire":13845,"ycled":13846,"zation":13847,"zag":13848,"zol":13849,"zun":13850,"zers":13851,"zlenuts":13852,"zabaglione":13853,"zhoug":13854,"{}":13855,"¯oli":13856,"¶rek":13857,"¸lle":13858,"Ã¯oli":13859,"Ã¶rek":13860,"Ġing":13861,"Ġill":13862,"Ġian":13863,"Ġery":13864,"Ġign":13865,"ĠÂ°":13866,"Ġaal":13867,"Ġast":13868,"Ġagg":13869,"Ġaide":13870,"Ġage":13871,"Ġame":13872,"Ġaig":13873,"Ġaub":13874,"Ġahe":13875,"Ġajust":13876,"Ġahum":13877,"Ġakara":13878,"Ġayib":13879,"ĠaÃ¯oli":13880,"Ġtal":13881,"Ġtet":13882,"Ġtad":13883,"Ġtrou":13884,"Ġtres":13885,"Ġteet":13886,"Ġtigh":13887,"Ġtass":13888,"Ġtub":13889,"Ġterry":13890,"Ġtong":13891,"Ġtedd":13892,"Ġtbl":13893,"Ġtired":13894,"Ġtater":13895,"Ġtsu":13896,"Ġtress":13897,"Ġtacky":13898,"inan":13899,"ination":13900,"inist":13901,"inie":13902,"inous":13903,"inci":13904,"inara":13905,"inating":13906,"inity":13907,"invol":13908,"infor":13909,"inpira":13910,"incys":13911,"infand":13912,"ren":13913,"real":13914,"reate":13915,"reess":13916,"reheat":13917,"reams":13918,"rement":13919,"repic":13920,"refere":13921,"reng":13922,"review":13923,"relle":13924,"return":13925,"rechaun":13926,"reprints":13927,"recipe":13928,"repeat":13929,"Ġsic":13930,"Ġsry":13931,"Ġsle":13932,"Ġsri":13933,"Ġsack":13934,"Ġsash":13935,"Ġsig":13936,"Ġsass":13937,"Ġsites":13938,"Ġsama":13939,"Ġsense":13940,"Ġsady":13941,"Ġsonom":13942,"Ġsample":13943,"Ġsadilla":13944,"Ġsensation":13945,"erra":13946,"erous":13947,"erful":13948,"eros":13949,"erthe":13950,"ertaining":13951,"ercise":13952,"ergic":13953,"Ġcree":13954,"Ġcrot":13955,"Ġcime":13956,"Ġcaked":13957,"Ġcere":13958,"Ġcumber":13959,"Ġcached":13960,"Ġcats":13961,"Ġcity":13962,"Ġcsus":13963,"Ġcincys":13964,"Ġthk":13965,"Ġthes":13966,"Ġthus":13967,"Ġthins":13968,"Ġthrew":13969,"Ġthrust":13970,"Ġoi":13971,"Ġole":13972,"Ġozz":13973,"Ġoso":13974,"Ġoops":13975,"Ġode":13976,"Ġola":13977,"Ġoakley":13978,"Ġomgs":13979,"Ġowl":13980,"nda":13981,"ndairy":13982,"ndary":13983,"esser":13984,"eshy":13985,"escar":13986,"esirable":13987,"escarole":13988,"Ġpd":13989,"Ġpt":13990,"Ġpis":13991,"Ġpon":13992,"Ġpac":13993,"Ġpion":13994,"Ġpach":13995,"Ġpoup":13996,"Ġpitt":13997,"Ġpise":13998,"Ġpened":13999,"Ġpign":14000,"Ġpeter":14001,"Ġfed":14002,"Ġfeet":14003,"Ġfinn":14004,"Ġfail":14005,"Ġfait":14006,"Ġfied":14007,"Ġfpr":14008,"Ġfuy":14009,"Ġfouth":14010,"Ġfuls":14011,"Ġfumes":14012,"Ġandy":14013,"Ġandslow":14014,"Ġandcrisp":14015,"Ġanddi":14016,"Ġandrew":14017,"Ġandpepper":14018,"Ġbill":14019,"Ġbiry":14020,"Ġbles":14021,"Ġbals":14022,"Ġbart":14023,"Ġbesan":14024,"Ġbacks":14025,"Ġbount":14026,"Ġbier":14027,"Ġbible":14028,"Ġbao":14029,"Ġbha":14030,"Ġboom":14031,"Ġbucks":14032,"Ġbabba":14033,"ĠbÃ¶rek":14034,"Ġmx":14035,"Ġmide":14036,"Ġmav":14037,"Ġmans":14038,"Ġmck":14039,"Ġmcc":14040,"Ġmise":14041,"Ġmcco":14042,"Ġmature":14043,"Ġmaki":14044,"Ġmisin":14045,"Ġmchar":14046,"ĠmÃ¢":14047,"Ġmrs":14048,"ouch":14049,"ounder":14050,"oucroute":14051,"Ġtheout":14052,"Ġthecr":14053,"Ġthecent":14054,"Ġtheblue":14055,"Ġthebutter":14056,"ingon":14057,"ingform":14058,"aron":14059,
[...]
