#version: 0.2 - Trained by `huggingface/tokenizers`
Ġ a
Ġ t
i n
r e
Ġ s
e r
Ġ c
Ġt h
Ġ o
n d
e s
Ġ p
Ġ f
Ġa nd
Ġ b
Ġ m
o u
Ġth e
in g
a r
i s
a t
o n
Ġ Ġ
Ġ w
i l
i t
a n
e n
Ġ re
Ġt o
u t
Ġ d
a l
i c
e d
r o
Ġo f
o r
Ġ g
i p
a k
Ġ l
Ġ h
a s
Ġre c
Ġrec ip
Ġth is
a c
v e
Ġc o
e t
Ġ in
Ġrecip e
Ġ y
Ġc h
Ġy ou
it h
Ġ 1
Ġw ith
l l
r y
Ġf or
l e
re e
Ġo n
Ġ u
Ġm in
o w
a d
Ġ e
er v
t h
i m
Ġ it
u c
v er
i d
t o
a m
en t
Ġ S
Ġs p
l y
c o
Ġb e
g h
o o
i on
p p
Ġ is
ak e
Ġmin ut
re d
Ġp e
uc e
Ġs erv
o t
Ġminut es
Ġ 2
Ġs t
ing s
ou r
Ġm i
oo d
e at
at e
ve g
Ġd a
Ġs al
Ġco o
Ġ 4
Ġ r
d d
s t
ent s
il l
ic k
Ġa dd
as t
Ġg l
Ġ 3
i ry
Ġu n
Ġs a
u l
a in
t er
Ġ veg
i es
ut en
Ġf ree
Ġmi x
u m
g ar
i an
Ġgl uten
ic e
t il
Ġun til
Ġ n
Ġs o
Ġp l
Ġcoo k
c h
th er
Ġw h
ak es
Ġserv ing
g g
Ġa ll
Ġf ro
Ġs co
Ġs u
e as
f ree
ak ing
Ġb ut
Ġc on
in e
ar ian
Ġh a
Ġ P
Ġp re
Ġsco re
Ġsal t
q u
Ġf l
id e
i f
e c
Ġp er
s e
Ġda iry
Ġ j
o on
pp er
Ġfro m
Ġ v
Ġyou r
eas on
Ġo r
i r
es e
Ġl e
Ġpe pper
l d
et arian
r ou
g e
Ġw e
Ġm ake
d uce
gh t
r i
Ġo il
Ġbut ter
ic es
u re
ro t
re s
Ġ B
Ġs h
a y
Ġo v
Ġ if
ro duce
e ese
ĠP roduce
ĠĠ Ġ
Ġsu gar
Ġsa uce
e l
Ġs im
Ġj u
u r
Ġa re
ick en
Ġh eat
Ġsp oon
a p
is h
at o
eason ings
Ġl i
Ġb ro
Ġf at
Ġa s
p ices
ĠS easonings
ĠS pices
Ġe gg
Ġin to
ul ar
ou t
Ġa b
a b
Ġd es
il k
Ġc re
Ġs e
Ġveg etarian
Ġch icken
ac h
Ġt akes
Ġo ver
Ġ 5
e w
o p
Ġc r
Ġab out
l ic
Ġc al
e in
ac ular
Ġ D
Ġp rot
Ġg ar
Ġprot ein
l i
Ġrecip es
t ure
Ġcal or
Ġo ther
Ġcalor ies
Ġ E
Ġco ver
al l
Ġb ow
Ġcre am
red i
Ġp an
ing redi
Ġ ingredi
Ġspoon acular
Ġmix ture
Ġ C
m o
Ġbow l
Ġw at
Ġingredi ents
ac k
Ġ O
Ġc an
u s
Ġch eese
Ġth ings
p ar
Ġon ion
Ġf o
Ġ ro
ou gh
Ġst ir
ou ld
a v
m on
rou nd
i re
il ar
Ġsim ilar
Ġl ac
Ġlac to
Ġf ew
Ġgar lic
Ġ M
in s
w n
Ġa n
Ġfl our
Ġwat er
Ġ F
Ġpl ate
m e
Ġa pp
Ġon e
Ġu p
Ġch o
Ġ4 5
Ġp ot
ac e
s ing
l es
Ġt ry
Ġbro wn
Ġha ve
Ġ 6
Ġc u
t ion
Ġco m
Ġ k
Ġha nd
Ġg r
at ion
Ġre qu
Ġcon t
re ad
Ġov en
s ide
al s
Ġpre par
Ġb aking
b er
ĠB aking
Ġf ood
Ġprepar ation
Ġli k
Ġb y
Ġle mon
Ġo li
ed i
Ġpl ace
a g
Ġto m
Ġd ec
e et
Ġp ar
f f
il y
Ġtom ato
ow d
h er
Ġd ish
an s
Ġ 8
erv es
id ed
ood s
m ents
ĠF oods
Ġg ood
Ġdec ided
Ġoli ve
Ġcon side
Ġconside red
Ġdes erves
Ġp owd
Ġv it
Ġcover s
Ġvit am
ad e
Ġmin er
Ġrequ ire
Ġda ily
Ġvitam ins
Ġminer als
Ġrequire ments
co l
ast a
s er
Ġcont ain
is t
ine gar
col ate
an t
Ġa l
Ġs m
Ġm edi
i e
Ġcho colate
Ġe ach
Ġmedi um
Ġa t
e y
Ġcu p
Ġju st
Ġb o
Ġs to
ll ow
Ġpowd er
Ġm o
Ġserv es
op le
Ġpe ople
Ġcontain s
Ġe x
Ġ1 0
ri ed
Ġl ar
Ġre mo
n ed
Ġthe n
Ġto p
res sing
Ġh e
v o
Ġlar ge
Ġ 7
Ġh as
r ing
gg s
im e
a iry
ĠD airy
ĠE ggs
ĠO ther
ĠM ilk
Ġju ice
Ġremo ve
Ġs l
Ġn ot
ate ly
Ġfo llow
Ġov o
Ġwe ll
Ġm ain
Ġg re
Ġb l
Ġc ake
r im
Ġc our
Ġcom b
Ġcour se
Ġ J
Ġp or
o l
us h
Ġc ar
r a
Ġm ilk
Ġmi ght
Ġegg s
Ġ 9
Ġcoo l
e f
Ġc or
ou p
n ic
th nic
ĠE thnic
u ff
Ġm ade
ou s
o m
ill a
Ġpot ato
Ġb ake
f ul
m er
nd er
Ġs er
Ġd i
ch ing
Ġa round
Ġ R
e ver
Ġs et
ver y
Ġveg an
Ġv an
ough ly
Ġser ve
Ġsal ad
Ġsp r
b s
Ġl et
u st
Ġg round
Ġr ice
al ad
V inegar
Ġ Vinegar
es s
ĠS alad
ĠD ressing
ĠO il
Ġo ut
Ġt ur
Ġ3 0
Ġlik ed
in k
ro x
Ġt e
Ġapp rox
Ġo p
Ġvan illa
Ġd e
g et
g er
Ġw ould
Ġh our
r u
Ġs ide
Ġapprox im
Ġs k
Ġapproxim ately
Ġb read
res h
ser t
ar red
as h
Ġf resh
w eet
Ġr oughly
Ġs oup
an ned
ĠC anned
ĠJ arred
Ġu se
get her
Ġto gether
at ed
c e
Ġp our
ist a
Ġfood ista
Ġc ut
al ly
e al
ĠP asta
Ġbo il
ĠR ice
es t
ut s
ab les
ing er
Ġcomb ine
it e
Ġd ough
Ġcor n
Ġop tion
Ġ1 5
ac t
ag es
Ġc ents
on ey
veg etarian
Ġveg et
o vo
h eat
Ġex t
c on
i z
Ġ very
o le
Ġtomato es
k s
Ġch il
in n
Ġ2 0
Ġsm all
Ġse ar
Ġg o
Ġw ill
ber ry
Ġ z
ĠB ever
ĠBever ages
u e
u n
ar d
Ġt r
Ġh al
Ġdes sert
p oon
Ġm ush
a re
ab le
ar t
ro om
Ġ en
ic h
Ġc ould
i g
Ġsto re
e e
ĠM eat
Ġsear ching
Ġpre heat
ast e
Ġmush room
s s
Ġp ick
Ġre d
Ġst e
' re
Ġs eason
Ġle av
Ġhand ful
c k
Ġgre en
a ge
Ġonion s
a nd
con ut
ill et
ght ly
Ġdi et
Ġg inger
Ġas ide
l o
Ġfollow ing
Ġl ow
Ġbe ef
Ġro ast
h eese
ĠC heese
Ġco conut
Ġro ll
Ġspr ink
Ġ H
Ġthe m
Ġ3 5
i gh
Ġlik e
er s
Ġ1 2
t ed
Ġe v
Ġwh en
an ge
Ġb rou
Ġhal f
Ġbrou ght
is k
Ġserv ings
st s
Ġhe ad
r ies
um p
Ġm ar
Ġco sts
d ay
Ġp ap
eal th
Ġleav es
Ġa g
Ġs c
Ġsh eet
Ġto day
Ġ im
Ġ qu
Ġb le
in i
o re
Ġp ro
Ġp es
Ġpotato es
Ġm el
i ve
a f
Ġsprink le
Ġm akes
v es
Ġth at
er y
Ġmo re
m ain
Ġpor k
Ġwh isk
Ġs weet
ac on
e ed
le y
Ġbe ans
Ġp rim
Ġh it
Ġh ot
Ġs qu
Ġre main
Ġsim mer
Ġprim al
Ġal mo
Ġb acon
Ġm eat
al e
av or
c c
Ġapp le
Ġch ip
Ġl ime
Ġp i
Ġcook ed
Ġt ime
Ġp asta
Ġb as
Ġag ain
Ġh igh
Ġpar s
Ġcook ies
Ġwh ite
ri ger
Ġchil i
Ġper s
Ġto o
c ess
Ġbl ack
p l
o s
Ġsk illet
an an
Ġremain ing
Ġcar rot
o g
Ġbe at
Ġh oney
Ġpers on
Ġ N
Ġw or
Ġde g
Ġpars ley
Ġm an
am on
Ġin c
Ġb re
n s
Ġp u
p er
Ġsa ut
inn amon
Ġd r
Ġin ch
Ġsm oo
Ġor ange
Ġso d
Ġsmoo th
Ġpi ec
Ġc innamon
a z
Ġp ie
r act
e nd
Ġext ract
Ġb anan
Ġb ring
Ġu sing
Ġgr ill
z z
a ve
Ġtur n
at ter
ot to
Ġalmo nd
Ġpar m
Ġ i
Ġch op
Ġt ables
Ġtables poon
il e
f ore
Ġev en
Ġbe fore
Ġf ill
ĠC o
Ġe ar
Ġstir ring
Ġl ay
Ġso l
rim p
Ġsp ot
Ġthe y
Ġre f
f t
pp ed
Ġsol id
s ed
Ġsa y
u d
Ġse ed
ber ries
c at
Ġsh rimp
Ġbas il
re es
Ġm e
Ġmushroom s
Ġdeg rees
nd im
Ġpe an
Ġgo ld
t i
Ġtr ans
Ġveget able
Ġd ry
â Ģ
on e
Ġ4 0
Ġhour s
Ġcook ing
Ġsod a
Ġ ice
Ġbe ll
ar m
Ġb r
Ġear ns
am e
i a
Ġte nder
ndim ents
Ġgold en
Ġc lo
Ġcr um
f er
ĠCo ndiments
r ap
in ed
es an
n e
Ġt w
Ġv inegar
Ġcr ust
Ġpes cat
Ġpescat arian
Ġparm esan
Ġsto ck
Ġpap er
r t
Ġso y
Ġso ft
as s
Ġ2 5
Ġw arm
it t
ĠH ealth
Ġd o
Ġwh ole
Ġan y
c akes
s o
Ġpor tion
ou nd
Ġ35 0
Ġpro cess
Ġ 0
ip p
ack s
Ġroast ed
Ġpiec es
Ġon ce
ru it
Ġb otto
Ġwe re
Ġbotto m
o ther
Ġch ill
Ġan other
Ġt ake
ow n
n t
Ġb ad
um in
Ġsl ow
il ant
ilant ro
' s
t t
Ġt ried
Ġto t
Ġc ilantro
ic an
Ġseed s
Ġall ow
Ġw ine
Ġpre p
Ġbl ue
Ġd own
Ġ1 6
Ġtot al
Ġr at
Ġ1 1
Ġref riger
Ġe as
o me
ec t
ur t
Ġf ry
p an
is e
Ġble nd
Ġbanan a
Ġ1 8
Ġz est
Ġim p
Ġli ghtly
u b
Ġdr ain
ak ed
Ġgr an
b le
Ġp ut
Ġl o
Ġ1 3
Ġpean ut
rou gh
Ġth rough
Ġsp read
Ġof f
id es
Ġst ick
Ġb atter
Ġt aste
Ġtrans fer
Ġn eed
Ġf ig
Ġrat her
ad o
ri end
og urt
ent ly
o y
Ġc ur
Ġy ogurt
ra w
n acks
Ġa vo
Ġminut e
Ġtw o
Ġp ale
Ġch e
Ġn ut
ĠS nacks
Ġr i
Ġbe an
Ġcho pped
Ġal so
Ġbro th
Ġso me
Ġst art
Ġsqu ash
Ġth ick
Ġp o
k in
Ġa m
Ġp aste
Ġsauce pan
is p
Ġs ides
l ud
Ġc umin
Ġsh ould
Ġinc lud
Ġg ive
Ġa cc
Ġd ried
itt le
Ġst uff
Ġst raw
j oy
Ġlay er
Ġavo c
u ll
Ġb it
Ġto ss
Ġen joy
ou nt
Ġl ittle
ar y
ump kin
Ġcup s
Ġm uff
Ġre ad
Ġveget ables
Ġche es
av y
Ġb ar
Ġf r
in ach
Ġ2 4
e ll
Ġl oo
g es
Ġc el
Ġinclud e
Ġcr ack
y me
Ġp umpkin
Ġg et
Ġth yme
am el
pl et
Ġm ust
Ġsp inach
Ġcook ie
Ġcom plet
z en
Ġs y
er ry
Ġm ay
riend ly
Ġ1 4
Ġn ood
Ġwh ile
k ey
ru p
Ġsy rup
Ġcomplet e
it ion
am s
uc ch
se m
Ġpepper s
Ġcel ery
n ut
Ġcr an
l ow
Ġs iz
Ġr ack
Ġste ak
Ġw al
Ġavoc ado
Ġcomplete ly
Ġsh all
Ġmust ard
ucch ini
Ġd ri
Ġread y
ith ic
Ġ3 7
Ġwh ich
ol ithic
Ġchip s
Ġpale olithic
Ġb aked
Ġs at
Ġeven ly
Ġmar in
Ġmel t
Ġdri zz
Ġfl akes
Ġb all
Ġcar amel
Ġto ast
Ġs li
Ġseason ing
Ġre duce
Ġz ucchini
Ġon to
Ġcarrot s
Ġb ur
Ġf in
m ap
m ent
Ġchop s
Ġmel ted
Ġfill ing
Ġco at
Ġsa us
Ġeas y
Ġo at
Ġb ay
Ġcook s
Ġcan ned
Ġsal mon
Ġse a
Ġw rap
ve red
Ġcr isp
Ġfl avor
Ġtur key
Ġin st
d map
Ġli qu
Ġfo dmap
e re
o k
Ġfor m
i ous
Ġdrizz le
ĠN uts
a w
Ġf ir
k a
res sed
Ġsl ice
Ġwor ks
Ġg ently
Ġcomb ined
Ġf ish
as e
Ġspr ay
s a
Ġto rt
ff ee
h o
Ġimp ressed
an o
Ġ3 2
tion s
Ġo re
on g
ec i
Ġd el
Ġy e
Ġgl az
Ġc le
Ġ1 9
Ġwh ipp
Ġmix er
Ġc ent
Ġf act
Ġcream y
e red
Ġbutter s
Ġd ressing
Ġext ra
s h
Ġf ans
c co
Ġfo ld
in o
en ne
ee p
Ġsp ic
Ġcont in
Ġhe avy
Ġsl ices
Ġclo ves
Ġ ed
Ġc a
or t
Ġprocess or
Ġsli ghtly
Ġs our
Ġbrown ed
Ġt eas
Ġteas poon
n a
Ġy ol
Ġapp les
Ġsaus age
a h
Ġa f
ĠJ ams
ĠH oney
ĠN ut
Ġfig ure
Ġst r
t a
Ġm ap
Ġwat ching
Ġfood ies
Ġbre ast
cco li
Ġ1 7
low er
Ġmap le
Ġpre tt
Ġte m
Ġprett y
um m
Ġgar n
g o
Ġw ant
Ġsal sa
Ġrequ i
Ġk eep
Ġdel ic
ak ery
en ed
co nd
Ġ2 2
ĠB read
f y
Ġwh eat
ĠB akery
ab b
Ġmin t
Ġse cond
Ġcup cakes
or s
n uts
Ġ2 1
Ġbro ccoli
Ġliqu id
is fy
Ġfro st
Ġfo il
Ġsat isfy
r ic
s p
ed d
Ġman y
Ġ2 3
Ġgarn ish
g in
Ġ es
Ġon ly
Ġre st
Ġcur ry
Ġcontin ue
Ġpre ss
Ġcrum bs
Ġt aking
Ġloo k
Ġrequi res
i ght
Ġh or
e an
es ame
Ġb ack
Ġe nd
Ġn o
Ġdelic ious
Ġsaut e
Ġshall ot
Ġd ip
Ġgran ul
Ġs esame
Ġh er
Ġcook er
Ġstuff ed
Ġt art
Ġsu per
Ġaf ter
at ure
Ġbre ak
r an
ul a
Ġman go
Ġacc ount
Ġst ill
Ġfact ors
edd ar
uc h
Ġsh red
h ealth
Ġn ever
Ġli ght
Ġgrill ed
Ġcle an
b l
Ġch eddar
Ġmix ing
Ġtem per
health y
Ġchees ec
et s
Ġcent er
Ġc as
Ġes p
Ġgranul ated
pp ing
Ġme x
Ġtemper ature
Ġp ine
Ġd on
Ġpe c
s al
ition al
abb age
Ġfree z
i red
t s
ull y
l co
ho lic
Ġs mo
Ġle ast
Ġover all
Ġble nder
w h
Ġc l
Ġc abbage
Ġf riendly
co a
A lco
g ano
Ġ Alco
Ġtablespoon s
sem ary
ĠAlco holic
Ġda y
Ġt ast
Ġco coa
Ġnood les
u v
Ġl ot
Ġfrost ing
Ġch erry
is s
Ġro semary
Ġm ed
Ġpap ri
Ġim m
p ic
edi ately
âĢ Ļ
Ġf et
iz z
Ġimm ediately
Ġp ast
Ġsmo k
ser ole
Ġpapri ka
Ġth ese
Ġpe el
Ġn on
Ġdes ired
is c
me al
Ġk n
avor y
Ġcas serole
i o
ch ment
Ġpar chment
a pp
Ġqu ino
Ġstraw berry
Ġd one
Ġore gano
o e
Ġt ill
Ġp in
Ġa w
ar k
Ġc ro
Ġf ried
Ġsc r
Ġpu ree
pic al
Ġe very
uv re
Ġc ay
Ġp at
Ġfor k
Ġfl at
Ġle af
Ġcay enne
Ġprep are
oe uvre
it es
Ġpe as
Ġex ce
ĠS avory
ruit s
Ġroll s
Ġc are
Ġl ine
Ġbr ush
Ġsh ort
Ġp izz
Ġcheesec ake
Ġt y
Ġc oup
um ber
Ġsc all
Ġmex ican
Ġquino a
Ġcoup le
Ġ5 0
Ġ4 2
Ġri bs
Ġ2 6
Ġk os
Ġkos her
Ġb ag
Ġh ome
Ġfin ish
Ġglaz e
Ġm ac
Ġwh ites
Ġsu re
Ġst and
ll a
Ġ2 7
Ġch ick
zz are
a x
Ġmo zzare
Ġpu dd
al ap
Ġo cc
uc umber
Ġn uts
Ġto w
Ġrefriger ate
Ġspic y
Ġtast y
a red
Ġpes to
Ġth icken
Ġm ash
Ġb et
Ġto pping
as ion
Ġblue berry
Ġc ucumber
Ġj alap
af ood
Ġwhipp ed
Ġocc asion
Ġco ld
Ġk ale
d ed
Ġpudd ing
Ġcu is
pl ant
Ġmozzare lla
Ġoccasion ally
c t
Ġth in
Ġco ffee
Ġcu b
Ġcom es
Ġyol ks
Ġ âĢ
Ġm eal
Ġd ark
ĠD ried
ĠF ruits
Ġgo at
c r
Ġmuff ins
e en
Ġm y
sal ted
in d
Ġcuis ine
Ġb ab
Ġr ound
Ġsu r
Ġty pical
or n
Ġsa nd
Ġqu ick
ro w
Ġ2 8
Ġun salted
Ġlet t
Ġa ut
Ġpast ry
app le
Ġpowd ered
Ġwal nuts
am b
Ġen ough
Ġshred ded
Ġr a
eci ally
Ġed ges
Ġesp ecially
Ġc akes
it er
Ġco vered
Ġegg plant
Ġa d
Ġs w
ol a
Ġ2 9
Ġfl uff
riger ated
b o
at or
ef rigerated
ĠR efrigerated
Ġpizz a
Ġre ally
Ġu ser
ast ic
id er
Ġgre at
w ich
se l
Ġcor ia
Ġcoria nder
ul if
Ġprep ared
Ġsand wich
Ġco l
Ġn e
Ġenjoy ed
Ġtow el
Ġsur f
ulif lower
ec tion
Ġse par
umm y
Ġsecond s
Ġp ink
Ġalmond s
Ġ40 0
Ġc and
or d
ran ean
iter ranean
Ġt re
Ġsp eed
az ing
Ġbab y
on i
Ġper f
ip s
um n
Ġcran berry
Ġball s
Ġa r
Ġrefriger ator
Ġca uliflower
Ġ3 6
ump ti
umpti ous
Ġt bs
Ġre p
Ġscr umptious
in t
Ġam azing
Ġmed iterranean
all ow
d le
Ġm as
it ch
me g
Ġrep eat
m ilk
Ġnut meg
Ġflavor ful
Ġaut umn
Ġr ub
if e
Ġperf ect
Ġg u
Ġsurf ace
Ġ ic
Ġf re
Ġb est
Ġv ir
Ġle ave
Ġy ummy
Ġst ew
Ġme an
Ġbar s
Ġsco op
Ġpan cakes
Ġbur ger
Ġlett uce
Ġvir gin
' t
Ġro om
Ġfet a
Ġc ap
Ġf ruit
Ġcon f
Ġbutter milk
Ġkn ife
Ġslow ly
e afood
Ġa mer
ĠS eafood
Ġboil ing
wh ile
a i
Ġwh o
Ġsiz e
Ġfir st
Ġpine apple
y le
Ġs lic
Ġadd itional
Ġd ire
ĠS weet
Ġbo th
Ġ3 1
Ġfro zen
Ġmean while
f ast
Ġw ire
Ġpe ar
ro zen
Ġst yle
Ġpl astic
me nd
ere al
m ade
ar ch
t ur
Ġcr ab
Ġ x
Ġc ider
Ġsp ring
Ġamer ican
ro p
as p
et ti
Ġin d
id ge
Ġra is
Ġsepar ate
f u
par ag
ĠF rozen
Ġmuff in
parag us
Ġcrisp y
Ġf ine
Ġh o
Ġchick p
Ġa rt
ver s
Ġt ac
am ic
Ġp ul
et t
Ġbe g
Ġsu n
Ġye ast
o se
Ġp ack
Ġn ow
Ġ37 5
r uc
Ġs uch
Ġh ow
Ġsp at
Ġbreak fast
Ġjalap en
a gh
i x
Ġ3 3
ent il
Ġr un
Ġr asp
Ġas paragus
ĠâĢ ĵ
i ves
Ġ3 4
Ġspat ula
Ġtbs p
e p
ap e
Ġsk in
ich ok
agh etti
Ġart ichok
Ġinst ruc
ree k
als amic
Ġr ic
es ome
Ġb ra
v ing
b read
Ġp ur
Ġto fu
Ġsp ice
ill as
Ġaw esome
itch en
Ġinstruc tions
Ġw ra
n ight
Ġb alsamic
Ġl entil
Ġpe ach
ch o
Ġcon s
Ġfl ax
Ġmay on
Ġpec ans
Ġk itchen
Ġre s
Ġsp aghetti
na ise
w een
Ġgr ah
Ġdi v
Ġcrack ers
Ġbet ween
Ġic ing
Ġgrah am
Ġf ound
Ġcran berries
at ch
Ġshallot s
Ġric ot
en c
Ġsim p
Ġbo x
f ully
Ġsa ge
if t
Ġhome made
Ġmayon naise
Ġw ay
Ġsc rap
Ġwor k
Ġdire c
Ġgl ass
Ġgre ase
Ġoat meal
Ġuser s
Ġg reek
Ġover night
a il
Ġre tur
ll ent
th ing
Ġveg g
Ġfreez er
Ġexce llent
Ġtre mend
Ġtremend ous
m an
er ries
id dle
Ġbrown ies
uc k
Ġ5 5
as ed
Ġsp ect
Ġ3 9
Ġbreast s
Ġher bs
Ġcare fully
Ġspect acular
Ġf our
Ġtoo th
Ġa p
Ġm ic
Ġl ined
st ant
st and
Ġ3 8
ist ach
Ġstraw berries
Ġmarin ade
cr um
Ġpur p
Ġricot ta
Ġretur n
p ick
Ġch ives
Ġsheet s
Ġdiv ide
Ġb ub
Ġout stand
Ġbread crum
Ġtooth pick
Ġoutstand ing
Ġp istach
ĠC ereal
Ġsatisfy ing
m allow
Ġbutter nut
Ġmar sh
Ġcons ist
Ġmic row
Ġmarsh mallow
c ake
u ally
Ġconf ection
m el
b all
p or
Ġth an
op s
op ular
Ġwal nut
Ġs n
Ġfr idge
Ġoat s
Ġmac ar
enc y
Ġt sp
Ġs it
il ad
Ġin sert
p opular
Ġr is
Ġex cess
Ġste am
Ġal ong
Ġneed ed
Ġslic ed
Ġconsist ency
o c
t en
Ġh am
Ġmin i
Ġj am
es ter
Ġl id
Ġch un
Ġ4 1
Ġn ice
Ġfluff y
Ġbreadcrum bs
Ġb ri
ter s
Ġblend ed
Ġfir m
Ġtort illas
Ġ G
Ġf illet
Ġsmok ed
Ġevery thing
Ġmicrow ave
Ġcool ed
Ġm aking
an g
rou ts
ass ic
Ġtoast ed
Ġpurp ose
Ġun co
Ġcon stant
Ġle e
Ġconstant ly
Ġs ou
Ġbe en
av ing
Ġbanan as
m et
Ġ4 3
Ġste p
Ġcub es
x t
Ġth or
ic ed
Ġ4 7
st arch
c ous
Ġbowl s
Ġcorn starch
Ġev ent
Ġye llow
Ġc ous
Ġb un
Ġcr aving
Ġsiz ed
Ġthor oughly
ec k
Ġoli ves
Ġne xt
Ġburger s
Ġjalapen o
b on
Ġt in
th y
Ġgl ad
Ġ6 0
Ġinc or
Ġb b
st ick
Ġincor por
Ġu sed
Ġcous cous
t ing
Ġd iced
Ġinst ant
z el
Ġw ed
Ġadd ing
Ġconfection ers
h e
Ġe le
Ġcontain er
Ġpiec e
Ġpul se
Ġd ut
ch ilad
Ġdirec tions
Ġmix ed
Ġhe al
ar p
Ġbro il
us sel
Ġse m
Ġen chilad
Ġblue berries
Ġstr ips
Ġcol or
n el
Ġm iddle
at in
Ġfry ing
Ġscall ion
j on
Ġd rop
i um
l ing
in se
Ġm orn
Ġr inse
Ġdi jon
Ġrais ins
Ġmeat ball
Ġw il
Ġpin ch
e a
in a
Ġu nder
Ġar r
Ġf inger
Ġte a
Ġchip ot
Ġchill i
p ot
Ġch eck
ct ric
Ġsimp le
Ġele ctric
l ed
n ch
Ġd ill
al a
les s
Ġbb q
Ġdut ch
Ġsp routs
ch i
Ġpar t
inn ing
Ġd ou
z o
Ġp uff
ou red
Ġsu b
b ed
on ger
Ġit s
Ġres erv
a it
c ed
en er
Ġ4 6
Ġacc ord
Ġb atch
Ġinsert ed
Ġarr ange
Ġbe er
ussel s
Ġchipot le
Ġaccord ing
c i
Ġs ame
Ġe at
Ġ4 8
Ġgre ased
Ġnood le
Ġk et
Ġhand s
Ġheal thy
f riendly
Ġw ash
Ġ4 9
Ġmacar oni
at a
Ġl onger
Ġtr ay
ar a
Ġl ong
ian o
Ġas ian
Ġcr ush
iz ed
Ġturn ing
Ġbeg inning
Ġartichok e
Ġd isc
im es
Ġ4 4
Ġsh ell
Ġlo af
ett e
z e
un ch
ric ot
Ġcl assic
j ust
al ian
Ġ5 2
Ġpan s
eci al
iss ol
Ġthe re
Ġd issol
Ġsp ecial
Ġ5 4
n ey
Ġbe co
Ġtort illa
Ġstr ain
l uten
Ġf il
se ed
Ġsh ape
Ġbrown ie
Ġsoft ened
Ġ {
Ġmas ala
Ġris otto
Ġth igh
Ġsp ices
Ġfl oured
ipp ing
Ġad just
p t
Ġt i
Ġs con
it a
ac am
Ġe y
Ġde ep
Ġcro ck
Ġflax seed
acam ole
Ġap ricot
Ġa ir
Ġpreheat ed
Ġcrum ble
Ġf ull
Ġm ous
Ġin side
Ġan cho
Ġex p
Ġgu acamole
mel on
c ester
at es
Ġd ef
lo in
Ġwor cester
Ġpu ll
sh ire
Ġrasp berry
Ġworcester shire
b ut
a res
Ġ ver
or iz
Ġco ated
um mer
Ġn ec
Ġsqu ares
Ġchill ed
oriz o
Ġf it
Ġsalt ed
Ġchickp eas
Ġe m
Ġju ices
Ġmo ist
Ġunco vered
c a
Ġbe ets
ar se
Ġco arse
Ġch orizo
if f
Ġ6 5
Ġinch es
Ġpean uts
Ġclo ve
Ġsem i
Ġmeatball s
Ġit alian
ach ed
Ġk ne
Ġscon es
Ġkne ad
r ant
Ġfl ip
par t
Ġgr ad
ess ary
Ġsk ew
Ġri b
Ġpack age
Ġenchilad a
Ġc ave
Ġb u
Ġw ood
ver al
ast er
Ġse veral
Ġsqu ee
Ġcand y
Ġfre nch
Ġancho v
Ġcave man
Ġw et
Ġdisc ard
Ġgrad ually
b les
t on
re am
Ġwh ip
Ġ5 6
Ġt imes
Ġs ummer
Ġf ix
it s
or m
Ġch in
Ġwed ges
Ġnec essary
s or
u p
Ġse e
Ġ5 7
Ġa part
Ġb on
Ġwhipp ing
Ġvegg ies
i ed
Ġe qu
Ġ5 9
Ġalmo st
Ġ32 5
Ġfine ly
Ġwater melon
Ġchil e
Ġthicken ed
Ġscrap e
is ed
Ġgr ain
Ġpat t
Ġthigh s
Ġmous se
d er
Ġl amb
Ġbe gin
st er
Ġste m
l uc
w ise
in ite
Ġ5 8
Ġred uc
Ġdef inite
Ġdefinite ly
Ġh ard
Ġab sor
Ġcan ola
Ġtrans luc
Ġfillet s
Ġwood en
Ġbr ussels
Ġlo vers
Ġincorpor ated
Ġs ift
ch e
Ġ5 3
Ġtransluc ent
f lower
Ġb our
mer ic
Ġtur meric
Ġde p
Ġcaramel ized
bl ed
Ġmash ed
g r
Ġa ru
Ġm uch
Ġ5 1
ig n
Ġdon t
Ġaru g
Ġc ash
at er
pp y
Ġso ak
Ġsh ake
Ġtop s
Ġhe art
Ġsun flower
Ġfix able
Ġcash ew
w ay
tt e
Ġpistach io
v able
Ġf avor
Ġf ud
ir c
ach a
Ġ20 0
Ġam ount
Ġbar b
Ġscallion s
m as
re tte
Ġf ully
Ġg um
Ġcar d
Ġglaz ed
Ġfreez e
Ġind ian
Ġsquee ze
n ess
Ġg el
Ġch ia
Ġv ina
Ġgr ated
ig rette
Ġcrack er
Ġvina igrette
h y
Ġc irc
Ġp ol
Ġgr ap
Ġchees y
ell a
Ġbun s
s ci
ut to
Ġd ump
Ġnot e
Ġbatch es
Ġchin ese
Ġfavor ite
sci utto
ĠĠ ĠĠ
Ġ6 8
Ġbur n
Ġyol k
Ġarug ula
Â ł
ip e
ent a
Ġ7 2
Ġstuff ing
Ġfr ag
Ġquick ly
Ġtac os
Ġpatt ies
Ġdep end
Ġb isc
Ġg n
Ġl as
Ġpl atter
el p
Ġse al
ra wn
Ġher b
Ġtac o
Ġbisc u
Ġg ener
Ġl ast
Ġbe et
ir l
Ġheat ed
Ġroast ing
Ġimp ro
oc chi
Ġdou ble
Ġgn occhi
g s
Ġt un
or y
ill an
Ġ7 5
Ġlow er
Ġsod ium
Ġwra pper
Ġchun ks
Ġpol enta
Ġfrag rant
r ir
v ed
qu ently
Ġpro sciutto
Ġcrack ed
Ġfre quently
Ġbri e
Ġimpro vable
r ist
Ã ©
Ġs rir
Ġfresh ly
ore an
Ġcap ers
Ġlee k
Ġreserv ed
a uce
i er
Ġmin ced
Ġscall ops
Ġlas ag
rist mas
Ġsrir acha
Ġ rot
at ing
am om
Ġ6 4
Ġvan illan
Ġcard amom
Ġ ?
Ġt am
Ġp rawn
Ġf en
Ġmin s
Ġ6 1
Ġ7 0
Ġcool ing
Ġ42 5
Ġrun n
Ġfour th
b ly
Ġd ust
Ġn ect
Ġsmooth ie
Ġspic ed
Ġapples auce
Ġanchov y
Ġbarb ec
Ġnect ar
Â °
Ġch ristmas
Ġsa v
Ġju ly
Ġwrap s
aw ay
Ġlasag na
Ġp op
Ġm g
ar b
Ġpe ak
Ġsh arp
Ġ6 9
Ġsto ve
Ġte x
Ġfig s
Ġsteak s
Ġshall ow
Ġlook ing
c ream
Ġth ai
Ġo ld
at s
Ġch erries
le ase
ad ish
ch up
Ġket chup
Ġcrush ed
u se
Ġth ree
Ġh umm
Ġ6 6
Ġ7 9
Ġri ght
Ġpec an
ur ing
Ġ7 6
Ġleav ing
Ġpo int
Ġfud ge
Ġgener ous
Ġp ound
Ġr um
Ġpre s
ab ly
ĠF ree
Ġinc re
Ġgran ola
Ġtart ar
ĠG luten
en s
en ce
ther n
Ġpre fer
ir d
Ġed ge
Ġbra ised
p e
Ġp ies
Ġk orean
Ġstart s
Ġexce pt
j un
Ġp r
an ch
Ġsp end
ach e
Ġ6 3
Ġ6 7
ser ve
Ġgreen s
Ġtun a
Ġfen nel
k o
Ġ ir
Ġl ad
Ġas sem
Ġ18 0
Ġhumm us
f ish
our met
Ġop en
Ġwra pped
Ġa c
Ġw ok
Ġe aster
qu e
ta il
Ġsandwich es
Ġb erries
Ġd ipping
ie ld
Ġ7 1
inn er
Ġday s
Ġaw ay
Ġt ip
Ġb one
ve l
ter n
Ġk id
Ġ9 3
Ġstick s
he ad
Ġsav ory
' ve
k y
Ġsp ri
st ard
Ġj o
Ġcu stard
Ġ8 3
Ġmarin ate
Ġho ld
Ġmarshmallow s
Ġgel atin
v ia
Ġb erry
Ġco ll
Ġe l
Ġpl um
Ġor zo
Ġ8 7
Ġcorn meal
Ġstick y
Ġlentil s
d e
Ġm et
Ġh elp
Ġbu nd
Ġreduc ed
g n
Ġg an
Ġwith out
Ġha zel
Ġsl aw
Ġsou thern
h ub
Ġt ou
Ġm eas
an ges
Ġpan ko
Ġ6 2
Ġ9 5
Ġste via
Ġtender loin
Ġgan ache
hub arb
Ġs ec
Ġw as
it r
ent y
Ġr ise
eas y
Ġ8 2
Ġat t
Ġ9 0
Ġcut ting
Ġag ave
Ġqu art
Ġwhisk ing
Ġteaspoon s
Ġnon stick
Ġexp and
Ġprawn s
o f
Ġg h
ck tail
io li
Ġem ail
Ġdepend ing
Ġa head
ar s
Ġw on
el t
Ġ8 9
Ġbit s
Ġsea red
Ġflat ten
Ġbarbec ue
f e
es h
Ġre serve
Ġy ield
Ġr aw
Ġca jun
Ġey e
Ġgum bo
g u
g th
i v
ou l
Ġmo st
Ġo y
Ġr hubarb
Ġ8 6
Ġ8 8
Ġbo ard
Ġmo l
Ġref ried
Ġpeak s
c or
Ġco nd
ch icken
ag on
ich e
Ġmar gar
Ġbeat ing
Ġdo es
Ġabsor bed
Ġp ic
Ġ8 1
i ble
u al
Ġp al
Ġb ig
Ġco cktail
ri but
Ġal umin
Ġroll ing
Ġparm ig
Ġcare ful
Ġalumin um
i b
p es
Ġsp elt
oo k
Ġr ind
Ġsu nd
Ġ7 3
Ġmarin ated
Ġpear s
Ġchickp ea
Ġincre ase
i ving
al o
Ġl en
ver age
Ġro m
Ġ7 7
ass es
Ġcand ied
ca use
Ġgh ee
Ġcond en
Ġco d
Ġbe cause
Ġro ot
Ġlen gth
Ġconden sed
s weet
Ġ ent
Ġp enne
Ġthe ir
Ġbe verage
Ġ9 4
ti ght
Ġsw irl
Ġtowel s
Ġrasp berries
Ġair tight
f ait
Ġco tt
Ġpar fait
Ġ9 1
Ġ9 6
Ġoption al
Ġbr an
Ġcrust ed
Ġfinish ed
Ġsw iss
ĠG ourmet
Ġti ghtly
Ġt rim
Ġc itr
Ġm on
Ġd uck
Ġsa fe
Ġor anges
Ġ7 8
Ġbit es
Ġfinger s
an k
Ġre ach
Ġof ten
Ġl in
Ġpl ant
Ġsaut eed
Ġnut r
Ġthick ness
sp ice
Ġtou ch
a ff
Ġs ing
Ġs easonings
Ġf ar
Ġf all
Ġb ul
Ġm er
Ġadd ition
Ġpepper cor
Ġgar am
Ġ7 4
Ġhal ves
Ġpeppercor ns
i os
Ġw ings
Ġcr unch
Ġgr avy
Ġpeach es
Ġbeco me
Ġkid ney
en ing
Ġpl ain
gg iano
Ġ9 2
uff alo
Ġhalf way
T ea
Ġ Tea
Ġf ive
Ġd inner
Ġpre t
Ġwe e
Ġchil es
ĠCo ffee
Ġclo se
Ġpistach ios
Ġst iff
Ġ8 4
Ġremo ving
Ġcorn bread
Ġbiscu its
b aked
Ġcup cake
Ġfr itt
Ġrub ber
Ġver de
Ġmol asses
Ġparmig iano
g iving
Ġt ah
Ġb is
Ġserv ed
Ġr av
Ġpre v
Ġdeg ree
Ġcur d
Ġpo ppy
ens ive
Ġnutr itional
Ġsing le
Ġpret zel
Ġtah ini
Ġw ait
Ġre ggiano
am p
Ġsp l
Ġr im
Ġall spice
Ġspoon ful
Ġ9 8
Ġore o
Ġvegg ie
Ġthan ks
Ġwil d
Ġb ite
Ġre lease
ll o
ad ed
Ġpan cake
Ġro ck
Ġdec or
Ġdo ll
Ġeas ily
Ġshort ening
Ġbroil er
Ġstem s
Ġlad le
Ġb uffalo
Ġd ist
Ġpl enty
Ġfill ed
Ġatt ach
d r
m es
ing u
ar r
Ġst ar
Ġj ack
res so
Ġlemon s
ie ve
ol an
Ġsoft en
Ġskew er
Ġassem ble
Ġspri gs
Ġ ess
Ġth ird
Ġp ops
Ġf i
Ġre g
Ġco me
et ta
Ġfl esh
Ġ8 0
Ġ8 5
Ġen s
Ġsimmer ing
Ġnut ella
Ġmarin ara
Ġbour bon
Ġthanks giving
f orm
l ish
Ġch ard
Ġcor ned
ell ini
Ġesp resso
Ġlee ks
f to
it y
Ġto pped
Ġl ump
Ġor ig
ag o
Ġlay ers
Ġbit ters
Ġpress ure
Ġbet ter
Ġshell s
Ġorig in
Ġl ingu
Ġpl ac
Ġdissol ved
Ġcitr us
Ġfi ber
Ġf riend
Ġsu bs
Ġv al
Ġle fto
Ġal tern
Ġchil ies
Ġbeg ins
Ġartichok es
c ent
Ġm il
Ġd ice
Ġl ater
Ġch owd
co ok
Ġpe a
Ġgr ind
Ġcar away
mer ara
Ġde merara
Ġtort ellini
Ġend s
Ġwork ing
Ġbund t
Ġmargar ine
Ġrav ioli
Ġprev ent
Ġdist ribut
Ġchowd er
t y
u g
Ġa ct
Ġth er
ll ini
ef ruit
Ġcut ter
Ġind iv
Ġbra nd
Ġgrap efruit
Ġtex ture
Ġoy ster
Ġplant ain
Ġattach ment
Ġindiv id
c arp
i k
i ago
Ġw ax
uc c
Ġas iago
Ġcre pes
Ġup side
Ġgr ate
ru n
Ġsqu are
Ġbas e
Ġpo ss
Ġthicken s
Ġbeco mes
hy dr
Ġdoll op
Ġther mo
carp one
m ed
Ġt il
Ġch ut
Ġfl ore
Ġcre me
Ġgr atin
Ġ9 7
Ġqu es
Ġblack berry
Ġsaut Ã©
Ġbar ley
Ġsmok e
Ġthin ly
Ġround s
Ġsteam ed
gr ass
1 3
l ings
t ang
u rop
Ġre as
al ay
ak er
Ġe urop
ge l
ap or
Ġcom pot
Ġk er
Ġout side
Ġev apor
ne llini
Ġfritt ata
Ġchut ney
Ġreas on
Ġeurop ean
Ġcompot e
j a
w ood
ro cc
Ġadd ed
Ġlemon grass
Ġz ip
âĢ Ŀ
Ġfin d
Ġsn ow
Ġsou th
Ġdump lings
Ġgenerous ly
arr agon
rocc an
Ġ Â
Ġa ff
an ish
Ġst re
Ġgo ing
Ġseason ed
Ġpi er
Ġjalap e
stick s
Ġess ence
Ġbitters weet
t ain
Ġt arragon
Ġp ad
it as
id ay
Ġr adish
Ġsh ap
Ġsugar s
Ġsl ot
Ġqu iche
Ġmas carpone
cho colate
Ġapricot s
o ve
s en
Ã ¨
Ġw ide
Ġrec tang
ill ed
ter ol
Ġn ew
Ġfl ame
el ess
Ġcre ate
Ġcho les
Ġk r
Ġam p
Ġbub bles
Ġbon eless
Ġtam ar
Ġposs ible
Ġthermo met
Ġcholes terol
c l
Ġt ie
Ġf ash
an ce
Ġl ift
Ġst al
Ġab ove
Ġcan nellini
Ġ45 0
inn ess
Ġtr uff
Ġfin ally
Ġcrock pot
Ġequ al
ign on
Ġrunn ing
Ġlength wise
Ġker nel
Ġslot ted
Ġthermomet er
ro ot
Ġr ame
Ġpan c
Ġgr ab
Ġsmall er
Ġcrust y
Ġcro ss
Ġfar ro
Ġens ure
Ġfash ion
m ini
n y
p ro
r on
Ġt ap
Ġco ti
ur ger
Ġbrown ing
Ġmo der
Ġhe re
Ġlo in
Ġlo aded
Ġfr it
Ġspring form
Ġcirc le
Ġlin ers
Ġcoti ja
c ar
Ġr anch
st it
vo l
Ġbl og
Ġboil ed
Ġshort bread
Ġkernel s
i et
u k
Ġth aw
Ġf ries
at h
an ese
ith er
ent e
Ġr ings
Ġj ell
ish ed
ach o
Ġgr ape
Ġsk im
Ġtr ip
Ġmay o
bl ing
Ġsn ap
Ġskew ers
Ġpal m
Ġflore ts
stit ut
c orn
Ġp unch
Ġb ou
Ġe ither
Ġr ig
Ġsa ff
Ġbutter cream
ur ated
ap anese
Ġfo am
Ġcar bo
Ġ9 9
Ġqu ar
Ġpu bl
ord able
Ġscrap ing
Ġfil ets
Ġpr int
Ġir on
Ġaff ordable
Ġkr isp
Ġcarbo hydr
b an
Ġp ure
Ġh amb
Ġr am
Ġpl ates
ber g
Ġbo lo
Ġcrum bled
Ġmelt s
Ġflavor s
Ġcucumber s
allow een
Ġcashew s
gn ese
Ġreg ular
Ġorigin ally
Ġpubl ished
Ġhamb urger
Ġbolo gnese
' ll
b ook
g re
Ġp il
Ġd ash
Ġd ente
ro ad
ast ed
Ġwh at
Ġfl ank
ew y
Ġan gel
Ġpro vol
Ġbr isk
Ġcl ams
Ġchun ky
Ġsub stitut
Ġdissol ve
Ġeaster n
Ġwee k
Ġact ive
Ġfashion ed
Ġprovol one
m eat
t ucc
u f
Ġ er
Ġs ieve
Ġo k
Ġre pl
Ġroll ed
Ġmaple wood
Ġfet tucc
ton s
Ġpres sing
Ġhazel nuts
Ġent ire
Ġval ent
Ġram en
Ġmaplewood road
e x
s u
t ch
Ġ '
Ġp ric
Ġf e
Ġm at
ou ette
Ġre ached
Ġh us
ad as
ver t
am ese
Ġj ar
Ġle ft
Ġro se
Ġapp et
Ġhand le
Ġmo roccan
are t
Ġsat urated
isc us
amb alay
Ġrais in
ib iscus
Ġreach es
Ġreason ably
Ġtamar ind
Ġpric ed
b e
l ets
Ġa u
Ġo mel
Ġf a
is o
Ġto st
le mon
Ġmin e
Ġbe ing
Ġr acks
Ġun sweet
ian g
Ġle che
Ġtr iang
lo af
Ġsc atter
Ġsweet ened
Ġmeat loaf
Ġstart ing
Ġsaus ages
Ġpin to
Ġne ar
Ġgu inness
Ġwrapper s
Ġindivid ual
Ġtil ap
Ġunsweet ened
b a
i y
Ġs ir
Ġp os
Ġst arch
Ġpor t
mer s
Ġpick led
Ġturn o
Ġeas ier
Ġcub e
Ġbub bly
Ġincorpor ate
hy llo
Ġcarbohydr ate
k ins
in ter
Ġp hyllo
ing ue
it o
Ġh alloween
Ġch ur
Ġn est
Ġj apanese
Ġmo ther
ol iday
Ġsk ins
Ġam aret
Ġsiz z
Ġwil ted
Ġheart s
Ġmer ingue
Ġsaff ron
n amese
Ġc res
Ġc av
Ġp ipe
at ive
at oni
Ġw aff
il ed
Ġl ess
Ġh ibiscus
Ġskin less
Ġstrain er
Ġfit ted
Ġjo in
Ġmil d
pro of
iet namese
c m
m ber
Ġt ab
Ġc ast
is ser
Ġre al
Ġch ewy
Ġfl av
ese ed
Ġflour s
Ġget s
Ġfact s
Ġrame kins
Ġpil af
Ġbrisk et
Ġpos ition
isser ie
a ut
m a
v en
Ġt est
Ġc rou
Ġd ate
ro asted
ad os
Ġj ambalay
Ġapp e
og s
Ġdr um
Ġ16 0
Ġgran olan
Ġloo sen
Ġcent re
Ġ50 0
Ġequ als
Ġmeas uring
Ġlefto ver
Ġsouth w
Ġappet iz
Ġtost adas
a o
g ran
o bo
w heat
Ġc m
Ġj ul
Ġoil ed
Ġmo ld
Ġ30 0
Ġginger bread
Ġlo ve
Ġcur ried
Ġcle ar
Ġscr am
Ġad obo
Ġreserv ing
Ġti k
Ġrom ano
Ġtrip le
Ġsir loin
m ix
Ġo z
Ġb ud
at ill
Ġw inter
Ġor der
res s
Ġmar sal
Ġslic ing
Ġjalapen os
Ġnice ly
Ġfinger ling
Ġrunn y
Ġsund ay
Ġstal ks
Ġfrit ters
Ġrig atoni
Ġfe el
Ġturno vers
gran ate
Ġmarsal a
c an
f us
g luten
m int
Ġc at
Ġb ru
Ġto ffee
ro ss
Ġg or
Ġh oliday
Ġsh erry
Ġcre mini
Ġse afood
Ġingredi ent
Ġcho ice
Ġtom atill
Ġsl id
Ġshrimp s
Ġcoat ing
Ġpart y
gr illed
Ġmet al
Ġrim med
Ġlump s
Ġevapor ated
Ġdrum sticks
a ise
d s
e ur
m at
Ġs or
Ġb uck
Ġm us
Ġg er
Ġu s
Ġsp anish
Ġn at
ch a
Ġle an
Ġsprink les
Ġsweet ener
Ġbeat en
Ġavoc ados
Ġsimp ly
Ġbub ble
Ġcoarse ly
Ġbour gu
Ġrot isserie
Ġac ross
Ġtilap ia
Ġbourgu ignon
p y
Ã ±
Ġp run
Ġre lish
ak i
Ġin fus
Ġch ar
Ġe ver
th e
Ġr ou
Ġr ag
Ġn a
Ġv ietnamese
Ġpar ts
Ġde v
ard s
Ġme ant
Ġbottom ed
Ġliqu eur
Ġcrab meat
Ġprun es
Ġinfus ed
b or
k en
Ġs il
Ġb ic
ar bon
Ġd uring
Ġst ack
av a
Ġal ouette
Ġdrain ed
Ġform s
Ġmango es
Ġwed ge
ex p
Ġamaret to
Ġcres cent
Ġcrou tons
Ġbud get
arbon ate
0 0
b et
d on
h a
t ered
Ġt ins
Ġm aker
Ġm iso
ou n
il le
Ġre sem
Ġto pp
Ġh ar
Ġin exp
Ġpepper oni
ser adish
ave l
Ġsmok y
ett es
Ġir ish
Ġmeant ime
Ġbic arbonate
Ġtopp ings
Ġinexp ensive
a gg
c ri
g on
t e
Ġt ips
Ġc oun
Ġre per
Ġl a
to ire
Ġegg less
Ġhas h
iz e
Ġen er
Ġtw ice
Ġpale o
Ġhor seradish
Ġcub ed
Ġbub bling
Ġfirm ly
Ġques ad
Ġpanc etta
Ġjambalay a
Ġcat fish
Ġcoun ter
Ġreper toire
b ro
Ġt on
Ġth ing
Ġth row
ou ille
Ġd ates
Ġch ai
Ġn avel
Ġsh ir
ab i
Ġpan na
Ġcorn er
Ġbre aking
Ġcrum b
ome granate
Ġgran ny
Ġcap s
Ġver m
cream y
Ġpad dle
Ġrou x
gon z
e er
r one
w ater
Ġ [
Ġa mon
Ġp ita
Ġp omegranate
Ġm ach
Ġpl us
Ġsm ith
Ġlar ger
ous ly
est rone
Ġ15 0
Ġtw ist
Ġ0 7
Ġstick ing
Ġloo se
Ġhazel nut
Ġmeas ure
Ġcott a
Ġcott age
Ġdecor ate
Ġbrand y
mers ion
Ġtik ka
Ġgor gonz
Ġslid ers
Ġamon g
Ġmach ine
b ab
t le
Ġc ereal
Ġp ip
Ġf ire
Ġg all
ll i
Ġst ro
ab e
Ġgr and
Ġbl ood
Ġim mersion
Ġice berg
Ġ0 6
Ġbag u
Ġar bor
Ġfil et
way s
Ġcirc les
Ġbeet root
Ġcrunch y
Ġplac ing
Ġtruff les
Ġvalent in
Ġarbor io
k e
m al
s low
Ġs me
Ġc ount
Ġm ack
or i
Ġl ave
to p
ul ce
Ġle vel
Ġpepper mint
us s
Ġan ise
Ġdish es
Ġbl anch
inn y
Ġble u
Ġpo ck
ere l
Ġher bed
Ġtre ats
Ġsn ack
Ġpuff ed
Ġpull ed
Ġrib bon
Ġrepl ac
su pper
Ġhus ks
Ġnat ur
Ġmack erel
Ġlave nder
r idge
ic t
ip tion
Ġsa ve
Ġover cook
Ġmo ve
Ġpor ridge
Ġgive away
ong s
Ġend ive
wh en
cr iption
Ġbiscu it
Ġsubstitut e
Ġappetiz er
Ġbuck wheat
r in
Ġo wn
Ġd id
Ġd iff
Ġg in
Ġch im
Ġmin estrone
Ġr abe
ian a
Ġcr Ã¨
Ġup s
Ġset ting
Ġboil er
Ġdr ink
Ġ17 0
Ġpink when
Ġflaxseed s
Ġspl it
Ġlingu ini
ĠsautÃ© ed
Ġsunday supper
Ġna an
Ġreplac er
ĠcrÃ¨ me
a que
n o
v ado
Ġc ac
Ġp a
Ġf ur
Ġf un
Ġh ake
Ġe book
Ġsp ace
co vado
eat h
Ġso on
Ġsalt ine
Ġfl o
Ġfl ipping
Ġk ey
Ġprepar ing
Ġsto p
Ġdi am
Ġop aque
Ġsprink led
itt ing
Ġ0 00
Ġrefriger ated
ho d
Ġcol our
Ġmet hod
Ġsubs cription
Ġdistribut ed
Ġjalape Ã±
Ġrectang le
Ġmoder ate
iy aki
Ġmus covado
Ġshir az
Ġbagu ette
e ad
k an
s y
Ġs ix
Ġp itas
Ġf an
ic y
Ġg as
ve t
Ġco ndim
Ġin t
Ġch ive
ent ic
Ġsp ir
Ġbe low
Ġun ble
ul t
Ġsalt y
Ġother wise
Ġ10 0
Ġcrum bles
Ġallow ing
Ġloo ks
Ġic ed
oc ai
Ġdou bled
Ġburn ing
Ġcoll ection
Ġbis que
Ġjell y
Ġsor bet
Ġgorgonz ola
Ġpip ing
Ġcondim ent
Ġunble ached
d o
f l
h entic
n he
Ġ ve
Ġs uc
Ġth ose
Ġp b
Ġp sy
Ġd ogs
Ġd ulce
ro pical
Ġrec om
Ġco b
Ġco py
Ġin vert
ll ium
Ġr uss
Ġfl ow
Ġlemon ade
ef ly
Ġcor don
Ġtur ns
Ġimp ort
Ġsli vered
Ġinst ead
Ġcheesec akes
Ġbri efly
Ġenchilad as
Ġmoist ened
Ġmat zo
Ġfur ther
nhe it
Ġpsy llium
Ġimport ant
b ell
Ġa ro
Ġa le
Ġt ag
Ġo ur
es ar
Ġb are
Ġw o
en ess
Ġto s
Ġd red
Ġh ad
Ġch arred
um b
ice lli
Ġj ars
Ġv ide
Ġk im
Ġmar mal
Ġ0 3
Ġavo id
Ġchees es
Ġsat ay
Ġform ed
Ġverm icelli
Ġmarmal ade
l and
l az
Ġt ight
Ġf ra
ou se
Ġg al
ac c
ad am
id d
Ġn acho
Ġpan eer
Ġwat ch
Ġbl o
Ġout er
Ġdough nuts
Ġblack berries
Ġdr ip
Ġbur r
ened ict
Ġshort cake
Ġey ed
Ġdoes n
Ġbis co
Ġradish es
cl assic
Ġfa j
Ġcount ry
Ġrecom mend
Ġdred ge
a nder
p r
u a
Ġ vel
Ġt er
re se
Ġb enedict
Ġm illet
Ġm ound
Ġg ent
Ġr ap
Ġwh ere
Ġbut ton
Ġbut tered
Ġk ah
Ġal ways
Ġsm ash
Ġser r
Ġ0 1
Ġpo ached
Ġform ing
Ġstr ip
Ġmac adam
ĠâĢ ľ
Ġeggplant s
Ġdire ct
Ġho les
Ġglass es
Ġexp ensive
Ġpop corn
Ġac orn
Ġshap es
Ġfoam y
Ġkrisp ie
Ġer ich
Ġus ually
Ġspir al
Ġkah l
Ġmacadam ia
o gh
Ġt ongs
in es
re nheit
Ġp h
Ġp lease
Ġf ah
Ġb ed
is in
Ġw ipe
Ġd amp
Ġl og
Ġfor get
veg an
Ġsa uc
Ġj er
ur ri
Ġcar b
Ġchil d
ich urri
Ġagain st
Ġref ined
Ġ0 2
Ġtoast s
Ġx ocai
Ġabsor b
Ġheart y
Ġprefer ably
Ġcoll ard
Ġsec ure
ĠÂ ½
Ġomel et
Ġsouthw est
Ġgent le
ogh urt
Ġfah renheit
i al
u y
u sel
Â ®
Ġm s
Ġm ort
is ture
en ic
Ġre heat
ro s
Ġy uk
Ġy oghurt
Ġmin ce
Ġbe aut
Ġun gre
Ġcre ole
Ġk e
Ġk i
Ġfood s
Ġlemon y
Ġmo isture
Ġtr ad
Ġtr if
Ġmar k
Ġpars n
og enic
Ġlo b
Ġdon eness
Ġkn ow
Ġdirec ted
Ġket ogenic
Ġbul g
Ġlingu ine
ik i
Ġstre usel
Ġwaff les
Ġcopy cat
Ġungre ased
b anan
i but
Ġt ang
Ġt ropical
Ġth umb
Ġp ass
Ġm en
Ġm and
Ġm ug
is weet
on t
et er
Ġch est
Ġsp on
Ġv ar
ir t
Ġsh aking
Ġcan e
Ġro ad
Ġgr uy
Ġal as
Ġsl ide
Ġpro of
Ġdr ipp
Ġcrum bly
Ġcap rese
Ġsem isweet
Ġbou ill
Ġquar ter
Ġtomatill os
Ġsil ic
Ġchim ichurri
Ġkim chi
Ġvel vet
Ġbeaut if
' m
i gg
l a
Ġ et
Ġa ch
Ġt ir
or k
Ġco re
le nd
am is
Ġsp lend
Ġn u
Ġgar ban
us ch
Ġk o
ation s
Ġhe ap
Ġpor c
Ġsk inny
Ġhal ibut
Ġmush y
Ġen g
Ġpro per
af out
Ġ25 0
Ġ16 5
Ġpo ke
ere nt
Ġcontin u
Ġca esar
bl ue
Ġcl afout
iss ant
Ġcro issant
Ġstand ing
Ġbul b
Ġnest s
Ġappe ar
Ġger m
Ġruss et
Ġkahl ua
Ġtang y
Ġtir amis
Ġgarban zo
b u
h ome
l aw
Ġp ush
Ġb ath
ac ture
Ġco les
Ġin tern
Ġst age
ill i
ick y
ies t
ri e
Ġcre pe
Ġfo re
Ġro ds
Ġal f
Ġnot es
Ġqu ail
Ġman uf
Ġfin al
Ġtart lets
Ġho isin
Ġunco ver
Ġpres erves
Ġel k
Ġhelp s
Ġrom a
Ġpretzel s
Ġdistribut e
Ġzip lo
Ġfettucc ine
Ġtriang les
Ġsizz le
Ġflav our
Ġdev iled
Ġresem bles
Ġquesad illas
ĠjalapeÃ± o
Ġtag ine
Ġtos sing
Ġter iyaki
Ġyuk on
Ġspon ge
Ġdripp ings
usch etta
acture r
Ġcoles law
Ġmanuf acturer
l et
r ican
z iki
Ġ id
Ġt b
Ġo un
Ġp ho
Ġf ruits
Ġb ast
Ġb ord
Ġm atch
at ouille
en uts
Ġin s
le e
red o
Ġun baked
Ġn orm
Ġsco tch
Ġj agg
el f
Ġheat ing
Ġcover ing
ful s
Ġdeg laz
Ġclo th
Ġwarm ed
Ġportion s
ipp ed
Ġfold ing
Ġtart s
Ġcl ing
Ġcl ump
Ġlett ing
Ġtoothpick s
Ġdissol ves
Ġgrap es
Ġtam ale
Ġspoonful s
ĠÂ ¼
Ġcross wise
Ġpock ets
Ġnatur al
Ġdiff erent
Ġve al
banan a
Ġsplend a
Ġalf redo
Ġbast ing
Ġjagg ery
Ġdeglaz e
f at
f ere
h i
n et
o ppy
in ce
Ġp ow
Ġf ac
Ġf us
Ġb er
Ġm ussels
ou th
is on
is ters
Ġre me
al mo
Ġyou re
co conut
Ġst ra
st ini
gg ets
Ġcon ge
Ġha w
Ġv in
Ġsh av
Ġcalor ie
Ġgr its
Ġbo ats
Ġmilk sh
Ġchil is
Ġtr ace
Ġbr ine
Ġbr uschetta
Ġchill ies
Ġshould er
Ġ14 5
Ġdel ight
Ġkeep ing
Ġgarnish ed
Ġcro stini
Ġstand ard
sel f
Ġcol ander
ai ian
oul ade
Ġrock y
Ġdiam eter
Ġbare ly
Ġnu ggets
Ġtiramis u
Ġbord er
Ġreme mber
e ars
l ot
l icky
n ce
n ier
t im
Ġt ester
Ġth ink
Ġm ag
Ġw ish
it z
Ġh un
Ġch ow
im p
Ġbe ign
Ġgl o
Ġfl an
Ġper i
ir m
Ġover mix
Ġro main
Ġgr iddle
Ġcont ents
Ġpar ti
Ġsl oppy
Ġ20 1
Ġste el
Ġmar nier
Ġqu ite
Ġwor ry
ub e
Ġpo ha
Ġ19 0
Ġ22 0
Ġbri o
Ġanchov ies
Ġsec tions
Ġspl ash
Ġshap ed
Ġquar ters
ative ly
Ġflow ers
Ġwo nder
Ġvide o
Ġproper ly
bu ry
Ġintern al
Ġpho to
Ġbeign ets
Ġromain e
Ġparti ally
c ress
g y
k ish
m s
v y
Ġ vers
Ġa ka
Ġt z
Ġt en
Ġs if
Ġp it
Ġp atter
Ġp app
Ġm ein
Ġm ould
Ġm art
ou is
ll and
ad a
oo se
Ġr ich
ir i
Ġsh ep
Ġk aff
Ġmo cha
Ġfollow ed
Ġear s
Ġ0 5
Ġrat atouille
Ġspread ing
Ġstick ers
Ġpo bl
Ġpast an
Ġpeel er
Ġbag s
Ġaut hentic
Ġho llow
Ġho lland
Ġem pt
Ġdump ling
Ġpic cat
Ġfettucc ini
Ġjul ia
Ġscram ble
mat i
Ġcac ao
acc ia
Ġfaj ita
Ġtrif le
Ġbouill on
fere nce
Ġfus illi
Ġmilksh ake
Ġshep her
Ġkaff ir
Ġholland aise
c col
d en
n og
n eath
s n
Ġt ough
Ġs ection
Ġs ign
Ġc ry
Ġf ast
Ġb al
Ġb aste
Ġm iss
at ziki
an a
an th
al le
Ġl at
Ġl ouis
as co
Ġst ay
Ġst one
Ġha ir
Ġegg nog
Ġfo nd
Ġsk irt
Ġcrust s
Ġinclud ing
ell e
Ġtem p
sp icy
Ġunder neath
che es
Ġprefer red
Ġspri g
Ġjo es
Ġel astic
Ġpure ed
Ġsuc cess
Ġdirect ly
Ġke bab
Ġki w
Ġlob ster
Ġbulg ur
Ġsilic one
Ġbeautif ul
home made
Ġpow er
Ġhaw aiian
Ġempt y
ccol ini
Ġcry st
b ow
g an
s i
v est
Ġt uck
Ġw af
an ba
ic le
or ino
Ġu l
oo m
st ers
st ery
st raw
Ġso aked
Ġsu gg
Ġpre ference
Ġv is
Ġle vy
rou t
Ġsh im
Ġbro ken
Ġse am
Ġwater cress
Ġpick les
Ġ12 5
Ġmel on
Ġbas mati
Ġput ting
Ġthick est
Ġmelt ing
Ġaf rican
Ġpec orino
Ġfet an
Ġscall op
Ġmy stery
Ġcolor ing
Ġdrop s
Ġwil t
Ġeat ing
Ġbon es
Ġgrap eseed
Ġel se
Ġmost ly
Ġplac ed
Ġpier og
Ġkrisp ies
Ġchur n
Ġmold s
Ġsme ll
Ġribbon s
pr int
Ġrap eseed
Ġber anba
Ġbrio che
Ġtz atziki
Ġmart ini
Ġshepher d
Ġkebab s
Ġberanba um
i ar
l enuts
m b
p routs
u id
Â Ń
Ġt ube
Ġs ince
Ġf ace
Ġm ee
Ġm idd
Ġd is
im um
am a
Ġsp ears
co al
Ġr ipe
Ġso met
Ġfro thy
qu et
oon s
Ġv en
ap s
Ġbro ccolini
Ġcal l
Ġgar licky
Ġgar den
Ġother s
read y
Ġlik ing
Ġal ready
Ġcomb in
ol ina
Ġcut lets
un g
lo ad
Ġsc ent
Ġbeans prouts
Ġgrill ing
Ġ0 4
Ġ0 9
Ġbottom s
Ġneed s
Ġpizz as
Ġad v
tur key
Ġpack et
Ã© e
Ġmon th
Ġques o
Ġok ra
Ġcav iar
Ġbru lee
Ġchar coal
Ġtrad itional
Ġgruy ere
Ġheap ing
blue berry
almo nd
Ġconge e
Ġvers ion
Ġpatter n
Ġmidd l
h ow
p acho
Ġt a
in ess
Ġs ang
Ġp le
Ġp est
Ġf am
at her
it ake
it os
al es
Ġg az
ip an
Ġh ouse
Ġch iff
Ġis land
Ġr ough
qu il
Ġheat proof
Ġli q
Ġli ber
Ġcr aw
Ġbrown s
Ġhand he
Ġbo k
Ġlow est
Ġpro ced
Ġbanan an
Ġtake out
Ġche ap
Ġpo st
bl ack
Ġsmok ing
io ca
Ġcand lenuts
Ġpear l
Ġind ent
Ġpul p
Ġchun k
Ġstep s
Ġrot ating
Ġoy sters
Ġmer lot
Ġaltern ately
Ġtap ioca
Ġnear ly
Ġchur ros
Ġtab asco
Ġrag u
Ġton ight
Ġburr ito
Ġserr ated
Ġporc ini
Ġeng lish
Ġfore st
tim ate
Ġbal ance
Ġul timate
straw berry
Ġven ison
Ġpest le
Ġgaz pacho
Ġhandhe ld
Ġproced ure
c accia
e ak
m m
m ush
o d
o res
u gu
Ġ ide
Ġt able
re t
Ġs na
Ġp ri
Ġb ot
Ġb ail
Ġb ird
an c
Ġre le
Ġd et
Ġd ot
Ġg ou
Ġsp rout
Ġst ring
Ġr ing
Ġn avy
Ġcon cent
Ġle gs
Ġbutter f
Ġfo caccia
Ġmo j
Ġbl t
Ġcar bon
Ġdi agon
Ġtur kish
Ġlay ered
Ġ0 8
Ġthrough out
Ġstart ed
Ġspray ed
bl er
wh ite
Ġtast es
Ġcap er
Ġcrab s
Ġway s
Ġconfection er
Ġris ing
Ġbroil ed
Ġsub mer
vel op
Ġsund a
Ġmoder ately
Ġtriang le
Ġloose ly
Ġgall o
Ġthumb print
Ġmand ar
Ġpiccat a
chees y
Ġcraw fish
mush room
Ġbail ey
b r
f ort
i ent
m itting
t an
t ry
t ti
u ed
z ed
Ã ¡
Ġc ass
Ġb en
on s
Ġw edd
al li
ro ll
Ġco gn
Ġy am
to bell
pp os
Ġr are
Ġun if
Ġn ight
Ġfl ut
ir ty
el i
ach os
Ġover la
Ġcr ave
Ġfo ster
av rie
Ġk ind
Ġoven proof
Ġmedi a
Ġsto red
ra eli
resh ing
Ġqu ant
Ġbeat ers
âĢ ¦
Ġstock pot
Ġdrain ing
Ġpo ach
Ġcaramel s
Ġcaramel ize
Ġ19 9
Ġround ed
Ġsw eat
Ġtin y
Ġthird s
Ġpier ce
gre en
be ef
Ġomel ette
Ġscram bled
Ġorder ing
Ġhar vest
Ġcob bler
Ġbisco tti
Ġalas kan
Ġstra ight
Ġcryst alli
Ġwedd ing
Ġoverla pping
b acon
h ia
i ence
m ail
o red
p ean
v an
w d
Ã ª
Ġa id
Ġt im
Ġs ard
Ġth ough
Ġu nd
Ġis raeli
ate ver
Ġr id
Ġn achos
Ġso ci
Ġpl an
Ġwh atever
Ġall a
if orn
Ġsh i
us can
av oc
Ġk ep
Ġpor tobell
Ġcar olina
ra ut
bs p
Ġpour ing
ard elle
Ġhal ve
Ġear th
Ġme mb
Ġclo sed
Ġtw enty
Ġ13 9
Ġlayer ing
Ġbrush ing
Ġsw ir
ilad elp
ester n
Ġket o
Ġey es
Ġsec ret
Ġpal ak
Ġsubs cri
Ġlefto vers
Ġaltern ating
car amel
mat ic
Ġaro matic
Ġmort ar
Ġshav ed
Ġchiff on
Ġliber ally
Ġmoj ito
Ġcogn ac
pean ut
Ġsoci al
avoc ado
Ġkep t
Ġmemb ran
iladelp hia
a ican
c al
n er
o ver
r ick
s k
Ġ Âł
in y
re me
Ġs an
er a
Ġb an
Ġm esh
Ġd isk
ro r
Ġg ather
Ġh ole
Ġh ook
Ġon es
am ame
Ġsp are
oo t
Ġr ip
um bo
Ġn am
Ġcon ven
all et
mo l
Ġcan olan
us ive
Ġflour less
Ġcho y
Ġcom fort
Ġk al
ber s
Ġpar ing
Ġex cl
Ġ10 1
Ġte ar
inn ers
Ġpick le
Ġmar z
Ġag ed
Ġpro v
Ġtoo k
Ġ13 0
Ġcur rant
Ġbar berries
Ġ17 5
Ġlight ened
Ġpeel ed
Ġnon fat
Ġpat rick
Ġconf irm
Ġx anth
Ġmacar oons
Ġjam aican
Ġpuff s
Ġbon us
Ġseal ed
Ġlast ly
Ġlad y
Ġyield s
ib im
Ġwee ks
Ġwax ed
Ġer ror
Ġcav ity
Ġwaff le
Ġappe ars
Ġko ft
Ġcontinu ously
Ġclafout is
Ġziplo c
Ġins ides
Ġwonder ful
ugu ese
Ġconcent r
Ġunif orm
Ġshi itake
Ġexcl usive
3 0
b ep
c es
c ious
e gg
e ive
g inger
h ing
k it
o b
o ori
u er
u bs
â Ħ
Ġt and
Ġt ail
Ġs ar
Ġc aster
nd s
Ġp ile
Ġb ibim
Ġm u
Ġm al
Ġm allet
ou li
Ġre se
Ġre tain
Ġd ipped
Ġd inners
al able
ro ck
as ch
Ġrec eive
Ġco lo
Ġin sp
Ġch avrie
Ġyou ve
Ġwith in
le p
ow ered
id a
to m
Ġsp ac
ion s
Ġst ream
eat her
Ġadd res
Ġun w
Ġso aking
ch erry
Ġsco tt
Ġcon vert
Ġsh iny
Ġse g
Ġcr Ãª
Ġcal iforn
ee mail
ss ubs
Ġdown load
Ġlo ck
ell er
Ġcel si
ok ed
Ġtort e
Ġrequi red
sp ot
Ġgranul es
Ġcro wd
Ġra ise
Ġmas her
Ġunco oked
Ġsub mitting
but ter
Ġtam ales
Ġnectar ine
Ġwon t
Ġtruff le
Ġblog spot
Ġport uguese
Ġtab ouli
Ġbru nch
cri bep
bro wn
Ġint erv
Ġsauc y
Ġach ieve
Ġpapp ardelle
Ġsomet hing
Ġmandar in
Ġsubscri bers
Ġnam eemail
Ġconven ience
Ġkal am
Ġmarz ipan
Ġbonus es
Ġtand oori
Ġrese alable
Ġaddres ssubs
Ġconvert kit
Ġcelsi us
cribep owered
Ġaddresssubs cribepowered
a ur
b y
b in
c ran
d ood
d ough
f alle
k es
k raut
m in
p umpkin
t ere
w a
y l
Ġ ry
Ġt an
Ġt uscan
Ġc e
Ġo b
Ġo ppos
Ġb ak
Ġm ot
Ġm ess
Ġm ah
on es
Ġw ing
il ly
Ġd anish
Ġd irty
ro z
Ġg ourmet
Ġl ag
Ġco w
Ġu pper
im mon
Ġsa uer
um e
Ġn bsp
Ġsu k
ri a
Ġsh elf
Ġju lep
Ġli ver
Ġab le
Ġmo ving
un t
Ġsprink ling
Ġsqu id
Ġremain der
Ġ11 5
Ġcur l
Ġbit ter
Ġdrizz led
Ġtoast er
sh rimp
Ġed amame
gano ff
Ġtow ards
Ġ47 5
Ġhard en
Ġbarbec ued
Ġpic o
ribut e
Ġfall ing
Ġthaw ed
Ġflav ored
Ġstro ganoff
Ġrecommend ed
Ġph iladelphia
Ġjer ky
Ġparsn ips
Ġcroissant s
Ġmatch a
Ġkiw i
Ġwaf ers
Ġbot tle
Ġportobell o
Ġcolo red
aur ant
cran berry
Ġry e
Ġlag er
Ġsauer kraut
b ing
b oy
c ur
j or
k et
o x
s es
u red
y s
Ġa ioli
re y
Ġp un
Ġf le
Ġb ing
Ġm ass
ic ch
Ġg ul
ak a
Ġh ang
as ian
ve in
Ġy ork
Ġfor ks
ad ian
ad icch
oo l
Ġst eep
Ġr ins
ice y
Ġn i
ch amel
Ġj umbo
Ġv ig
Ġv od
Ġwe ight
Ġcr ink
Ġcream ed
av es
Ġcho le
Ġdi g
Ġtur bin
Ġde vein
Ġcorn fl
lo ins
Ġlime ade
Ġbas ed
Ġpers immon
Ġref reshing
Ġtender loins
Ġlo aves
Ġnut ty
Ġthick er
Ġsuper f
Ġty pe
row root
Ġsw itch
Ġtre at
Ġar rowroot
Ġgu est
Ġcap on
Ġeat en
Ġtray s
Ġbu y
Ġreduc es
Ġpr ick
Ġpr icey
Ġdoes nt
Ġsund ried
Ġent er
Ġaddition s
run ken
Ġregular ly
Ġsouthw estern
Ġpa ella
Ġflo at
Ġvar i
Ġclump s
Ġmag ic
Ġsif ted
Ġlouis iana
Ġfond ant
Ġsang ria
Ġscott ish
adicch io
Ġvod ka
Ġturbin ado
b ably
c ks
h l
h at
t ened
Ġ edi
Ġa j
Ġt ree
Ġc ase
Ġth read
Ġth ous
Ġp oul
Ġf er
at an
an ne
ut ion
Ġd ro
ic les
or ange
or ously
Ġg oo
Ġl ist
Ġl uk
Ġh ull
Ġy et
Ġch ange
co tch
ot s
Ġst ain
Ġmi gn
Ġmi rin
Ġr adicchio
st uff
ill o
Ġn or
qu ettes
Ġper ch
Ġv ary
ir ly
Ġbutter y
Ġpan ini
us cious
Ġan g
Ġpot stick
Ġk ing
Ġex act
Ġsl ush
Ġbl ade
ef eller
Ġbread ed
Ġcut ters
Ġtr ick
Ġginger sn
Ġ12 2
Ġpro bably
Ġbas ic
Ġbre w
Ġdo ing
Ġdo zen
Ġ11 0
Ġblend ing
Ġgran ita
Ġtoss ed
Ġbur nt
Ġkeep s
Ġpress ed
Ġflat bread
Ġflat tened
Ġra ita
Ġsepar ately
Ġsn ick
Ġmacar ons
Ġalong side
Ġbun ch
Ġheal th
Ġcheck ing
Ġfud gy
Ġrot ate
Ġdust ed
Ġstove top
Ġincre ments
Ġwas abi
Ġmargar ita
Ġrock efeller
Ġaltern atively
Ġtomatill o
Ġgall on
Ġblanch ed
Ġmound s
Ġchest nut
Ġmonth s
quil a
Ġbailey s
Ġcass ava
Ġban h
Ġinsp ired
Ġinterv als
Ġcow boy
Ġsuk rin
Ġvig orously
Ġthous and
Ġpoul try
Ġlist ed
Ġpotstick ers
d es
f resh
f inger
m ing
o li
x anne
® che
Ã ®che
Ġa v
Ġa unt
Ġt ri
Ġt ribute
Ġs i
er o
Ġc am
Ġc oul
Ġp ain
Ġm ey
Ġto r
Ġd isp
Ġg ift
ip ino
Ġl imes
as es
erv ed
Ġst or
Ġsa vo
Ġha ving
Ġfl or
pper s
ri bs
Ġsh aker
Ġov al
Ġpan era
Ġmixture s
Ġro w
Ġro xanne
Ġcho col
Ġcom ing
Ġk ick
ag ed
Ġhe av
Ġser ious
Ġte quila
Ġde velop
Ġbread sticks
Ġboil s
Ġman g
az y
Ġdry ing
Ġeas iest
Ġ18 1
Ġ18 2
Ġlo se
Ġpo in
Ġbar k
Ġflavor ing
Ġcle ment
Ġdelic ata
Ġes car
Ġrest ed
Ġrest aurant
Ġfreez ing
wh ole
Ġpeel ing
Ġquino an
cr isp
ord fish
Ġscoop s
man go
por k
Ġris en
Ġbri ght
Ġfinger t
Ġaccording ly
Ġti ger
Ġdiscard ing
Ġbon net
Ġgrain s
Ġcirc ular
irl oom
Ġplum s
Ġbund le
Ġrock et
tain ing
Ġrose water
Ġfa irly
Ġjul i
Ġsme ar
Ġfra Ã®che
Ġsmash ed
Ġmanufacturer s
Ġnorm al
Ġvis ible
Ġadv ance
Ġprocedure s
Ġsubmer ge
Ġcrystalli zed
van illa
tom ato
Ġseg ments
Ġoppos ite
Ġcapon ata
Ġcoul is
Ġmey er
1 5
b est
d i
n i
n ual
o ise
s aka
u ri
z ucchini
Ġt abb
Ġs ilk
Ġm ill
Ġm umm
ou le
at i
Ġw eather
an y
Ġg rou
Ġl unch
Ġco q
Ġco le
Ġch uck
Ġyou ll
Ġsp ider
Ġst acks
Ġda ik
Ġr oulade
ter rey
Ġn ett
ch u
ch ok
Ġsu sh
Ġha ppy
qu ino
Ġyour self
ri ght
Ġare a
ew arm
Ġcal led
Ġcream s
Ġup ma
Ġk ee
Ġpar ath
Ġal oo
Ġcar ving
Ġset tle
Ġspr itz
ust ic
iz ont
Ġ12 0
Ġmar ie
Ġbas ket
og any
Ġbell y
Ġfry er
Ġ13 3
Ġtransfer ring
Ġ24 2
Ġmay be
Ġ32 0
Ġ32 3
Ġteaspoon fuls
Ġstr ong
Ġ17 1
Ġhor izont
Ġ28 8
Ġar roz
Ġsun chok
Ġres ul
Ġpurp le
Ġsteam er
Ġsteam ing
Ġfil ipino
Ġmous saka
Ġknead ing
Ġtex as
Ġpres erved
Ġassem bly
Ġmon tere
Ġmon terrey
Ġfar falle
Ġreg isters
Ġindivid ually
berg ine
Ġrepl ace
Ġsizz ling
Ġlove ly
Ġgal ette
Ġet c
Ġoun ce
Ġscent ed
Ġbutterf ly
Ġquant ity
Ġtim er
Ġswir ling
Ġxanth an
Ġmah ogany
Ġrins ed
Ġedi ble
Ġluk ewarm
stuff ed
crisp y
Ġtabb oule
Ġmumm ies
Ġdaik on
Ġsush i
quino a
Ġmontere y
Ġtabboule h
a u
b as
c el
c row
d y
g ed
h an
h oney
m bo
r am
t r
t ec
w ard
Ã ¹
Ġa cco
Ġt ent
Ġs ant
Ġs amb
er dood
Ġo h
Ġm ul
Ġm oon
on y
an os
Ġre m
Ġd runken
Ġl ink
Ġin fu
Ġch ef
Ġmin imum
Ġe ight
im al
am i
pp a
Ġst uck
st eak
Ġsa uv
ain bow
Ġpl i
Ġpl ank
Ġha ban
Ġfl ake
Ġv ol
Ġover crow
Ġcan s
Ġ10 5
Ġremo ved
Ġhe ld
Ġhe irloom
Ġcool s
Ġtur ned
Ġgo es
Ġhal ved
ss om
Ġ35 8
Ġ12 6
Ġmar jor
Ġextract s
Ġbr ussel
Ġ11 1
Ġ13 7
Ġcrisp s
Ġsour dough
Ġgarn i
Ġ21 5
Ġ23 1
Ġgarnish ing
Ġlot s
Ġcro quettes
Ġ27 2
Ġ27 9
Ġad h
Ġsw ordfish
Ġ36 5
Ġmas on
Ġres ist
ail able
Ġsn ip
Ġquart ered
Ġmil o
cook ed
Ġbrand ied
Ġpier ced
Ġjalape os
Ġrectang ular
Ġstal k
Ġau bergine
Ġquesad illa
water melon
Ġstro mbo
Ġfra iche
Ġblo ssom
Ġparsn ip
Ġchest nuts
Ġid li
Ġoun ces
Ġfac ing
Ġpobl anos
Ġsugg es
Ġcombin ing
Ġfam ily
Ġgou d
Ġsunda es
Ġcurrant s
Ġlady finger
Ġconcentr ate
âĦ ī
Ġsar an
Ġunw rap
Ġcaliforn ia
Ġpun j
Ġmign on
Ġparath a
Ġacco m
Ġsant a
Ġinfu se
Ġsauv ignon
Ġovercrow d
Ġmarjor am
Ġstrombo li
b ake
c innamon
c rock
d el
h ang
m y
r ink
s imp
v al
x ican
z an
Ġ q
Ġt ru
in is
in os
Ġc er
Ġo s
Ġp ou
Ġp iri
Ġf oot
Ġand ouille
Ġb i
Ġb ain
Ġm or
Ġm ummy
is ing
il t
Ġre ese
ic ally
Ġg f
Ġg im
Ġg ives
ak y
Ġl im
Ġl uscious
Ġh ers
as ing
Ġch oose
to ber
Ġsp ark
ot ic
Ġst out
ood les
Ġr ainbow
Ġn ap
Ġn eck
Ġso ba
Ġsu it
el ion
ab o
Ġse mol
Ġover hang
mo res
me xican
Ġpot ass
Ġcom p
Ġk um
Ġcontain ers
Ġmo m
Ġmo ment
Ġgre y
Ġpor iy
Ġsalad s
Ġ15 1
un til
ard i
Ġev oo
Ġbeat er
Ġthey re
Ġsolid s
Ġme ld
Ġdo or
Ġ16 7
Ġspread able
Ġpo d
Ġpo llo
Ġpo ds
Ġ14 1
Ġtoast y
Ġbutters cotch
Ġliquid s
Ġ23 0
Ġrest ing
Ġcand ies
Ġperfect ly
Ġgu ava
Ġconf it
Ġpul ses
Ġpack ed
Ġpack ets
Ġbra ising
Ġmorn ing
Ġfil m
Ġmoist en
Ġdepend s
pe ach
Ġbund les
Ġcitr on
Ġpops icles
Ġlump y
Ġcitrus y
Ġjalape o
car rot
Ġger man
bro ccoli
Ġcolour ing
Ġjer k
Ġshim mer
Ġide a
Ġcarbon ara
Ġcornfl our
Ġav ailable
Ġsavo y
Ġmang os
Ġpli able
Ġhaban ero
Ġsemol ina
Ġpotass ium
Ġporiy al
1 0
a id
b b
c tion
g ing
g ared
h ey
j i
m ine
n h
o nd
p re
r ain
s on
v iche
w ork
z y
z ing
Ġ â
re f
re ath
Ġs ink
Ġp ith
Ġp itch
Ġb Ã¡
Ġm ad
Ġm outh
is sa
at ar
on ce
Ġw reath
en o
Ġd og
al af
ic ious
ed ar
Ġg one
ak op
Ġl ogs
Ġco als
Ġch ap
Ġch ana
im ent
ent ion
gh i
ot e
Ġda nd
if ic
if ied
se e
Ġv ine
Ġoil s
Ġfat her
Ġcr im
mo re
Ġan imal
Ġk iss
Ġcont ent
Ġal co
Ġmo de
ol f
act ive
Ġz a
Ġz oodles
Ġhal wa
Ġ12 1
Ġ12 4
Ġ12 9
Ġwor ld
Ġsaut ed
Ġparm a
Ġsoy a
Ġany wh
Ġ16 9
Ġche x
Ġ24 0
Ġ24 7
Ġget ting
Ġcoat s
Ġliqu or
Ġore gan
Ġ19 2
Ġca use
Ġtem pt
Ġtart are
Ġ26 2
Ġ27 0
Ġ27 4
Ġgoat s
Ġad ap
Ġ36 8
Ġrub bed
Ġres ult
Ġ55 7
Ġ41 0
Ġ41 7
Ġunder side
Ġeat s
Ġpull ing
Ġpatt y
Ġamount s
Ġrot ini
Ġhold s
Ġmet hi
Ġtou ching
Ġatt ached
Ġquart s
Ġfall s
Ġdecor ative
Ġjell o
Ġpalm s
Ġweek ly
Ġok ay
Ġvalent ine
Ġtest ed
Ġhar issa
Ġgal ettes
Ġmen u
igg le
Ġglo ss
Ġpobl ano
Ġlat te
Ġpierog i
Ġpierog ies
Ġpri or
Ġund ist
Ġmembran e
Ġsan to
butter nut
Ġkalam atan
Ġce viche
Ġenter taining
Ġslush ies
Ġheav en
Ġescar ole
Ġfingert ips
Ġjuli enne
Ġcreams icle
tec a
Ġvol ume
Ġladyfinger s
simp le
Ġfoot ball
Ġhers hey
Ġpitch er
ĠbÃ¡ nh
alaf el
akop ita
Ġanywh ere
Ġoregan ata
Ġtempt ation
f or
h am
h ot
h ind
i qu
o ck
p o
p ie
s mo
s avory
y al
Ġ ive
Ġa hi
Ġs ch
Ġc edar
Ġth inner
es sel
Ġp ru
Ġf res
Ġm ak
Ġm ax
Ġm ung
it or
it ies
en ade
Ġre nder
Ġd ra
Ġg y
Ġg ho
Ġg oul
ip as
Ġch all
ll an
th us
Ġsp an
Ġbe hind
oo pie
Ġpe ony
Ġst ing
Ġsal s
Ġsal ami
Ġgl ue
qu itos
Ġv ent
Ġv essel
Ġju icy
Ġcre ating
Ġse ven
Ġcr me
Ġcr azy
Ġcal do
Ġdec ad
ff ic
Ġ10 2
Ġ10 6
Ġmain tain
Ġcar ob
Ġ30 5
Ġ15 5
Ġ15 9
Ġ20 4
Ġtr in
Ġsc iss
Ġsc amp
Ġwhisk ey
Ġsweet ness
Ġman ual
Ġbre am
ud o
Ġwhole meal
Ġtot ally
Ġ11 4
Ġ13 6
Ġ13 8
Ġfr iday
Ġsli vers
map le
Ġ22 4
abb it
Ġ21 7
Ġfrost ed
sp inach
Ġ23 9
Ġend ing
Ġsmo key
Ġpat ch
Ġ27 8
Ġmozzare llan
Ġtow ard
Ġbab ies
bo iled
Ġrub bing
Ġrais ed
Ġbra ggs
man thus
Ġsou ff
Ġbb c
Ġ52 1
Ġ52 4
Ġequ ally
Ġtun an
Ġrot i
Ġpic ture
Ġparfait s
Ġmon ster
Ġwait ing
Ġorigin al
Ġevapor ates
Ġrectang les
Ġtap enade
ban i
Ġrag out
Ġrag Ã¹
Ġresem ble
Ġpock et
Ġpa ir
Ġaro ma
Ġspiral ized
Ġmen udo
Ġshim mers
Ġta quitos
Ġdet ox
Ġdiagon al
Ġspare ribs
Ġkoft a
Ġob tain
Ġsuperf ood
Ġgoo ey
Ġgingersn aps
Ġhealth ier
Ġpoin ts
Ġrem oulade
Ġgoud a
Ġpunj abi
Ġq t
Ġdand elion
Ġadap ted
Ġpru ne
Ġgoul ash
ipas to
Ġscamp i
c le
c chi
h ol
h ouse
i ew
j o
l er
m l
m ew
p asta
p are
t ie
y ss
Ã »
Ġt u
Ġt um
Ġt all
Ġs am
Ġs elf
er ic
Ġc i
Ġp y
Ġf av
Ġf izz
Ġf alafel
Ġw ind
il s
en se
ro st
Ġh an
as mine
Ġch ang
Ġfor ty
Ġmin ted
ad y
th ai
Ġit self
ent ine
Ġpe p
veg et
Ġda b
Ġr ustic
Ġr abbit
ill ote
ast al
Ġun mo
Ġun roll
um ini
Ġn umber
Ġso gg
Ġso mew
Ġcook book
ch eese
Ġwh oopie
Ġsu gared
Ġfl aky
Ġper io
Ġj asmine
Ġv id
Ġle g
Ġsh er
Ġsh are
ur bed
Ġdes ire
Ġcre ma
mo roccan
Ġro yal
Ġup right
Ġpot s
Ġk a
Ġk orm
Ġgr ater
ant e
Ġal umini
Ġ10 7
Ġcar bs
ess ion
ru b
Ġcut s
Ġcorn ers
Ġ15 6
Ġext reme
Ġz ucch
un k
Ġen c
ich yss
lo th
Ġ35 1
Ġhead s
Ġpap illote
Ġsc or
Ġthat s
Ġman ner
Ġsol ution
Ġ40 1
Ġbr ats
Ġtw ine
Ġ25 7
Ġ25 8
Ġ11 9
Ġ18 7
Ġam inos
Ġread s
Ġ24 8
Ġ37 1
Ġ37 6
Ġ37 8
Ġcrisp ed
Ġore os
Ġcent ers
Ġ22 3
Ġ21 0
Ġ21 4
sal mon
Ġ27 5
Ġ28 9
Ġ29 5
Ġcol ada
Ġstew ed
Ġ33 5
Ġ34 5
Ġkitchen aid
Ġricot tan
Ġ39 8
Ġ38 5
Ġinsert ing
Ġdut y
Ġ48 6
Ġscon e
Ġfull bell
Ġsquee zing
Ġ56 4
Ġsee m
Ġburn er
Ġkid s
Ġpic nic
Ġbul k
Ġrame kin
Ġbou quet
Ġsubstitut ed
Ġappetiz ers
Ġflo ats
Ġserr ano
Ġph illy
Ġach ie
Ġclafout i
Ġsugg est
Ġtan ger
ys isters
Ġdig est
Ġstain less
Ġnor th
Ġgrou p
Ġresul ts
Ġaccom pan
Ġos manthus
Ġmor sel
Ġshimmer ing
Ġalco hol
Ġgloss y
Ġundist urbed
Ġspan akopita
Ġsciss ors
cchi ette
Ġunmo ld
Ġsogg y
Ġperio d
Ġkorm a
Ġalumini um
Ġextreme ly
Ġzucch inis
ichyss oise
Ġfullbell ysisters
b re
b ap
b ru
c itr
e k
i en
k ing
k ed
k orean
l entil
m p
p h
s w
t ipasto
u gel
y e
z teca
Ġ }
ĸ ¢
Ġa zteca
Ġt so
Ġs ze
Ġc ab
Ġc yl
Ġo x
Ġp am
Ġf u
Ġf arm
Ġf itting
Ġb age
Ġb igg
Ġm ao
at as
at ta
it an
Ġd al
Ġd am
Ġd ense
al oo
ic a
ic as
et ic
ll of
th day
ent ial
Ġsp oo
Ġpe ek
Ġda iqu
st on
Ġadd s
ul i
gar ian
Ġn og
Ġwh y
Ġwh irl
Ġsu ffic
Ġha y
qu ick
if y
Ġv ichyssoise
ir thday
Ġbro ok
Ġcr imp
Ġro pe
Ġan tipasto
Ġcho bani
Ġcom ments
Ġk ar
Ġk en
Ġk abo
Ġgr as
ag ram
Ġ10 3
Ġhe ar
Ġsl ip
Ġnot ice
Ġbl anc
ra ised
Ġcool er
Ġmade le
Ġ30 4
Ġveget a
Ġpreheat ing
Ġste ady
Ġ12 3
Ġsc rub
Ġmel ba
Ġsaut ee
Ġturn ips
Ġany thing
Ġ16 1
Ġ13 1
Ġsyrup y
Ġbur ned
Ġ19 5
Ġ23 2
Ġgarnish es
Ġsaute ing
Ġcheesec loth
Ġcas ing
Ġmex i
Ġtast ing
Ġkn ock
Ġpin t
Ġcro quet
Ġpizz ette
Ġ42 0
Ġ26 6
cr ab
amb oo
Ġ36 1
Ġconf ession
Ġx Ã¨
Ġpack aged
Ġbra id
Ġ39 2
Ġbreadcrum b
Ġ41 2
Ġ41 3
he res
Ġ44 5
Ġbarb e
Ġjo llof
Ġpic ante
Ġtouch ed
Ġfritt atas
Ġrock fish
Ġstar ter
Ġpops icle
Ġens uring
Ġsnow man
Ġsnow ball
Ġstre tch
Ġbou ght
Ġport ab
aut hentic
cha e
Ġnatur ally
no li
Ġfun ghi
Ġspiral ize
Ġsauc es
Ġalas ka
Ġziplo ck
Ġglo ves
gan ic
Ġcall aloo
Ġdiagon ally
Ġben ef
Ġflut es
Ġsard ine
sk inny
Ġtail s
Ġbibim bap
Ġmu dd
Ġspac ing
ĠcrÃª pes
Ġmot ion
Ġsnick erdood
Ġtor n
Ġstor ing
Ġflor ida
Ġclement ine
Ġsilk y
Ġhorizont ally
Ġadh ere
Ġcer amic
Ġâ ĸ¢
Ġcrim ini
Ġmax imum
Ġsals an
Ġtum eric
Ġfav our
veget able
bre ak
citr us
Ġcyl ind
Ġbage l
Ġbigg er
Ġspoo ky
Ġdaiqu iri
Ġcroquet as
ĠxÃ¨ o
5 1
b ean
b bly
c y
c ip
d one
e uf
e mber
f o
f r
f ar
g rap
i ers
j ar
l Ã©e
n on
s c
s ummer
t ime
w ith
in ese
in ary
in stant
re k
Ġo o
Ġp av
Ġf aster
Ġf ont
Ġb li
Ġb ull
Ġb irthday
Ġb amboo
Ġm es
Ġm eet
Ġm alay
ou ry
is bury
ĠĠ ĠĠĠ
Ġw id
il d
an gh
Ġre l
al ity
ic c
ic um
Ġg iving
Ġg olf
ak en
Ġl it
Ġl ite
Ġh r
Ġh um
ac es
Ġy ak
Ġfor ced
uc ks
co d
co ffee
Ġsal isbury
Ġr as
st ir
ch inese
Ġfro nds
ec ted
Ġper og
Ġj oy
Ġor ient
Ġsh ow
Ġsim me
ur a
ab etic
lic o
li ght
Ġbow tie
Ġcream er
redi ble
Ġcan adian
Ġan nual
Ġwater y
Ġcho pping
Ġk it
Ġcont est
her b
Ġal one
ey e
Ġbo euf
Ġex ch
Ġ10 4
Ġcar ve
Ġdi abetic
Ġ30 8
Ġpour able
lo aded
Ġ35 5
Ġ12 8
ange lico
Ġsimmer s
Ġmeat less
Ġinc redible
Ġpu y
Ġsmooth ies
zz ards
Ġtablespoon fuls
ti v
Ġtrans pare
Ġbell a
Ġbr Ã»
Ġclo s
Ġchill s
Ġ16 3
Ġ11 2
Ġ11 6
Ġfr icas
Ġfr angelico
Ġ24 9
Ġ14 6
Ġore cchiette
Ġ19 6
Ġed itor
Ġ17 4
sp aghetti
Ġes c
Ġ42 3
Ġ26 9
Ġ28 1
Ġsurf aces
Ġgu ilt
Ġ31 7
Ġ33 4
Ġ33 7
enc al
Ġscrap s
Ġ39 0
Ġexcess ive
Ġ41 6
Ġwil ts
Ġ46 5
Ġ52 0
Ġ52 7
Ġsee ms
Ġ57 6
Ġgrain y
Ġhard ens
Ġgel ato
Ġdust ing
Ġsav oury
Ġ63 9
Ġac tiv
Ġcustard s
Ġhold ing
Ġwon tons
Ġparmig iana
Ġ91 3
Ġdecor ating
Ġgrind er
ug reek
Ġact ually
Ġstre et
Ġpanc it
Ġpalm iers
Ġweek night
can non
Ġcaps icum
Ġtwist s
Ġdiam ond
do ck
Ġblo nd
Ġbisco ff
Ġmark et
Ġnorm ally
Ġfac ed
Ġmould s
Ġscallop ed
Ġfam ous
Ġrele ases
Ġrip ened
Ġbibim bab
ĠcrÃª pe
cur ried
Ġvari ation
Ġfer ment
Ġhull s
Ġexact ly
Ġsamb al
Ġlink s
Ġresist ant
Ġblossom s
Ġsugges tion
Ġpou ch
Ġspark ling
Ġnap a
Ġsuit able
bb q
Ġtrin id
Ġpep itas
Ġvid alian
Ġachie ved
Ġtanger ine
Ġbarbe que
grap h
Ġbli zzards
Ġsimme red
Ġtranspare nt
ĠbrÃ» lÃ©e
2 9
b en
b ac
c us
l g
n v
p at
p ale
r il
r ice
s bury
t ous
u gs
w are
w arm
y er
y an
z ole
Â º
Ġ Ã
Ġt at
Ġt ra
Ġs el
Ġc ad
Ġc amp
Ġo t
Ġp ill
Ġb oo
Ġb ano
Ġb ook
Ġm ut
Ġm ardi
ar i
ar ing
is ter
at ine
Ġw ise
en z
ut e
Ġd ak
Ġd ress
Ġd eath
Ġd ye
Ġg ro
ip le
Ġh op
as paragus
ac i
Ġco astal
et her
Ġin ner
Ġy um
Ġch ou
Ġch amp
le ct
Ġmin us
ad d
im an
Ġbe lg
gh ter
Ġis nt
ot ti
Ġst arb
Ġda hl
Ġr ach
st e
st acks
Ġgl ugs
gar lic
Ġso le
Ġwh ether
ec an
Ġj ew
Ġor ganic
Ġpepper corn
ri otic
Ġsh rink
Ġare as
Ġegg roll
Ġover l
all ions
me yer
Ġapp ly
Ġ45 1
Ġk ring
ation al
Ġmedium s
Ġbo rek
Ġmo mm
Ġ10 9
Ġremo vable
Ġhe mp
Ġsl ab
Ġnot ch
Ġcour get
ol otti
Ġcor re
om ppa
Ġspr ings
Ġ30 2
Ġ30 9
Ġsk ip
est eak
Ġ15 3
and an
Ġ35 3
Ġmar cus
Ġsc al
Ġsc ant
Ġim mer
Ġqu ark
Ġqu ality
af e
Ġwhisk ed
os as
og i
Ġbring ing
âĢ Ķ
Ġwhole wheat
Ġ11 7
Ġ18 3
Ġ18 6
Ġ13 5
Ġcur dle
Ġpo ppers
Ġchees esteak
Ġ24 6
Ġ14 0
Ġ37 9
Ġinst agram
Ġ32 4
Ġye ar
Ġfact ory
Ġ17 9
Ġ22 6
abb y
Ġ21 6
Ġ23 3
Ġcas es
Ġmed allions
Ġkn own
Ġkn ives
Ġpin a
Ġpin ching
Ġscr atch
Ġevery one
Ġ50 7
Ġ26 7
Ġpudd ings
Ġdark er
cr ust
Ġbab oy
Ġ28 5
Ġ29 1
bo x
Ġcol cannon
Ġspeed y
Ġ36 2
ett an
Ġ33 0
Ġ34 0
Ġpur ch
Ġris es
Ġsou l
Ġsou red
Ġ43 5
Ġ47 7
Ġpinch es
Ġpuff y
Ġ46 4
ci ent
Ġ48 1
Ġwash ed
Ġdisc s
Ġdef rost
Ġver ben
Ġbu ild
Ġreduc ing
ĠĠĠĠ ĠĠ
Ġfen ugreek
Ġpop eye
pe ar
Ġcoll ap
Ġwon ton
Ġmol ten
Ġlin er
Ġdoll ops
Ġess ential
Ġfriend s
ug ust
Ġtil t
Ġtamar i
Ġlift ing
Ġdash es
Ġentire ly
Ġsizz les
Ġdev il
Ġdiff ic
ĠjalapeÃ± os
Ġfan cy
Ġwo bbly
idd en
Ġfaj itas
Ġrap id
Ġpass ion
Ġmand ol
Ġappear ance
Ġhun garian
Ġphoto graph
Ġsif ter
oose wood
Ġlat kes
Ġstay s
Ġfond ue
Ġdis ks
Ġsunda e
Ġmembran es
sk illet
Ġprov ence
egg plant
Ġbak ers
Ġmess y
Ġcurl s
Ġgul asch
Ġni bs
Ġweight s
Ġcrink le
Ġcrink les
des sert
Ġsi am
Ġchocol ates
Ġnett le
Ġsunchok e
Ġplank ed
zan ella
Ġgim let
Ġkum qu
once llo
Ġfootball s
Ġfres co
Ġdra ft
Ġsting ing
Ġwind ow
Ġsomew hat
Ġscor ching
Ġperiod ically
bru ary
Ġhay stacks
Ġfavour ite
break fast
cip es
Ġfont ina
Ġexch anges
Ġclos est
Ġfricas see
Ġblond ies
nv ita
pale o
tous h
Ġcad bury
Ġpill sbury
Ġbano ffee
Ġmut ton
Ġrach el
Ġkring le
Ġmomm ie
1 2
1 6
b and
b raised
c ing
c reme
d uc
e ms
f i
g oo
h on
h ra
i ol
j ul
j ect
m esan
n olotti
o z
o ven
p ecan
r asp
s pan
t it
t ex
u x
v a
v re
y a
z u
Ã ³
Ġa top
Ġa kan
re l
re w
re x
re ase
Ġs ided
Ġs ous
Ġs ound
Ġs ult
er net
Ġo bl
nd ay
nd ered
es co
Ġp roduce
Ġp ula
Ġp oured
Ġp andan
Ġf ab
Ġand hra
Ġb ac
Ġb ree
Ġb agg
Ġb irm
ing ton
ing ham
Ġw an
il i
it alian
Ġre ndered
ic ama
Ġg a
Ġl ick
Ġl if
Ġh u
Ġh atch
Ġh uli
ve mber
Ġin k
Ġin n
Ġin form
Ġch ess
Ġmin d
ad illo
Ġe pic
Ġit ems
id get
am es
Ġsp ud
Ġbe nd
Ġbe chamel
Ġminutes until
Ġst er
Ġr ugel
ul s
ter i
Ġn ori
Ġpl ump
ch t
ch illed
Ġbut t
Ġpre serve
Ġj iggle
Ġj icama
ir a
Ġsh ot
ish es
Ġfat toush
Ġas s
Ġdes ign
Ġse ams
Ġpan zanella
par mesan
Ġro lo
Ġcho co
Ġtry ing
Ġk ool
ag ne
Ġdec rease
Ġpar alle
Ġsto pping
Ġmo nday
Ġsl ash
Ġfollow s
Ġwell ington
Ġbl iss
Ġbl oom
Ġmilk y
Ġset s
Ġlet s
Ġte ch
Ġde hydr
Ġbread s
ash ed
Ġ15 7
iz er
Ġ20 3
Ġ35 4
Ġ35 9
Ġmar y
Ġmar ch
Ġmar ks
Ġmar asch
Ġag nolotti
Ġsweet er
Ġmeat s
os ed
Ġdr ipping
Ġlay ing
Ġseed ed
Ġme ans
Ġtender s
ass i
Ġ25 2
Ġchill ing
Ġ18 8
Ġ13 4
Ġthick ly
Ġpo mo
Ġam ar
Ġfr ont
Ġ24 4
Ġ14 3
Ġ14 9
ition ally
Ġcaramel ise
Ġcaramel ised
Ġsli ght
Ġbur st
Ġ32 9
Ġdel i
Ġ19 8
Ġstr ings
Ġ17 7
Ġ22 7
Ġ22 9
ors cht
Ġ21 3
Ġ23 4
Ġ23 5
Ġno vember
Ġshred s
Ġtast ed
Ġ42 2
Ġ42 4
Ġ26 4
Ġfinish ing
Ġ27 1
Ġbet ty
Ġquick er
Ġ29 4
Ġ29 6
Ġ36 9
Ġmas a
Ġfirst ly
Ġ31 0
Ġ31 5
Ġspring y
Ġchickp ean
Ġsun ny
Ġ33 8
Ġpur Ã©e
Ġinstructions pre
Ġcons ider
Ġres id
Ġ55 8
Ġmicrow av
Ġunder done
Ġchipot les
Ġsub stant
Ġadjust ing
Ġver des
ca jun
Ġ65 7
Ġ56 6
Ġreduc tion
Ġdep th
Ġseal ing
Ġseal able
Ġherb es
Ġpop over
Ġpres ent
pe pper
Ġassem bled
Ġassem bling
Ġac id
Ġcoll ect
Ġ62 5
cor ned
Ġent ry
Ġrubber y
Ġsubs ides
cook ing
med iterranean
Ġflore nt
Ġevapor ate
Ġpanc ettan
Ġrig ate
Ġhamburger s
Ġhus k
Ġhus band
Ġtilap ian
Ġamaret ti
aut umn
Ġener gy
Ġverm outh
Ġstro kes
Ġgrand ma
Ġchim ney
Ġflow er
Ġblo ck
Ġburr itos
Ġsecure ly
Ġeng land
Ġcontinu ing
Ġflavour s
Ġshav ings
Ġtuck ing
Ġvis it
Ġcombin ation
Ġindent ation
Ġsna pper
Ġflut ed
caramel ized
Ġkoft e
Ġspac ed
Ġmot or
Ġvari ations
Ġdro pped
Ġpain t
Ġrow s
Ġchocol at
Ġserious ly
chu an
Ġspritz er
cel ery
han i
Ġmoon cake
del icious
Ġlim oncello
Ġgho st
Ġdecad ent
Ġsouff le
Ġpicture s
Ġsam osas
Ġpy rex
Ġsher bet
Ġaccompan iment
Ġsze chuan
Ġcab ernet
Ġmadele ines
Ġportab ella
Ġmudd le
Ġrel atively
Ġperog ies
Ġorient al
Ġferment ed
ĠÃ ł
Ġstarb ucks
Ġoverl ap
Ġcorre ct
Ġverben a
Ġdiffic ult
goo g
rasp berry
Ġobl ong
Ġpula o
Ġfab ul
Ġbagg ie
Ġbirm ingham
Ġrugel ach
Ġparalle l
Ġmarasch ino
Ġinstructionspre heat
' d
a quil
b its
b ella
b ird
c ation
c tober
d airy
h ire
j ool
k ale
l amb
l aise
l ava
m it
m ark
n at
n it
n ot
r um
r abi
s by
t w
t un
y sen
z er
Ã º
Ġa ugust
Ġt id
er ita
Ġc ul
Ġc ame
Ġc atch
Ġc ze
nd y
Ġp ak
Ġp as
Ġp et
Ġp im
Ġp ao
Ġf ant
Ġf ave
Ġf ift
Ġb chamel
Ġb orscht
Ġm l
Ġm is
Ġm ist
Ġm oosewood
ou d
Ġw w
Ġw inning
it ter
an at
Ġre ll
Ġd ressed
Ġd ream
al ized
al ouette
al ha
ic ated
Ġg iv
Ġl aw
Ġl ife
Ġl assi
Ġh is
Ġh int
Ġh idden
ve ction
et ida
Ġy uc
Ġy uf
Ġch ant
Ġch arm
Ġyou d
le k
ad ow
Ġe ff
to asted
am azing
co ll
gh erita
oo la
pp ucc
Ġr ies
Ġun t
ul an
um a
Ġn eat
Ġn aked
Ġpl ay
Ġwh ist
Ġsu ya
Ġcon vection
Ġpre cooked
ec ake
Ġv ents
Ġsh y
Ġsh own
Ġsh aw
el bas
Ġsim it
ur ry
Ġbro ad
Ġbro do
Ġas af
Ġcre us
Ġover f
Ġcr abby
Ġcal am
Ġcan noli
us ing
par i
Ġan al
Ġan cient
Ġ45 7
Ġhand led
Ġfood and
Ġvitam ix
ade lla
Ġal bac
Ġbo ysen
Ġ10 8
Ġsl it
Ġsl its
Ġwell s
Ġbl an
Ġbl itz
Ġcar a
Ġtur tle
Ġ30 7
Ġte ll
Ġsoup s
ce ed
Ġdough nut
Ġcorn s
Ġext end
ks hire
Ġchil aquil
Ġ20 6
Ġdessert s
Ġen velop
Ġpick y
lo va
Ġthem sel
Ġ35 6
Ġ35 7
ers ed
Ġmar gherita
Ġsc ape
ore o
Ġpro f
Ġpro duc
Ġpro ceed
Ġhigh ly
os able
Ġspot s
Ġ40 3
Ġbr at
Ġbr ittle
Ġbr aci
Ġ25 3
Ġany more
Ġprocess ed
Ġ16 2
Ġ16 8
Ġ11 3
Ġ18 4
Ġ18 5
Ġlo cation
Ġ13 2
Ġcur ly
Ġpo zole
Ġbar berry
Ġ24 3
Ġcrack le
nut ella
Ġsiz es
Ġ37 7
Ġdrizz les
Ġbur fi
Ġflavor less
Ġ32 6
Ġ32 7
Ġfold ed
Ġsour ce
ah i
Ġstr ata
Ġ17 2
Ġ17 3
Ġ22 1
Ġ22 5
Ġ21 2
Ġcl ar
Ġcl am
Ġmed jool
Ġsmok er
Ġpat riotic
Ġshort cakes
Ġ50 3
Ġ42 9
Ġ26 0
Ġ26 3
Ġ26 5
Ġmash ing
ĠâĢ Ŀ
ind ian
Ġsur round
Ġ28 2
Ġ28 7
Ġad heres
Ġad sby
bo il
Ġgreat est
Ġne iman
Ġar g
Ġ36 0
Ġscoop er
Ġamer ica
Ġ31 1
Ġind ones
Ġho ck
Ġpul sing
Ġ34 6
Ġ34 7
Ġtbsp s
Ġbra ise
Ġmayon aise
Ġdiv ided
Ġscrap er
Ġgrease proof
Ġ55 0
Ġ39 7
Ġ38 2
Ġ38 4
oc tober
Ġmini ature
Ġ43 1
Ġ43 3
Ġ47 2
Ġtin iest
Ġwil ton
Ġunder cooked
Ġ49 4
Ġ44 0
Ġ44 2
Ġ44 3
Ġ54 1
Ġ{ }
Ġexp osed
Ġem uls
ca uliflower
Ġ56 8
Ġhard boiled
Ġ53 0
Ġbour nvita
Ġ51 9
Ġarug ulan
Ġ200 9
Ġgener al
Ġ70 0
Ġ66 1
Ġ66 9
Ġ71 2
Ġel bow
fe bruary
Ġpic adillo
Ġbig oli
Ġrom esco
Ġswirl s
Ġtrim ming
Ġmon key
Ġlin ing
Ġcurd ling
Ġval ve
su per
Ġnest le
Ġjoin ts
Ġjambalay an
Ġsor rel
Ġbuck le
water ing
Ġ[ ]
Ġovercook ing
Ġdid n
Ġint act
Ġint end
Ġsuc anat
Ġale x
Ġgal an
Ġmort adella
Ġtrad itionally
Ġbulg ogi
Ġvar iet
Ġappear ing
Ġ201 1
Ġpit ted
Ġpapp u
Ġwaf er
Ġdis app
Ġple ats
black berry
Ġrele ased
Ġrele asing
Ġquant ities
Ġprov encal
Ġuniform ly
Ġmal ai
Ġkalam ata
Ġbak lava
Ġdanish es
Ġmass age
hl rabi
Ġaj ar
Ġang laise
Ġsnick ers
Ġcam pari
Ġdisp ersed
Ġdisp osable
Ġnett les
Ġsunchok es
bas il
Ġmul berry
crock pot
val entine
Ġbi hon
rain ed
Ġchap ati
Ġsch nit
Ġgy ros
Ġchall en
Ġdigest ive
Ġmorsel s
Ġdam n
Ġbrook ie
Ġken yan
Ġsnickerdood le
Ġcylind er
Ġpav lova
Ġchamp agne
Ġjew ish
Ġeggroll s
Ġcollap se
jul ia
Ġinform ation
Ġspud s
teri or
Ġtech ni
goog le
Ġfabul ous
Ġtid bits
Ġcze ch
Ġfift een
alha u
Ġgiv en
Ġyuf ka
Ġcharm oul
ppucc ino
Ġries ling
Ġcreus et
Ġfoodand spice
Ġalbac ore
Ġchilaquil es
Ġthemsel ves
Ġbraci ole
Ġadsby google
Ġindones ian
Ġschnit zel
a is
a ver
b one
b uffalo
c d
c ut
c ents
d ut
d ec
f en
g en
g round
g est
g reek
g Ã¨
h ni
i ently
j apanese
l ine
l uck
m i
m ake
m ins
n g
n ay
n gth
o a
o les
o ss
p a
p tion
r al
r ian
s ou
s et
s qu
s un
s outh
t ano
u ary
u zu
v id
v ietnamese
w ur
w est
Ġa ip
Ġt rees
in as
in ate
re nch
re cipes
Ġs oo
Ġs ot
Ġs elt
er to
Ġc ell
Ġc afe
Ġth ou
Ġp k
Ġp en
Ġp ig
Ġf ri
Ġf iddle
Ġb ah
Ġb ind
Ġb aker
Ġm ull
Ġm ama
ing bird
ar at
ar ug
is Ã©e
at ian
on st
on om
on nay
Ġw ent
Ġw all
it ching
an nual
an uary
Ġre active
ut ter
Ġd ries
al ine
ic er
ro semary
Ġg ot
Ġg aps
ip ot
ip ment
ak s
Ġl b
Ġh om
Ġh uck
ac ious
Ġco ff
Ġco ke
Ġy uzu
le br
Ġu m
ad es
th is
th ough
id ing
am ed
Ġsp inner
Ġsp unk
pp e
pp ine
Ġis n
Ġst ur
ate l
Ġr isk
Ġr ican
dd ess
Ġun for
ul ated
Ġn ar
Ġn ational
Ġso fr
Ġpl Ã¡
ch ipot
Ġha v
Ġha pp
Ġsalt iness
qu ite
Ġfl aked
if fy
se ared
Ġj ean
Ġj iffy
pper ware
Ġv iana
Ġv iew
Ġsh akes
Ġsh ish
Ġsh aken
el ed
Ġju g
Ġju k
Ġju icer
Ġheat s
Ġspoon s
ato re
Ġli ve
Ġli ghter
Ġfat ty
ab out
ab atta
Ġcre ated
Ġover work
op han
ingredi ents
mo ist
Ġcan t
us age
Ġcho se
Ġ45 4
Ġk om
Ġk ung
Ġhand y
Ġhand les
Ġgr ass
Ġgr ams
Ġgr ating
Ġpar boil
Ġcontain ing
Ġal though
Ġbo dy
Ġbo enz
Ġlar gest
Ġbl ister
ol s
Ġcar n
Ġcar ne
Ġtur f
Ġte nd
Ġapproxim ate
ash i
Ġdough y
Ġ15 4
Ġ20 5
Ġ20 8
Ġsmall est
Ġgo ddess
Ġz u
Ġz ipp
Ġz omppa
Ġpick ling
Ġhandful s
Ġ12 7
Ġsc rew
Ġremain s
Ġpi Ã±
Ġinc is
Ġpu erto
Ġi i
Ġlay a
Ġ40 4
Ġ40 7
arm a
Ġvinegar s
Ġcrust less
Ġ25 4
Ġdo ve
Ġ16 4
Ġ16 6
Ġlo st
Ġpo pped
Ġam ber
Ġfr isÃ©e
Ġ24 5
Ġcomplet ed
Ġ14 4
Ġ37 0
Ġbur gu
Ġbur dock
ere ll
ka h
sa usage
Ġ19 7
Ġca ution
Ġstr onger
Ġ17 6
Ġ21 8
Ġ21 9
Ġ23 6
Ġ23 7
Ġno thing
Ġtart let
Ġclean ed
Ġcas ings
Ġcl ick
Ġcl ass
Ġcl oud
pic ally
Ġpast ries
Ġkn ots
Ġcro atian
Ġbrush ed
Ġty pically
Ġ42 8
Ġ26 8
Ġhome february
Ġmac er
ĠâĢ Ķ
ĠâĢ ĺ
cr ack
Ġ28 0
Ġ28 3
iter oles
Ġsw itching
Ġ29 7
Ġsepar ates
Ġamazing ly
Ġrub y
Ġscoop ing
Ġconf etti
Ġ31 2
Ġ31 6
Ġx o
Ġpul ver
Ġpack ages
ruc ted
Ġ33 3
Ġ33 6
Ġ34 9
Ġcons um
Ġwork ed
Ġ55 5
Ġ39 6
Ġ38 0
Ġ38 7
Ġ38 8
Ġjam un
Ġlid s
Ġ41 9
Ġ43 4
Ġ47 1
Ġ47 3
he art
ci atore
Ġ48 5
Ġ49 6
Ġ49 8
Ġ44 1
Ġ54 8
Ġbeco ming
Ġstrain ed
Ġdeep ly
Ġem pan
Ġ65 9
Ġ56 7
Ġequ ipment
Ġ58 7
Ġabsor bs
Ġ200 8
Ġcard amon
Ġ68 0
Ġ68 9
Ġ72 6
Ġherb y
Ġ61 8
head s
Ġcoll ards
iv or
Ġ81 4
Ġcocktail s
alo ppine
Ġmon te
Ġ78 8
Ġlin es
Ġbul bs
Ġspl atter
Ġdecor ations
Ġchard onnay
Ġplac es
Ġaltern ative
Ġplantain s
Ġstre ngth
Ã¨ re
uk kah
Ġbrisk ly
Ġcres cents
Ġfeel s
Ġcounter top
Ġovercook ed
Ġcac ik
Ġcac ciatore
fl ank
Ġve in
Ġruss ian
Ġstrip es
Ġki elbas
Ġpass over
Ġgruy Ã¨re
Ġsilic on
Ġbeautif ully
igg ly
Ġko hlrabi
Ġmag n
Ġhun ks
Ġindent ations
Ġide ally
Ġsna il
Ġcarbon ated
Ġsubmer ged
Ġben ch
Ġswir led
Ġchiffon ade
Ġconcentr ated
ginger bread
Ġmu gs
ys is
Ġfle ur
Ġgul ab
Ġhang ing
Ġpersimmon s
hat tan
Ġthread s
Ġbrew ed
Ġtor ch
Ġstor age
Ġclement ines
tr iple
Ġmouth watering
smo ked
Ġmak hani
Ġtu pperware
Ġci abatta
Ġhan ukkah
Ġox tail
far ro
Ġmes quite
Ġwid th
angh on
Ġesc ape
Ġtrinid adian
Âº f
Ġot is
Ġpurch ased
span ish
Ġslash es
Ġdehydr ator
Ġpomo granate
Ġamar anth
Ġsubstant ial
tun a
Ġcul inary
Ġchant erell
Ġeff ect
Ġshaw arma
Ġasaf etida
Ġcalam ari
Ġanal ysis
Ġprof iteroles
Ġalex ander
Ġdisapp e
Ġtechni que
Ġcharmoul a
dut ch
gÃ¨ res
sou thern
Ġsot anghon
Ġselt zer
Ġcell ophan
Ġthou ght
Ġfiddle heads
arug ula
onst ructed
Ġhuck le
Ġspunk meyer
Ġsofr ito
ĠplÃ¡ tano
chipot le
Ġboenz li
Ġburgu ndy
Ġcellophan e
1 1
a ir
b it
b ack
b eet
b alsamic
c rou
c ap
c and
c ery
c abbage
c up
d or
d ried
d og
d ark
d ied
e pp
f ect
f rozen
f rench
h ood
h alloween
j u
j alap
j ambalay
k wa
l ate
m ashed
n ing
o ld
p eas
r d
r ipe
r hubarb
s day
s ia
s icated
t art
t ropical
u is
u ght
v ir
v age
w ards
x ible
y ogurt
y cle
z one
z ino
Å ĵ
Ġ ]
Ġa im
Ġa ust
Ġt ar
re active
Ġs ach
Ġs nacks
Ġs ipping
Ġc us
Ġc ycle
Ġo ctober
Ġo mit
es ive
Ġp amp
Ġf ut
Ġf eat
Ġf ain
Ġf eed
Ġb akes
Ġb and
Ġb ang
Ġb oul
Ġb Åĵ
Ġm m
Ġm ich
Ġm ong
Ġm acha
Ġm ats
ou ffee
ou ston
Ġw om
Ġw iggle
it ol
it oni
it ori
Ġd h
Ġd ie
Ġd ole
Ġd raw
Ġd rawn
al ent
ro le
or r
or kshire
Ġg ala
Ġg oose
Ġl atin
Ġl uis
Ġh y
Ġh ick
Ġh ouston
Ġco h
Ġin it
Ġin ten
Ġin ward
Ġy es
Ġch an
Ġch al
Ġch ases
Ġfor no
id o
id an
ent u
Ġsp ec
co t
Ġst if
Ġst amp
Ġda vid
dd ha
Ġun ref
Ġsa ving
Ġn ast
Ġpl un
Ġpl ating
ch ar
ch ili
ch atel
Ġsu pp
if ruit
Ġj ans
Ġj oe
Ġle ak
ge lla
Ġwe ed
Ġsh ut
Ġsh oo
Ġsh ade
Ġsh eep
Ġsh ield
Ġsh ao
Ġsh aring
Ġsh adow
Ġju s
ap ore
ap ricot
ap chae
ab ag
Ġdes icc
Ġdes sicated
Ġchicken s
Ġover bake
Ġcr is
lic ious
Ġcal zone
li ed
mo gen
Ġro cks
av ash
Ġan ti
Ġapp tit
Ġcho sen
Ġ45 6
Ġpot luck
Ġcu red
Ġk ef
Ġk cal
Ġcont r
Ġfood net
ag ie
Ġgood ness
Ġminer al
ist ered
Ġbo at
Ġbo ston
Ġbo died
Ġmo ments
Ġbl istered
ol or
ol ian
ol ati
ra id
Ġout s
Ġ30 1
Ġ30 6
Ġcut let
Ġoption s
Ġ15 2
Ġ15 8
Ġchil ly
Ġgo chu
Ġz epp
un ity
art i
Ġcould nt
Ġbeef steak
Ġsc aloppine
Ġprim aver
Ġhit s
Ġhot dog
Ġhigh er
pl us
pl ace
os es
Ġhoney ed
Ġwor th
Ġman age
per fect
Ġsmoo ther
Ġsmooth ing
Ġturn ip
Ġtablespoon ful
Ġfill ings
Ġear ly
Ġthey ve
Ġme als
âĢ ĵ
Ġ40 2
Ġ40 6
Ġ40 8
Ġ25 9
so ft
Ġchill is
Ġtot s
Ġallow s
Ġ11 8
Ġrefriger ating
Ġ18 9
Ġlo ad
Ġlo ver
Ġlo cal
Ġlo vage
Ġoff set
Ġam cho
Ġam bro
Ġfr ache
Ġfr ames
ell o
Ġ14 7
Ġ14 8
Ġ37 2
Ġbur sts
Ġoat cakes
Ġflavor ings
Ġliqu ef
aw al
Ġ32 2
Ġ32 8
Ġspic iness
na ils
Ġaf role
Ġaf raid
Ġ17 8
Ġfoil s
sp iced
sal t
Ġcl ay
izz le
Ġnon reactive
Ġpin enuts
Ġpat h
Ġpizz an
Ġ50 1
Ġ50 5
Ġ50 6
Ġ42 6
Ġmac au
Ġcub an
Ġsur pr
Ġ28 4
Ġsw izzle
Ġ29 8
sel back
Ġcol by
Ġne uf
Ġsepar ating
Ġar ran
Ġ36 7
Ġgu ide
Ġcap e
Ġwho ppers
Ġind ic
Ġho mogen
Ġhow ever
Ġ34 2
Ġ34 8
Ġpeach y
Ġwork able
Ġ55 1
Ġ39 4
oc ks
Ġ43 0
Ġ47 4
Ġcolor ful
Ġarr abi
Ġ46 2
Ġ48 3
Ġ48 7
Ġ49 0
Ġ52 3
Ġ52 8
Ġ54 4
Ġfil o
Ġpull s
Ġskew ars
Ġbu itoni
Ġbu ddha
Ġsquee zed
Ġsummer y
Ġ57 4
Ġ57 5
Ġequ iv
Ġ59 6
Ġ58 0
Ġhard ened
Ġ53 6
Ġ53 8
Ġ51 4
Ġ51 7
Ġ70 1
Ġfourth s
Ġnectar ines
Ġhumm ingbird
Ġ76 2
Ġpr aline
Ġlad led
Ġjo int
Ġhelp ed
Ġmeas ured
Ġ62 0
Ġ62 4
Ġsec s
Ġ90 7
gu inness
pes to
Ġ73 2
Ġ73 7
Ġlength ways
Ġbran zino
Ġfall en
Ġ74 2
Ġ74 7
Ġclose ly
Ġcurd led
Ġaltern ate
Ġthermo mix
Ġsmoke house
Ġstre aks
Ġpier cing
pro sciutto
Ġsaff lower
Ġcarbohydr ates
su gar
Ġfe ast
Ġturno ver
Ġtab oola
Ġcrou ton
Ġjul es
Ġfeel ing
Ġslid ing
Ġchar les
Ġsil pat
Ġshir ley
Ġgorgonz olan
bab y
Ġpa ula
Ġflo or
Ġmort al
Ġtrif olati
Ġlob ia
Ġet ouffee
Ġheap ed
Ġid eas
Ġstra nds
Ġglo be
Ġchurn ing
Ġsomet imes
Ġple at
Ġple as
Ġsna ils
Ġpri ze
Ġdet ail
Ġgou gÃ¨res
Ġcrystalli ze
Ġtim ing
Ġsard inas
Ġund rained
Ġplan ks
Ġxanth am
Ġmal t
Ġcaliforn ian
Ġce lebr
Ġfle cks
Ġfle xible
Ġni gella
Ġsuperf ine
Ġswitch el
Ġgingersn ap
Ġtri vet
Ġcam ar
Ġflor idan
uri ous
Ġhorizont al
Ġsamb ar
Ġsugges tions
Ġtru e
Ġchap chae
Ġkiss es
Ġchall ah
Ġhan out
Ġfu ji
Ġwhirl s
Ġsuffic ient
Ġsuffic iently
Ġkar o
Ġkabo bs
Ġkabo cha
Ġbenef it
Ġbenef its
Ġoo ey
Ġbull ion
Ġyak hni
Ġtra il
Ġslab s
Ġcourget te
Ġscal d
Ġimmer se
Ġrapid ly
Ġmandol ine
Ġbac alhau
Ġga jar
Ġhu ge
Ġinn ards
Ġster il
Ġpresent ation
Ġfant astic
Ġrell eno
Ġoverf low
Ġblan co
Ġchallen ge
fen nel
south west
wur st
Ġpk t
onom iyaki
Ġwall s
Ġstur dy
Ġnar row
ols ot
Ġcarn itas
Ġzu ppa
ĠpiÃ± a
Ġmacer ate
ivor acious
Ġkielbas a
Ġmagn ific
Ġchanterell es
Ġhuckle berry
cand ied
jalap eno
jambalay a
Ġpamp ered
Ġfut ure
Ġfeat ured
Ġboul ettes
ĠbÅĵ uf
Ġmong olian
Ġluis iana
Ġhick ory
Ġstif fer
Ġplun ge
Ġdesicc ated
Ġkef ir
Ġfoodnet work
Ġzepp ole
Ġprimaver a
Ġamcho or
Ġambro sia
Ġafrole ms
Ġneuf chatel
Ġarrabi ata
Ġequiv alent
2 0
3 3
3 8
4 2
4 7
a et
a el
b bles
b arb
b rie
c as
c ru
c ilantro
c ucumber
d u
d ate
d ulce
e el
e aster
e ven
e lek
f il
f ood
f ace
f ried
f etti
f oc
f oot
g a
g l
g ra
g laz
g ots
h ound
h umm
i ally
i bly
i use
i otic
j ang
k i
k k
k as
k ick
l is
l ay
l ined
l Ã©
m ic
m arr
m iso
o at
o or
o iled
p ine
p ans
p ink
p enne
r ustic
s im
s co
s esame
s ky
t z
t es
t ow
t bs
t able
u dd
u el
v itz
v iew
w or
w inter
x ocai
z le
z ette
Ã ¢
Ġ ile
Ġa in
Ġt ies
Ġt run
re ro
re st
Ġs on
Ġs ite
Ġs ort
Ġs ucc
er man
Ġo elek
nd on
nd ido
es es
Ġp um
Ġp its
Ġp asses
Ġf ies
Ġf ag
Ġb ust
Ġm a
Ġm atter
Ġm aster
Ġm oons
Ġm ention
ou mi
Ġthe res
ing ered
is ers
at app
Ġw ring
Ġw rink
Ġw iggly
il di
an as
an fer
an zan
en aise
Ġre warm
Ġre using
Ġre eses
Ġto kwa
Ġd om
Ġd ue
Ġd illy
Ġd unk
al y
al ie
al mic
ic ul
ed ish
ro l
ro se
or able
or rain
Ġg e
Ġg our
Ġg ame
Ġg row
Ġg iuse
Ġg ingered
Ġl an
Ġl uc
Ġl ab
Ġl and
Ġl one
Ġl azy
Ġl avash
Ġl orrain
Ġh at
Ġh all
Ġh ors
Ġh ens
Ġh ence
ac ute
Ġco red
Ġco ach
Ġco ndiments
Ġco ca
Ġin terior
Ġy orkshire
Ġch anges
Ġch ance
Ġyou ng
Ġu r
Ġu don
Ġmin or
Ġe a
th or
th ree
im ate
Ġit aly
id ate
id ant
id ity
to s
ent al
ent uck
Ġsp in
Ġsp ill
Ġsp ik
Ġsp aet
ly n
co coa
oo ks
ion ally
Ġpe king
Ġpe bbles
Ġmi r
ood le
ick erdood
Ġun less
Ġun si
Ġun even
Ġun oiled
Ġveg enaise
Ġmix es
ian t
til ly
Ġn ic
Ġn ine
Ġn ame
Ġso pping
Ġso cks
Ġpl op
ch er
ch on
ch eddar
ch orizo
ch itos
ch marr
Ġwh ir
gg is
Ġfro th
Ġsu its
Ġsu zette
Ġha ggis
Ġfl ipped
if i
Ġper du
Ġj anuary
Ġle bo
rou s
ge res
ge ous
Ġwe lco
rot isserie
res her
Ġsh oy
Ġsh een
Ġsh ots
ay a
Ġsauce pot
Ġsim pl
Ġju d
ur gh
ap ol
ap ril
Ġli ving
Ġas sor
Ġdes cri
Ġse qu
Ġse ep
Ġse lect
ach ino
Ġover heat
Ġover top
Ġover load
Ġover ripe
Ġcr af
Ġcr ud
Ġcr iss
Ġbow el
Ġpan try
Ġcan es
Ġro sa
Ġro man
wn y
Ġan go
Ġup on
Ġ45 9
Ġk ash
Ġk ata
Ġk esar
Ġk entuck
Ġgr atine
Ġcont ess
Ġcont rol
ber t
Ġfood ie
Ġlik es
ag ing
Ġdec onstructed
Ġpar boiled
Ġal ot
Ġbo b
Ġmo cktail
Ġex c
Ġhas s
Ġhas selback
Ġsl urry
Ġgre n
Ġgre asing
Ġbl ast
Ġbl ank
Ġcake y
Ġcar am
Ġ30 3
Ġde en
Ġsk illed
Ġsoup y
Ġcut out
Ġcorn ish
iz ing
Ġ20 2
Ġ20 7
Ġtr ust
Ġtr anfer
ig ata
Ġginger dood
Ġroast er
Ġroll er
igh bor
Ġmar bella
Ġmar achino
Ġag u
Ġim am
Ġqu ince
Ġble ed
Ġpro m
Ġpro ble
Ġmel anzan
af rican
Ġsqu irt
Ġpers ian
Ġblack out
Ġblack ened
Ġskillet s
Ġwor ries
Ġsaut ing
Ġdr ape
az ine
Ġi acute
Ġfill er
Ġref resher
Ġbr ick
Ġbr ined
Ġcrum bed
Ġsoft ens
Ġ25 6
Ġrat io
pan elle
Ġzest y
Ġlo ndon
Ġthrough ly
Ġche er
Ġpo pping
Ġpo king
Ġread ing
Ġfr ang
Ġcrack ing
Ġwal dor
Ġdrizz ling
Ġball er
Ġtoast ing
Ġbay ildi
Ġturkey s
aw a
Ġfir mer
Ġfish erman
Ġ19 1
Ġcontin ually
Ġwant ed
Ġ22 8
Ġmint s
Ġliquid y
Ġfrost y
Ġhor ns
Ġdelicious ly
Ġdelicious ness
Ġsuper mark
Ġshred d
Ġlight en
bl t
Ġcl ub
Ġmed ley
Ġpapri kan
Ġpast as
Ġpast icc
Ġexce ption
Ġshort ribs
Ġ50 4
Ġ26 1
Ġhome october
Ġmac chi
Ġ27 3
Ġ27 6
Ġ27 7
plant ain
ĠâĢ ¢
Ġround up
Ġsand ies
Ġ28 6
amb as
Ġcakes py
Ġad orable
Ġ29 0
Ġ29 2
Ġne ighbor
Ġperf ection
Ġ36 6
Ġ31 9
tur kish
Ġx ob
Ġx yl
Ġho agie
Ġpul oa
Ġpack aging
Ġ33 1
Ġ33 9
Ġrun s
Ġskin ned
Ġric er
Ġwra pping
Ġdiv iding
Ġscrap ed
Ġretur ns
Ġ55 3
Ġ55 4
Ġ55 6
Ġ55 9
Ġ39 5
Ġ39 9
Ġap ril
Ġ38 3
Ġ38 9
Ġsn ug
Ġsit s
Ġ41 1
Ġfirm ed
Ġ43 2
Ġ43 8
Ġbun ny
Ġ60 0
Ġ60 3
pot ato
nch y
Ġdou bles
Ġ46 0
Ġ46 6
Ġ48 0
Ġ48 9
Ġ49 5
Ġcrush ing
Ġ44 9
Ġ52 5
Ġ54 6
Ġ54 9
Ġfil tered
pt ember
Ġdef late
Ġ65 0
Ġ65 6
part y
Ġwood y
Ġ56 5
Ġ57 1
Ġ58 3
Ġ53 7
Ġ53 9
Ġ51 3
Ġ200 3
Ġ200 6
Ġgel atine
ĠĠĠĠ ĠĠĠĠ
Ġ68 7
Ġburn ers
Ġ75 4
Ã© s
Ġ64 1
Ġ64 3
Ġ61 4
Ġ69 1
Ġ69 8
Ġpoint y
pe eled
jun e
Ġ63 4
Ġcoll ected
Ġatt ention
Ġflatten ing
gu est
oul et
Ġmost acc
Ġ88 1
Ġmargar itas
Ġpal ace
Ġ96 8
Ġtrim med
Ġplant s
Ġnutr ition
Ġsing apore
Ġcrunch ies
Ġprev ious
Ġcurd s
Ġspl utter
Ġdecor ation
Ġ85 8
Ġmil der
Ġposs ibly
Ġensure s
Ġfrit o
Ġweek day
meat ball
Ġok onomiyaki
lemon y
Ġstarch y
Ġtest s
Ġtik kan
can a
can nellini
Ġgor geous
Ġsil ver
Ġstack ed
Ġla id
Ġpip ed
Ġfire crack
Ġgrand e
Ġfun fetti
Ġflo ating
ult imate
Ġsuc cot
Ġtag li
Ġavoid ing
Ġfra ppuccino
Ġburr ata
Ġbisco chitos
Ġbenedict ine
Ġspiral izer
Ġvar ies
Ġid lis
Ġnorm a
almo st
lot te
Ġhun k
sn ickerdood
Ġkiw ifruit
Ġcryst als
bow l
Ġface book
Ġcall s
Ġversion s
Ġta pping
Ġsang r
ipan e
od a
Ġsna ppy
Ġbird s
Ġbutterf lied
br ussels
Ġcass oulet
Ġben eath
Ġ199 9
van ian
Ġsard ines
yl vanian
ox idant
Ġaj illo
Ġcam panelle
Ġpoin ted
Ġgrou per
Ġresul ting
Ġmul berries
Ġlim one
Ġgrey hound
ref reshing
Ġmad ame
Ġgho sts
Ġdecad ence
Ġfizz y
Ġchang ing
sw iss
Ġox id
Ġkar ahi
Ġbagel s
fo il
Ġmeet s
Ġhum idity
Ġyak itori
Ġtat aki
Ġhop e
lect able
Ġbelg ian
Ġbelg ium
ste amed
Ġkumqu at
Ġkumqu ats
Ã³ n
Ġsult anas
Ġbree zy
Ġepic urious
Ġresid ue
pepper mint
Ġflorent ine
Ġpak oda
Ġpas sed
Ġpim ien
Ġyuc a
Ġunt ill
Ġwhist le
Ġclar ified
Ġemuls ified
Ġvariet y
oss ible
Ġpig s
Ġmull igata
Ġlive ly
Ġzipp y
Ġxo colate
heart y
crou te
ught y
Ġaim ing
Ġtar get
Ġsach et
Ġmich ael
Ġwom an
Ġgoose berry
Ġhy dr
Ġcoh esive
Ġchal et
Ġunref ined
Ġjans son
Ġanti oxidant
Ġouts ides
Ġliquef ied
Ġsurpr ise
Ġcamar ones
Ġmagnific ent
barb ec
cru nchy
foc accia
glaz ed
lay ered
oat meal
tow el
Ġpum kin
Ġfies ta
Ġfag ioli
Ġbust er
isers chmarr
atapp i
icul ously
Ġgiuse ppe
Ġlorrain e
Ġhall oumi
Ġspik ed
Ġspaet zle
Ġunsi ghtly
Ġlebo vitz
Ġshoy u
apol itan
Ġassor ted
Ġcraf t
Ġkata ifi
Ġkentuck y
Ġgratine e
Ġcontess a
Ġblank et
Ġgingerdood le
Ġmelanzan e
Ġfrang ipane
Ġwaldor f
Ġmacchi ato
Ġxob iotic
Ġxyl itol
Ġsnug ly
Ġmostacc ioli
Ġfirecrack er
Ġsuccot ash
Ġmulligata wny
iserschmarr n
2 2
9 9
a ello
b ian
b uch
b urger
c re
c ate
c ise
c ider
c que
c acc
d in
d iv
d runken
d inary
e g
e ge
e essary
f ter
f all
f ire
f oods
f ig
g ot
g ant
g irl
g atoni
h our
h igh
h ature
h ibiscus
i ac
i ade
i ata
i ggiano
j ou
j et
j ee
l in
l it
l en
l ion
l uscious
m en
m ac
m ould
m iri
m unity
n es
n ge
n ik
o ha
p b
p owd
p ol
p int
p ea
p ier
r r
r at
r id
r ine
r ific
r Ã³
s at
s ian
s als
s berry
t ar
t age
t ort
t sp
t led
t rin
v ar
v ide
v ious
v ates
w eed
y ou
y pe
y ond
z es
Ġ ut
Ġa ver
Ġa gar
Ġt s
Ġt Ãº
in to
in ato
re an
re po
Ġs ate
Ġs itting
er ing
er ve
er iac
Ġc ure
Ġc li
Ġc ado
Ġc abb
Ġth ur
Ġth om
Ġth inness
Ġp c
Ġp age
Ġp ung
Ġp iment
Ġf t
Ġf ist
Ġf are
Ġf ib
Ġf eather
Ġf idget
Ġb f
Ġb at
Ġb akery
Ġb Ã©
Ġb ongs
Ġb tw
Ġb hature
Ġm ing
Ġm ice
Ġm ile
Ġm ud
Ġm ater
Ġm agg
Ġm urgh
ar ash
ar roz
is sed
is coll
at ted
on a
il st
it ef
an go
en ned
Ġre lo
Ġre min
Ġre view
ut es
ut ral
Ġd ing
Ġd ices
Ġd ipp
Ġd ull
Ġd ata
Ġd anc
Ġd aring
Ġd olsot
al an
al ed
al di
ic or
ic ular
ic let
ic olor
Ġg t
Ġg irl
Ġg au
Ġg ambas
ip ro
Ġl ed
Ġl ip
Ġl akes
Ġl est
Ġl imp
Ġl icor
Ġh el
as uri
Ġrec ently
ac ity
Ġco st
Ġco bs
Ġco cacc
et as
Ġin vest
Ġy ams
Ġy ok
Ġch a
Ġch i
Ġch ic
Ġch ew
Ġch ee
ll e
Ġfor th
Ġfor ward
Ġfor got
le ed
Ġmin is
ad ziki
Ġe mer
Ġe bb
th s
th est
im inate
Ġsp ell
Ġsp agh
Ġsp heres
co py
co mb
Ġbe ur
Ġbe yond
gh um
red ded
Ġminutes or
Ġst ages
Ġst orm
Ġst udd
ings ep
Ġmi repo
Ġr ush
Ġr ave
st ura
ill iant
ast y
ast ery
Ġun i
Ġun cle
Ġun peeled
Ġun lit
Ġun mould
Ġsa ver
Ġsa pa
ul g
um es
um vir
gar u
gar licky
Ġn ail
Ġso ld
Ġso med
Ġso fter
Ġpl ated
Ġcook ingsep
ch es
ch an
ch ef
ch ee
ch ive
ch ristmas
ch ewy
Ġwh ey
Ġwh iz
Ġwh ilst
Ġwh itef
gg les
Ġfro gs
Ġsu rim
Ġsu ppos
Ġcon e
qu illo
if li
Ġper iso
Ġper no
Ġj ose
Ġj aff
Ġj ava
Ġj ones
Ġv ans
Ġv iol
Ġyour s
Ġor dinary
ir ish
ese an
Ġle ar
Ġle chon
Ġwe igh
Ġwe ird
Ġmake over
ri gatoni
Ġsh or
Ġsh ack
Ġsh ave
Ġsh ared
Ġsh agg
Ġsh itake
Ġsh angh
ay fish
el ve
el ain
Ġare n
ap er
ap oor
Ġegg y
Ġinto ler
ab ais
Ġcre ates
Ġcre ative
Ġcre ations
Ġover ly
Ġover brown
op ian
Ġcr acks
Ġcr ayfish
Ġcal c
Ġprot ect
li er
mo ms
Ġwat t
Ġcan ada
Ġcan cel
Ġcan ning
Ġcheese burger
Ġfo l
Ġro jo
ire ct
Ġlacto se
wn up
Ġan jou
Ġcho i
Ġ45 2
Ġ45 3
Ġ45 8
Ġpot ted
Ġpot tage
Ġcom mon
Ġcom pan
Ġk ab
Ġk ra
Ġk issed
Ġk asuri
Ġk ifli
Ġk apoor
Ġgr av
Ġcont am
Ġcont act
Ġby aldi
Ġpar cel
ff aello
Ġtomato e
Ġal oha
Ġbo ther
Ġsto res
Ġremo val
Ġhe el
Ġsl ather
Ġgre as
Ġgre cque
Ġbl ac
Ġbl ini
Ġbl ind
Ġcomb o
Ġcar ib
Ġmilk s
ef ully
uff y
Ġpotato e
Ġset t
ess ity
Ġtur bo
Ġte nds
Ġop ened
Ġde ad
get table
ger ian
ger man
Ġsk ipped
Ġbread ing
est yle
Ġoption ally
iz ation
Ġsmall ish
Ġsear ing
Ġgo an
Ġgo ggles
Ġz ig
un j
Ġtr ash
Ġtr icolor
are st
Ġen crust
ee k
Ġste ams
Ġseason al
Ġonions heat
Ġdiet hood
Ġginger y
Ġroast s
Ġroll up
Ġ35 2
Ġlike ly
Ġmar s
Ġmar ry
Ġim ages
Ġpro ces
ive ly
Ġsweet bread
Ġmeat y
Ġpi quillo
Ġbas es
Ġbas almic
Ġhigh est
Ġman hattan
Ġdr ips
Ġdr iscoll
Ġgrill ers
zz led
Ġparm iggiano
Ġparm esean
Ġfill s
Ġear lier
Ġtrans form
Ġtrans ylvanian
Ġ40 9
Ġcooking m
Ġice box
Ġbr ings
Ġtender izer
Ġclo ser
Ġtw elve
Ġpaper towel
Ġsoft ly
ass ionally
Ġ25 5
Ġallow ed
Ġrefriger ation
pan ko
Ġimp ossible
Ġlo ll
Ġlo ves
Ġstick er
Ġbatter s
Ġbean cur
Ġam char
Ġchees iest
Ġ24 1
Ġloo ses
Ġcel eriac
Ġcrack ling
Ġmay an
Ġ14 2
Ġ14 29
Ġcran ks
Ġ37 3
Ġmarin ating
Ġmarin aded
Ġsea weed
Ġcrisp ier
Ġinst rum
Ġ32 1
Ġglaz ing
Ġ19 4
Ġcent im
sh redded
Ġfold s
Ġspic ier
Ġteaspoon ful
Ġdelic ate
Ġ22 2
abb iata
Ġmint y
Ġ21 1
Ġes cal
Ġno se
Ġher o
Ġmango licious
Ġshred ed
Ġclean ing
Ġcas ein
Ġlot us
Ġfet ta
Ġpeel s
Ġkn ishes
Ġkn orr
Ġpin tere
Ġcro que
Ġleaf y
Ġshort crust
Ġ50 2
Ġ50 8
Ġ42 7
Ġbag nat
Ġhome april
Ġthicken ing
Ġoccasion s
Ġcuis ipro
ĠâĢ ¦
Ġdark en
Ġdark ened
Ġlett uc
Ġra ffaello
iter rean
Ġsw as
Ġsw ell
Ġsw edish
Ġne apolitan
Ġne utral
Ġne arest
Ġsepar ated
Ġpink y
Ġcand le
Ġcand idate
Ġperf ume
Ġ36 3
Ġ36 4
Ġcap acity
Ġfruit y
Ġ31 3
Ġ31 4
tur n
Ġind irect
Ġart iclet
Ġpul sed
ett ini
Ġbeg un
Ġ34 4
ep s
Ġric her
Ġbra ve
Ġbra ided
cho pped
Ġres et
enc ian
Ġwork bowl
Ġdirec tion
ail le
Ġtremendous ly
Ġ55 51
Ġ39 1
Ġ39 3
Ġmic ro
Ġconsist ently
Ġmicrow aving
Ġmacar oon
Ġtsp s
Ġ41 8
Ġ43 9
Ġtin es
Ġtin foil
Ġ60 5
Ġ60 6
Ġele gant
Ġele vates
Ġwil tion
Ġpart icular
Ġdou x
Ġ46 7
Ġ46 9
ci ated
Ġ48 4
Ġ49 2
Ġ49 7
Ġ49 9
Ġ44 6
Ġ52 2
Ġ54 0
Ġ54 3
Ġ54 5
Ġancho iade
Ġexp ress
Ġdef atted
Ġver ment
Ġnec eessary
Ġnec essity
ca jet
Ġknead ed
Ġ56 1
Ġ56 2
Ġ56 3
Ġ56 9
Ġsummer time
Ġ57 0
Ġ57 7
Ġ57 9
Ġ59 2
Ġ58 5
Ġhard ly
Ġ53 3
Ġ53 5
gr ate
Ġ51 0
Ġfavor ites
Ġ200 2
Ġherb age
Ġrot el
Ġcardamom s
Ġ61 0
Ġpop tart
Ġpoint ing
Ġpound s
Ġ63 6
Ġ63 8
Ġ67 2
Ġ67 8
Ġopen ing
Ġ93 2
Ġ83 5
Ġhold ers
Ġel iminate
de v
Ġhelp ing
Ġ62 1
Ġsec uring
Ġgh ana
Ġ89 5
gu acamole
Ġmol cajet
Ġ81 9
Ġpal ette
Ġroot s
Ġent re
Ġ91 0
Ġ91 9
Ġfar thest
Ġbul gar
Ġmer ingu
Ġ84 1
Ġrav a
Ġrav an
amp le
Ġladle fuls
Ġ80 3
Ġ85 9
Ġlump ia
Ġval ley
Ġprevent ing
tang y
Ġsnow peas
ĠÂ ¾
Ġshap ing
Ã¨ vre
Ġkr is
pro cess
Ġfrit atta
car olina
Ġskim ming
corn meal
Ġbou din
Ġpil au
Ġtost ada
Ġcav atappi
mber t
Ġcast or
Ġflav oured
Ġtik kas
Ġbud s
can al
Ġbru leed
Ġsor ghum
Ġmus cat
Ġger main
Ġnat alie
cha un
Ġbourguignon ne
Ġchar lotte
Ġna ughty
Ġdev our
Ġdev ice
Ġstack ing
Ġresem bling
te mber
Ġla unch
bro iled
Ġmeasure s
Ġbagu ettes
mal ai
ori ental
Ġdid nt
Ġstop s
Ġint roduce
fl our
fl uffy
Ġaro mas
Ġbare foot
Ġtos cana
Ġblo gg
Ġmound ing
Ġsauc er
Ġabsorb ing
Ġreheat ed
Ġthumb nails
Ġproof ing
Ġporc elain
Ġcontinu es
Ġpush ing
Ġmatch an
lee k
hi opian
Ġfac ial
Ġconge aled
Ġthink ing
Ġ201 0
Ġ201 4
Ġphoto s
Ġhollow ing
Ġhollow ed
chees ecake
Ġkiw is
Ġpower house
Ġseam less
Ġ125 4
quet aille
Ġta u
Ġta pped
Ġple ated
Ġple ating
Ġhouse moms
Ġide al
Ġpri v
Ġbot tled
Ġgou geres
Ġbutterf inger
Ġcarbon ade
Ġmandar ins
Ġflut e
Ġ199 4
Ġ199 5
Ġrid ged
Ġrid iculously
Ġsan jee
Ġgather ing
mol asses
Ġcomfort ably
Ġ101 5
Ġaged ashi
rock y
Ġseg ment
Ġcrowd ing
butter milk
brown ie
min estrone
min utes
Ġob vious
Ġmah arash
cur ry
Ġgul f
Ġcornfl akes
Ġguest s
Ġfer n
Ġfer rero
Ġdro pping
Ġnor thern
Ġang le
Ġflatbread s
oli ve
Ġtri o
Ġtri umvir
Ġsi u
Ġheav ily
Ġdevelop ed
Ġescar gots
Ġfingert ip
Ġjuli enned
ram id
tr ian
Ġmul ti
Ġeight s
Ġ105 3
Ġ111 2
Ġadh ered
Ġresist ance
Ġcer tain
Ġspark ler
Ġoverhang ing
Ġcomp act
Ġsink ing
smo ky
Ġgy nge
Ġsouff lÃ©
Ġci gar
Ġpy ramid
Ġka iserschmarrn
Ġenc our
Ġenc lo
Ġ119 1
Ġfu ndido
Ġdam aged
Ġbrook lyn
Ġken ny
Ġ103 5
Ġsnickerdood les
citrus y
Ġcylind ers
far falle
Ġbull et
Ġmalay sian
Ġwid est
Ġlit re
Ġhum ba
Ġincredible egg
Ġpouch es
Ġtrinid ad
Ġsel ter
Ġcamp bell
Ġcamp fire
Ġboo zy
Ġhop efully
Ġchou croute
Ġcourget tes
Ġimmer sed
Ġ216 9
Ġmandol in
Ġdraft s
Ġsult ana
Ġlif ted
Ġlif estyle
Ġass am
Ġ359 51
Ġmary land
Ġburst ing
Ġresid ual
Ġmicrowav ed
Ġmicrowav able
Ġflorent ines
Ġcame mbert
Ġboysen berry
Ġboysen berries
Ġenvelop e
Ġenvelop es
Ġproduc t
Ġarg entine
cd ata
squ ash
Ġpen ang
Ġfri zzled
Ġbah arat
Ġunfor gettable
Ġhav arti
Ġhapp en
Ġkom buch
Ġincis ions
Ġclass y
Ġpulver ized
Ġconsum ed
Ġempan ada
Ġdisappe ared
cup s
sday s
Ġ] ]
Ġaust rian
Ġfain t
Ġchan tilly
Ġshoo ts
Ġshadow s
abag lion
Ġgochu garu
Ġclay pot
Ġindic ates
Ġcharles ton
Ġoverflow ing
humm us
pine apple
wor ld
Ġtrun g
Ġmaster foods
Ġwrink ly
Ġgour d
Ġluc ia
Ġmir ch
Ġnic oise
Ġjud ging
Ġango stura
Ġkash miri
Ġcaram alized
Ġproble m
Ġshredd ing
snickerdood le
Ġoxid ization
Ġhydr ated
Ġpumkin y
hour s
powd ered
pint ere
sals a
trin id
Ġut il
ĠtÃº rÃ³
Ġsate ay
Ġcli que
Ġcabb ages
Ġthur sdays
Ġpung ent
Ġfare nheit
ĠbÃ© chamel
Ġmater ial
Ġmagg i
Ġrelo cate
Ġdipp ers
Ġgau ge
Ġlicor ice
Ġcocacc ino
Ġyok e
Ġebb itt
Ġspagh ettini
copy cat
Ġbeur re
Ġstorm y
Ġstudd ed
Ġmirepo ix
Ġsomed ay
Ġcookingsep tember
Ġwhitef ish
Ġsurim i
Ġsuppos ed
Ġperiso are
Ġperno d
Ġjose ph
Ġshagg y
Ġshangh ai
Ġintoler ant
abais se
Ġcompan y
Ġkra ft
Ġcarib bean
Ġencrust ed
Ġproces sing
Ġdriscoll sberry
Ġbeancur d
Ġinstrum ent
Ġescal op
Ġarticlet ype
Ġpoptart s
Ġmolcajet e
Ġmeringu es
Ġsanjee v
Ġmaharash trian
Ġtriumvir ate
Ġgynge ll
abaglion e
2 1
2 7
4 0
5 0
5 3
a ho
b i
b our
b eat
b lic
b ites
c ube
d ou
d ream
e m
e ve
e ous
e ecake
f ive
f ruit
f rost
g i
g ry
g ain
g ie
g lish
g umes
h n
h ou
h um
h ur
h ale
h ere
h aw
h eck
h oliday
h aps
i ver
i el
i ardi
j ade
j ean
j uv
k n
k itchen
k ien
l c
l ies
l us
l ime
m ar
m ings
m art
m atch
m ussels
n or
n ag
n oodle
o h
o sing
o ff
p ow
p rot
p istach
p ita
r ams
r asco
s il
s our
s ec
s ure
s erves
s ol
s oup
s ard
s cr
s cotch
t or
t ini
t uscan
t bsp
u it
u ro
u ry
u gar
u ine
u ation
u ghter
v it
v ice
v uel
w c
w ell
w ind
w eek
x ing
y ard
z a
z omppa
z uma
Ã ¬
Ã Ĺ
Ġ \
Ġ nd
Ġ est
Ġa is
Ġa li
Ġa while
Ġa iol
Ġt ide
Ġt rout
Ġt aken
in er
in ded
re nt
Ġs f
Ġs in
Ġs ip
Ġs ac
Ġs ake
Ġs um
Ġs ne
Ġs ister
er red
er by
Ġc age
Ġc sa
Ġth ro
Ġth ru
Ġo mitting
nd ma
es ca
Ġp ate
Ġp ay
Ġp uts
Ġp are
Ġp ries
Ġp ump
Ġp acks
Ġp opular
Ġf ou
Ġf uss
Ġand d
Ġb us
Ġb ist
Ġb ump
Ġm ou
Ġm im
Ġm id
Ġm am
Ġm ate
Ġm itch
Ġm ult
Ġm mm
Ġm abo
Ġm awa
Ġm wc
Ġm Ã¬
ar ini
ar oni
is an
is red
is ce
is ado
at ins
at ie
at ia
on ion
on ents
Ġw r
Ġw in
Ġw it
Ġw ake
Ġw est
Ġw isk
Ġw ider
Ġw estern
il og
il ton
it al
an ade
an ger
an ks
en chilad
en ating
en glish
Ġre t
Ġre hydr
Ġre juv
Ġre wind
Ġto ld
Ġto ol
Ġd im
Ġd ale
Ġd sh
Ġd ung
Ġd ales
Ġd ugu
Ġd oses
Ġd sky
Ġd erby
al t
al er
al ia
ic ing
ic al
ic irc
ro is
ro ast
ro cery
or ge
or man
Ġg ap
ak ia
Ġl op
Ġl atter
Ġl ame
Ġl Ã©
Ġl anc
Ġl cd
Ġh i
Ġh ip
Ġh im
Ġh oo
Ġh sing
Ġh ok
Ġh ong
Ġh urry
as sing
Ġrec heck
ac y
ac ake
ac ate
ac tion
Ġco co
et a
et own
Ġin vol
Ġin te
Ġin hale
Ġy umm
Ġch ese
Ġch ino
Ġch ori
Ġch vre
Ġch Ã¨vre
ll en
ll ab
Ġfor ce
le ast
Ġu sa
Ġu lek
ow tor
ad illa
ad itional
Ġe ast
Ġe igh
Ġe atin
Ġe gi
im bo
im adas
uc ture
uc ial
to t
to re
to len
am ing
am aret
ent an
ĠS tore
Ġsp e
co m
co ction
co astal
Ġbe li
Ġbe asty
gh off
pp ie
Ġis h
red do
ot ion
Ġminutes stir
Ġst ap
Ġst ud
Ġst ress
Ġst ilton
Ġmi a
veg gie
Ġda ughter
Ġsal ata
Ġcoo per
Ġr u
Ġr ut
st ep
st ewy
ick pea
Ġadd ict
Ġun lo
Ġun fl
Ġun fo
Ġun sure
Ġsa w
ul as
um ulated
Ġn as
Ġn et
Ġn if
Ġn anan
Ġn ature
Ġn ama
Ġso ap
Ġso cc
Ġso br
Ġpl anch
ch un
ch avrie
ch apchae
ch ickpea
Ġwh isp
gg ing
Ġsu p
Ġsu pper
Ġsu ns
Ġsu pr
Ġbut cher
Ġha ven
Ġpre m
Ġpre so
Ġpre cious
Ġpre bake
Ġpre cise
Ġsalt s
Ġsalt imbo
qu ipe
Ġfl ay
Ġfl ag
Ġfl ash
Ġfl are
Ġfl atter
Ġfl ames
if ies
if reddo
Ġper uv
Ġper haps
se ly
Ġj j
Ġj ade
Ġj amon
Ġj apchae
Ġv ib
ir able
Ġle ach
Ġle pre
Ġwe b
ri vel
ri bean
Ġbutter chicken
Ġsh ine
Ġsh op
Ġsh ards
Ġsh eer
Ġsh ears
Ġsh anks
Ġsh rivel
Ġov als
Ġsauce ingredients
Ġsauce pans
el ent
Ġsim one
Ġju n
Ġare nt
Ġare quipe
Ġheat h
Ġheat add
Ġspoon ing
Ġspoon ed
Ġli e
Ġas h
Ġab and
Ġab sol
ab a
ab one
ab ama
Ġdes erve
Ġse itan
ach i
Ġover do
Ġover beat
op ted
Ġcr ucial
Ġcal f
Ġgar lc
li ghtly
mo date
ack y
Ġcan ton
Ġfo ams
Ġro ss
Ġro cco
Ġro pes
Ġfew er
wn ed
Ġan sw
Ġapp eal
Ġapp Ã©
Ġup gr
Ġ45 5
Ġpot ion
les bites
Ġbrown ness
Ġcu e
Ġcom munity
Ġk ad
Ġk ate
Ġk itt
Ġk ho
Ġk ong
Ġk ett
Ġk of
Ġk raut
Ġk eller
Ġk ugel
Ġk awal
Ġk ona
Ġk unj
Ġgr id
Ġgr ates
Ġgr idd
Ġgr inded
Ġdec ide
Ġpar agon
Ġpar sely
ff ron
her ing
ans ion
Ġvit al
Ġvitam in
ist ribute
ant ly
Ġal tar
Ġal abama
Ġsm ile
Ġat ta
Ġat least
Ġbo sc
Ġmo ves
Ġmo del
Ġex per
Ġex terior
Ġex ample
Ġlar d
Ġhe ll
Ġhe res
Ġsl im
Ġsl ides
Ġmain taining
Ġbl u
Ġbl ush
Ġbl isters
Ġbl unt
Ġbl owtor
Ġcar r
Ġcar ribean
ra pped
Ġcor quettes
uff le
Ġmade ira
om i
Ġser bian
Ġdi ed
Ġlet ter
Ġrice ingredients
alad a
Ġout lined
Ġte en
Ġte xt
Ġte ars
Ġte acake
Ġop tim
Ġde al
Ġde lectable
Ġde isred
Ġhour but
Ġbread stick
ash e
ce pt
est ly
con e
con an
Ġ20 9
Ġsmall s
Ġgo ji
Ġwill ing
Ġz ag
Ġz abaglione
Ġtr ap
Ġtr icky
Ġhal di
Ġen vuel
ig o
Ġred fish
Ġred ux
Ġred istribute
Ġdiet ary
Ġginger root
Ġbeef less
Ġroll int
ĠH ome
Ġ12 15
Ġwhen ever
ange l
Ġmar ble
Ġmar conan
Ġsc en
Ġsc um
Ġqu ot
Ġqu iver
Ġpro ja
Ġpro sc
Ġpro ject
af ter
Ġmore l
Ġhot t
Ġbacon naise
Ġbas a
Ġpars i
og uri
Ġhoney comb
Ġperson al
Ġperson alized
ĠN ot
Ġwor ds
Ġman che
Ġbre abone
Ġpu blic
per i
az teca
Ġgrill once
zz le
Ġear l
Ġthey ll
Ġref rid
Ġref erred
Ġsolid ify
Ġsay s
Ġme en
âĢ ³
âĢ ľ
Ġbr ans
Ġbr idget
Ġbr illiant
Ġclo sing
Ġsoy milk
Ġsoft est
ass ada
Ġ25 1
Ġdo ck
Ġany way
Ġ0 0
Ġwere n
Ġdown ward
Ġrat es
Ġ11 13
Ġeas ly
Ġfry pan
pan c
ble nd
Ġput tan
Ġoff ers
Ġstick iness
Ġcur ve
Ġcur ling
Ġcur rent
Ġminute until
Ġri val
Ġsquash es
Ġpo pper
Ġpo vit
Ġam ino
lud ing
Ġinclud ed
Ġacc entu
Ġacc umulated
Ġread ily
Ġbar gain
Ġfr ango
Ġloo s
Ġloo ser
plet s
Ġsy llab
ams icle
Ġcelery and
Ġwal k
Ġdri ve
Ġmarin ates
Ġmelt y
Ġbur ns
Ġbur son
ment aler
Ġbay ou
Ġsalmon ella
Ġcrisp bread
aw e
aw less
Ġspray er
Ġspray ing
sa ut
sa imadas
sa ffron
Ġtort illan
ho pper
Ġ19 3
Ġcent ral
Ġcent ury
sh ort
Ġed na
Ġca ppuccino
Ġstr ucture
sp ain
Ġ23 8
Ġcurry a
Ġno vice
Ġclean ly
Ġclean up
healthy recipes
Ġcenter ing
Ġesp uma
Ġtemperature s
Ġpine cone
Ġdon uts
wh at
wh eel
Ġpast its
Ġkn ob
Ġkn ocks
Ġpin ts
Ġpin po
Ġpin wheel
Ġcro cod
Ġevery day
Ġpat s
Ġ42 1
Ġhome june
Ġmac into
Ġocc assionally
Ġcoffee bean
Ġmeal div
Ġmy self
Ġad opted
Ġad hering
Ġsw ap
Ġsw ishes
Ġfluff ing
bo ard
bo dy
Ġcol a
Ġcol ors
int e
Ġmas alan
Ġrepeat ing
Ġgu ides
Ġgu isado
Ġvir t
Ġscoop ed
Ġcap ture
Ġwho ppie
Ġslic er
Ġspring time
Ġind ulg
Ġho ly
Ġho ison
Ġho cks
Ġart isan
Ġbeg inner
Ġpack ing
Ġ34 1
Ġ34 3
Ġ34 13
Ġinstruc tion
Ġbra gg
Ġinstructions in
Ġkitchen sim
enc es
Ġbox es
Ġ55 2
Ġap rox
Ġ38 6
Ġsit uation
Ġsteam y
ters weet
Ġfirm ness
ĠG rocery
Ġmicrowave able
Ġ43 6
Ġ43 7
Ġcubes cube
Ġ47 0
Ġ47 6
Ġ47 8
cous cous
Ġcous in
Ġ60 8
Ġele ment
Ġbroil ing
Ġsem icirc
Ġsem ifreddo
Ġcolor ings
ling uine
Ġunder bake
Ġarr abbiata
Ġdou se
Ġsub bed
Ġ46 1
Ġ46 3
Ġarrange ment
Ġeat ers
Ġ48 2
Ġwash ing
Ġ49 3
seed s
Ġdeep est
Ġcrock er
Ġexp ose
Ġexp osing
Ġexp ansion
but tered
Ġver a
Ġem mentaler
Ġ65 2
Ġ65 8
Ġ65 47
Ġsummer dessert
Ġfix ed
up ine
Ġ57 2
Ġ59 3
Ġ59 4
Ġ59 8
Ġ58 1
Ġ53 1
Ġ53 2
gr ain
Ġ51 1
Ġ200 1
Ġ200 4
Ġ200 7
mas ala
Ġcard board
Ġindian healthyrecipes
Ġpol entan
ĠĠĠĠ ĠĠĠĠĠĠ
Ġ68 2
Ġ72 1
Ġ72 2
Ġ72 4
Ġ72 8
Ġlas nag
Ġherb ivoracious
Ġgener ally
Ġ75 0
Ġ75 5
Ġ61 7
Ġ70 3
Ġ70 4
Ġ70 8
Ġ70 9
ats u
Ġ66 5
Ġ66 6
Ġ66 7
Ġ76 8
Ġrum ble
ens ions
Ġ63 7
ko fat
Ġac tion
Ġ71 0
Ġ71 4
Ġ71 5
Ġ93 0
Ġjo hn
Ġ83 1
Ġcoll ege
Ġ87 7
Ġ95 4
Ġwas nt
Ġ82 4
Ġ82 9
Ġ89 2
Ġrind s
Ġent ree
Ġ94 5
Ġ91 2
Ġtrim mings
Ġmon itor
Ġ78 6
Ġreach ing
Ġplant ation
Ġtouch es
Ġ84 2
Ġbis on
Ġbis quick
Ġprev ents
Ġwait ed
Ġdist illed
Ġ85 3
Ġens alada
Ġval ue
Ġval encian
Ġgrind s
Ġgrind ings
Ġbrand s
ik e
Ġfind s
Ġnew s
Ġtruff led
Ġfrit ter
car ole
uk i
Ġtrip led
Ġtrip lesbites
Ġfoam ing
gre at
Ġsubstitut ing
Ġsubstitut ions
Ġvalent ino
Ġappet it
be ans
Ġfa ux
Ġtriang ular
Ġchur ro
Ġchur rasco
Ġcav ities
Ġtab let
Ġreal ised
Ġposition s
ven ison
Ġjul ian
mix ture
Ġslicing or
can noli
Ġmus c
Ġmus lin
Ġrou ge
Ġna omi
Ġhar ina
Ġhar ira
Ġgall etas
abe che
Ġlevel s
Ġdrink s
Ġpa using
Ġsix th
Ġspir als
Ġcob b
Ġcopy right
Ġhad dock
Ġkim chee
Ġwatch ers
Ġvel ve
Ġter rine
Ġkahl Ãº
Ġph one
Ġreheat s
Ġke awe
banan as
Ġpass ata
Ġbouill ion
Ġbouill abaisse
Ġet hiopian
Ġko chu
Ġporc upine
Ġtiramis Ã¹
Ġintern ational
Ġfore ver
Ġfore go
Ġid aho
Ġclump y
Ġber ghoff
Ġhaw thor
Ġdelight ful
Ġmag azine
Ġhun t
Ġhun gry
Ġbrio ches
Ġsplash es
Ġwonder fully
Ġvers us
Ġpiccat an
Ġsign ific
Ġfast est
Ġstay ing
Ġtemp ted
Ġsuccess fully
Ġdis inte
Ġadv entu
Ġchiff anade
Ġdot s
Ġconcent ric
mushroom s
Ġkind s
Ġrid ges
Ġportobell os
Ġ139 0
cal do
Ġtear ing
Ġprov ided
Ġprov ides
Ġ175 7
egg less
âĦ ¢
âĦ ĥ
Ġmal don
Ġretain ing
Ġinsp ir
tom ize
Ġob ject
Ġoppos ed
Ġmess ages
ket o
Ġsteep ed
Ġrins ing
Ġni gerian
Ġprick ly
Ġaj o
Ġdro ol
Ġdro plets
Ġstain ed
Ġmign ons
Ġtrick s
Ġ122 4
Ġbrew ing
Ġsi amese
Ġsavo iardi
Ġkick ed
Ġdevelop ing
Ġmill ion
Ġlunch box
ged iner
tr aditional
Ġ137 7
Ġgoud an
Ġpunj ab
Ġaccom modate
Ġtru ly
Ġtru via
Ġos car
Ġpou nder
Ġbi as
Ġgim chi
Ġnap kin
Ġcomp onents
Ġâ ħ
Ġmad uro
Ġvine yard
Ġcrim son
Ġ124 8
Ġheaven ly
po ached
Ġmak ings
Ġmak ers
Ġtrin ity
Ġpair ing
Ġobtain ed
cle an
Ġsomew here
Ġsher bert
Ġscor ch
Ġ214 0
Ġpicnic s
Ġsuggest ed
Ġdigest ives
ph iladelphia
Ġsze gediner
Ġmadele ine
Ġknock wurst
Ġmudd ler
sc all
summer y
Ġoo ze
Ġmes sing
Ġhr s
Ġras malai
light ened
herb ivoracious
Ġesc abeche
Ġexcessive ly
Ġdiamond nuts
Ġtat ashe
Ġot tolen
Ġboo ster
Ġgro cery
Ġgro wnup
Ġapply ing
Ġscal ded
Ġpurch ase
tex as
Ġhu atia
Ġster ling
Ġass ist
Ġbloom in
Ġacid s
Ġacid ity
Ġchocolat y
Ġpas sing
Ġpet als
Ġpet ite
Ġmis sing
Ġmis sed
Ġww w
itter pintere
Ġdream y
Ġlaw ry
coll ard
Ġextend ing
Ġbrat wurst
Ġclar ify
Ġemuls ify
Ġvariet ies
dec ember
Ġsoo oo
Ġbah ia
Ġhom etown
Ġcoff ins
Ġcoff eecake
Ġum ame
Ġum ami
Ġunfor giving
Ġkom bu
Ġincis ion
Ġpulver ize
Ġconsum ing
Ġempan adas
Ġmonte zuma
Ġdisappe ar
bit tersweet
cap rese
ju ly
Ġcus tomize
Ġdh aba
Ġinit ial
Ġinten s
Ġinten se
Ġspec ks
Ġstamp s
Ġstamp ed
Ġsupp lies
Ġshao xing
Ġcris to
Ġcontr ast
Ġcontr ary
Ġmanage able
Ġarran ged
Ġarran ging
Ġhomogen ous
Ġhomogen eous
Ġpleas ure
Ġdetail s
Ġdetail ed
Ġcelebr ating
cas serole
face book
gra ndma
kick ed
rest aurant
Ġsucc elent
Ġma jor
rose water
Ġge orge
Ġlab el
Ġur ad
Ġwelco me
Ġdescri be
Ġsequ el
Ġcrud ite
Ġkesar i
Ġexc luding
Ġgren ache
Ġcutout s
Ġagu acate
Ġprom ise
Ġcheer ful
Ġsupermark ets
Ġpasticc era
Ġtagli arini
Ġpimien to
barbec ued
cre amsicle
mac aroni
nes see
rat atouille
rific ial
vide o
Ġthom as
Ġpc s
Ġpiment on
Ġfeather s
Ġbat tered
Ġremin isce
Ġdanc ing
Ġchic ory
Ġuni que
Ġjaff rey
Ġviol ently
Ġlear n
Ġshor ter
Ġcalc ulated
Ġkab ab
Ġcontam inate
Ġgreas y
Ġsett ings
Ġmars carpone
Ġloll y
Ġcentim et
Ġswas this
dev iled
process ed
Ġblogg er
Ġpriv acy
Ġobvious ly
Ġenclo se
Ġkombuch a
Ġutil izing
Ġescalop es
dou ble
dream y
hou g
haw aiian
match a
nor th
prot ein
pistach io
soup y
sard ine
uit to
Ġnd ash
Ġali gn
Ġaiol o
Ġsac rificial
Ġsum ac
Ġpries t
Ġfou ace
Ġfuss y
Ġbump y
Ġmitch ell
Ġmult iple
Ġrehydr ate
Ġrejuv enating
Ġdung eness
Ġdugu id
ĠlÃ© gumes
Ġlanc inato
Ġhok kien
Ġyumm iness
Ġeigh ths
amaret to
Ġbeli eve
Ġminutesstir ring
Ġstap les
Ġunlo ck
Ġunfl av
Ġunfo ld
Ġsocc arat
Ġsobr assada
Ġplanch a
chun ky
Ġperuv ian
Ġvib rant
Ġlepre chaun
Ġaband on
Ġabsol ute
Ġross o
Ġansw ering
Ġappeal ing
ĠappÃ© tit
Ġkitt encal
Ġkett le
Ġkof at
Ġkawal i
Ġkunj it
Ġgridd led
Ġblowtor ch
Ġtext ured
Ġoptim a
Ġenvuel tos
Ġrollint ini
ĠHome made
Ġquiver ing
Ġprosc uitto
Ġmanche go
Ġpublic ation
Ġrefrid ger
Ġ1113 2
Ġputtan esca
Ġaccentu ating
Ġsyllab ub
short bread
Ġpastits io
Ġpinpo int
Ġcrocod ile
Ġmacinto sh
Ġmealdiv a
Ġindulg ences
Ġkitchensim one
Ġ6547 5
Ġsummerdessert week
Ġlasnag a
Ġtablet op
ĠkahlÃº a
Ġkochu jang
Ġhawthor ne
Ġadventu rous
Ġottolen ghi
Ġhuatia o
' '
1 7
1 99
2 8
3 5
3 7
4 9
7 3
8 6
a ul
a ust
a ugust
b es
b oo
b ine
b ring
b ra
b ig
b lo
b ah
b uck
b arr
b ug
b ooks
c in
c ture
c ard
c ini
c raw
c sa
c ano
c tions
d et
d am
d and
d ump
d os
d own
d ome
d irty
d illy
d olsot
e z
e il
e mon
e ggs
e uvre
f our
f un
f ull
f izz
f ett
f ield
f alafel
g q
g ou
g ood
g ul
g ans
g ive
g olf
h r
h ine
h un
h and
h ib
h ouette
i i
i ate
j ic
j as
j amp
j ados
j ama
j umbo
j aci
j anuary
k id
k ster
k rain
k var
k atsu
l as
l ick
l ice
l one
l ano
l ah
l ai
l atin
l ait
l ettes
m ad
m uff
m ash
m and
m iss
m ediately
m iddle
m acha
m outh
m oulade
m ama
m ardi
m oosewood
m ades
n an
n ings
n ies
n oon
n ew
n ig
n io
n ium
n ative
n ote
n jic
o er
o ir
o cco
o vers
o llini
o ignon
o kshire
p s
p our
p op
p ages
p ort
p izz
p app
p resso
p rin
p eno
p ira
p aper
r as
r ate
r adish
s lic
s ue
s age
s sel
s the
s ons
s mashed
s adilla
s carole
t in
t ou
t ac
t ies
t ice
t ab
t ra
t ching
t aste
t ric
t een
t imes
t arragon
t ured
t eps
u h
u an
u gh
u ze
v is
v ados
v ention
w in
w an
w al
w ill
w ain
w ant
x ious
y ed
y ak
y um
y until
z i
z ucch
¬ Â
Â ½
Ã §
Ã ¸
â Ĥ
Ġ ie
Ġ Ã©
Ġ utter
Ġa i
Ġa er
Ġa sem
Ġa verage
Ġa arti
Ġt ut
Ġt as
Ġt our
Ġt ant
Ġt act
Ġt az
Ġt one
Ġt int
Ġt aff
Ġt ava
Ġt awa
Ġt rois
Ġt jamp
in ing
in ch
in av
in ire
in ag
in ista
in art
in ja
re mo
re ated
re lli
re wd
re ciated
Ġs ich
Ġs uck
Ġs lee
er ican
er gy
er house
er nio
Ġc it
Ġc ip
Ġc uten
Ġc eas
Ġc ir
Ġc ult
Ġc awal
Ġth inn
Ġth inning
Ġth ongs
Ġth irty
Ġo c
Ġo l
Ġo bs
Ġo aky
nd ogs
es ide
es li
es sing
es day
es ign
es presso
Ġp f
Ġp m
Ġp ed
Ġp ry
Ġp oo
Ġp ir
Ġp ab
Ġp ist
Ġp om
Ġp og
Ġp ract
Ġp ran
Ġp ool
Ġp enz
Ġf f
Ġf ly
Ġf ul
Ġf anned
Ġf est
Ġf ell
Ġf ield
Ġf ava
Ġb a
Ġb or
Ġb uc
Ġb ian
Ġb ice
Ġb av
Ġb hat
Ġb ilt
Ġb ais
Ġb orr
Ġb inag
Ġb eside
Ġm ood
Ġm ast
Ġm um
Ġm arian
Ġm ant
Ġm erry
Ġm illed
ou ll
ou st
ou ns
ing o
ing ing
ing led
ar u
ar in
ar om
ar io
ar ago
is er
is ini
at ic
at im
at us
at urated
at ient
at tan
on ian
on ment
on naise
on stitut
on cini
Ġw a
Ġw i
Ġw ar
Ġw ow
Ġw ad
Ġw itch
Ġw Ã¡
Ġw olf
Ġw acky
il c
il ia
il ute
il ocks
il bert
it ed
it ation
it Ã©
it aki
an e
an ced
an cient
an iel
en to
en ous
en os
en jaci
en nium
Ġre ve
Ġre ver
Ġre ind
Ġre roll
Ġre action
Ġre aming
Ġto or
Ġto ll
Ġto pper
Ġto ka
Ġto top
Ġto ppers
Ġto ler
ut ious
Ġd u
Ġd w
Ġd als
Ġd ens
Ġd eseed
Ġd eter
Ġd add
Ġd ital
Ġd yed
Ġd ilute
Ġd aniel
al ac
al oup
al ore
al ong
al icious
al izing
ic ot
ic one
ed o
ed ec
ed amame
ed onian
or ies
or ish
or ra
or ful
or ious
or zo
or ba
or ganic
or anger
Ġg gh
Ġg ain
Ġg her
Ġg ue
Ġg ave
Ġg ell
Ġg ully
Ġg ator
Ġg ilbert
ip er
ip ur
ak ies
ak ley
ak ka
Ġl am
Ġl ack
Ġl iter
Ġl uck
Ġl ang
Ġl ank
Ġl ug
Ġl ava
Ġl icious
Ġl oses
Ġh on
Ġh ate
Ġh ol
Ġh tt
Ġh arr
Ġh ref
Ġh iding
Ġh ike
Ġh akka
Ġrec ent
Ġrec ette
Ġrec onstitut
ac ter
ac ado
ac oa
ve ling
Ġco pe
et he
et ions
et oss
et Ã³n
et rate
Ġin ver
Ġin ter
Ġin til
Ġin ce
Ġin sal
Ġin ject
Ġin ez
Ġrecipe print
Ġrecipe za
Ġy op
Ġy ee
Ġch erv
Ġch eat
Ġch ul
Ġch ir
Ġch ous
Ġch af
Ġch amb
Ġch ars
Ġch ook
Ġch ron
ll s
ll ar
ll on
ll ama
Ġfor ag
Ġfor giving
Ġfor bes
le fto
Ġon i
Ġu di
Ġu krain
Ġmin imal
Ġmin cing
Ġmin tot
ow a
ad i
ad ent
ad ine
ad just
Ġe w
Ġe cl
Ġe ffic
erv atively
th ick
th yme
th aw
th ered
th umb
im o
im ents
im ately
im ichurri
im mediately
Ġit ll
uc y
uc ca
id ent
id ly
id ik
am ol
am bled
am rock
am erican
ent ino
ent ially
Ġsp red
Ġsp ian
Ġsp illa
Ġsp ink
Ġsp ong
Ġsp itting
ly un
co ld
co ck
co holic
Ġbe ak
gh ly
gh etti
Ġis tim
Ġis sue
Ġis ernio
Ġpe pp
Ġpe ch
Ġserv er
Ġserv icing
Ġst k
Ġst ated
Ġst ale
Ġst enc
Ġst ations
Ġst ones
Ġst ony
Ġst atus
our akia
ate lli
ate lle
Ġda iy
Ġsal at
Ġr d
Ġr ak
Ġr ate
Ġr ive
Ġr az
Ġr ipp
Ġr ang
Ġr ita
Ġr Ã©
Ġr ago
Ġr abi
Ġr squ
st a
st el
st rained
st inging
ill ips
ick ing
Ġgl ug
Ġgl itter
Ġgl orious
Ġun thaw
Ġun strained
Ġsa go
Ġsa ved
ul u
ul ent
ul ation
ul ating
ter iyaki
Ġveg ans
um ference
gar y
gar den
ian an
til y
Ġn an
Ġn ant
Ġn illa
Ġn ess
Ġn one
Ġn itr
Ġn ib
Ġn ook
Ġn ative
Ġn ana
Ġn ooks
Ġn inja
Ġso p
Ġcook in
Ġcook out
Ġcook ied
Ġcook books
ch ile
ch ia
ch illi
ch imichurri
ch cock
Ġwh izz
Ġwh eel
gg ies
gg ers
Ġsu e
Ġsu sp
Ġsu ero
Ġsu pa
Ġsu var
eas iest
Ġbut a
Ġcon cept
Ġcon vention
Ġha as
Ġha us
Ġpre ap
Ġpre mix
Ġpre cut
qu es
qu ent
qu ire
qu ito
Ġfl ush
Ġfl awless
if ts
Ġper ky
Ġper nik
Ġper miss
se a
se ar
se ptember
se quent
Ġj an
Ġj our
Ġj ump
Ġj ale
Ġj ams
Ġj igg
Ġj itter
Ġj iggly
oon g
Ġfrom ages
Ġfrom age
Ġv ong
Ġor gans
ir ing
ir ts
Ġle kvar
Ġpepper top
Ġpepper oncini
ge low
Ġwe ak
ri ver
Ġsh al
Ġsh ard
Ġsh ini
Ġsh iso
Ġsh ock
Ġsh ili
Ġsh eil
Ġsh ingled
Ġsh itaki
Ġsh amrock
ay onnaise
Ġsugar along
Ġsauce in
el ettes
Ġju ne
ur ally
ur ities
ur face
ap es
ap one
ap alac
ish ing
Ġli ghly
Ġbro c
Ġbro cco
Ġfat ted
Ġas so
Ġas ked
Ġab orra
ab ets
Ġdes irable
Ġcre ase
Ġse per
Ġse ptember
Ġvegetarian s
ach umb
Ġover s
Ġover tur
Ġover baked
Ġover done
Ġover sear
ew a
op en
Ġcr ated
Ġcr ump
lic y
Ġcal end
Ġcal vados
Ġprot ection
Ġprot ected
Ġgar ilc
Ġbow ties
Ġcream ier
Ġpan ning
mo m
mo zzare
Ġcan a
Ġcan uck
Ġcan nings
us er
us ale
us ually
Ġcheese y
Ġro b
Ġro d
Ġstir red
av age
av os
mon astery
Ġlac e
Ġlac ing
Ġan s
Ġan is
me adow
Ġapp ams
Ġapp reciated
Ġup to
Ġup man
Ġup ward
Ġup wards
Ġcho pper
Ġcho kes
Ġpot ential
les auce
Ġcu llama
Ġcom ment
Ġk ur
Ġk ala
Ġk anch
Ġk oul
Ġk ura
Ġk lus
Ġk atie
Ġk orman
Ġk achumb
Ġhand ling
Ġgr ay
Ġgr ade
Ġgr atins
Ġgr ingo
Ġoven or
Ġplace ment
Ġdec ent
ff Ã©e
her bed
ans on
Ġgood ies
col ored
col orful
ist ic
ant ic
ant ed
ant asch
ant ipasto
Ġal m
Ġal ph
Ġsm ush
Ġchocolate y
Ġeach other
Ġat aul
ey es
Ġcup fuls
Ġbo ld
Ġsto llen
Ġpowder s
Ġmo sa
Ġmo chan
Ġmo orish
Ġex ud
Ġ10 30
Ġlar ges
Ġremo ves
Ġsl c
Ġsl at
Ġsl ime
Ġsl ider
Ġsl ug
Ġsl avos
Ġnot iced
Ġfollow er
Ġmain e
Ġgre mol
Ġbl ot
Ġbl aded
Ġbl ades
Ġcake Ã¢
Ġcar ry
Ġcar lo
Ġcar amb
Ġcar rie
Ġcar afe
Ġeggs mix
ef or
ef oot
Ġcor ndogs
om a
Ġser ies
Ġser ran
Ġdi ve
Ġdi agram
Ġset h
ust ers
Ġground s
Ġground ed
Ġout do
Ġout ward
Ġtur bon
rox imately
Ġte aps
Ġop t
Ġde vel
Ġde coction
Ġwould n
Ġsk ye
Ġfresh ness
Ġuse ful
Ġcorn ing
Ġcorn ell
Ġcorn ets
Ġext ensions
iz es
inn i
Ġ20 13
Ġgo d
Ġgo bi
Ġgo ssel
Ġwill i
Ġz ap
Ġz inger
Ġz uch
Ġz ester
Ġz houg
Ġz aru
Ġz ucca
Ġtr ies
Ġtr ilog
Ġhal t
poon s
are r
Ġen h
Ġen amel
Ġen zy
Ġen vir
Ġen saimadas
ig ang
ig rams
Ġpreheat s
Ġpick s
Ġred esign
Ġste ve
and inav
Ġdiet ers
Ġginger s
Ġginger nut
Ġginger lemon
lo s
Ġlow fat
Ġmar ried
Ġmar ron
Ġpap ery
Ġag a
Ġag ua
Ġsc ale
Ġsc lice
Ġsc rewd
Ġsc andinav
Ġim itation
ore cchiette
Ġpro por
Ġpro ven
Ġpro hib
Ġsweet en
Ġhot el
Ġsqu ish
Ġsqu ach
Ġsqu irts
Ġbacon y
avor ful
cc a
Ġapple wood
Ġlime ju
Ġbas s
Ġbas in
Ġhigh ball
Ġtoo sday
Ġblack en
pl ah
og ies
Ġperson s
Ġwor se
Ġman pans
Ġbre ath
per ial
per nik
Ġdr ag
Ġdr umm
Ġsmoo sh
end d
end ots
zz a
zz y
zz es
Ġalmond aise
Ġparm ayonnaise
Ġi v
Ġi il
Ġi vy
Ġi owa
Ġchop stick
Ġspot ty
Ġref ill
Ġsolid ified
Ġseed less
Ġme llon
ti er
Ġdry ness
Ġ40 5
Ġcooking october
Ġcooking july
Ġbell ini
arm en
Ġtender ness
Ġtender ize
ne red
ne iman
Ġ25 30
itt en
itt ata
Ġdo se
Ġdo me
Ġdo euvre
Ġwhole grain
Ġany time
so y
so red
Ġportion ing
Ġ350 7
own chef
Ġblend tec
Ġzest s
Ġzest ed
Ġimp ress
Ġimp atient
Ġimp urities
Ġdrain s
Ġdrain er
Ġgran itan
Ġgran itÃ©
ble nder
Ġlo ved
Ġtaste usually
Ġneed les
Ġcur ved
Ġche vre
Ġri ver
Ġri ggies
Ġbean y
Ġpo or
Ġpo lyun
Ġpo licy
Ġshould n
Ġacc ess
Ġstraw s
Ġbar u
Ġfr ame
Ġfr ance
Ġfr amed
ell an
Ġloo p
Ġcrack ly
Ġcrack les
Ġsy ste
sem i
nut ty
Ġcran k
Ġcran ny
Ġcran nies
Ġwal mart
Ġmarin ire
Ġmarin ation
Ġtoast ie
Ġseasoning mash
Ġcoat ings
Ġcrisp ly
Ġflavor but
Ġliqu er
aw esome
Ġworks urface
sa ucy
Ġ32 29
ong ang
Ġdel ish
Ġye ah
Ġye ars
Ġcle ans
Ġcle avage
Ġcle arer
Ġ19 15
Ġcent ered
Ġfact or
Ġed ition
Ġca res
Ġca uli
Ġca utious
Ġbrowned app
Ġaf resh
Ġaf ric
Ġstr ay
Ġstr ict
Ġmap o
Ġbreast bone
Ġ17 13
go at
Ġwant ing
Ġwheat berry
abb a
sp ring
sp ider
sp aper
Ġpress uri
Ġback bone
Ġback ground
Ġend ed
Ġend ives
Ġno ir
Ġno xious
Ġdip s
Ġtart lettes
Ġtart elettes
Ġafter wards
Ġafter noon
Ġbreak s
health ier
Ġclean sing
bl ings
Ġdon ate
Ġdon na
Ġpec tin
Ġfreez es
Ġsmo thered
wh isk
wh ipped
Ġcl aw
Ġcl asp
Ġcl usters
Ġtablespoons ful
Ġmed iterrean
Ġimm unity
Ġpast ing
Ġpast el
Ġsmok ery
isc a
Ġkn ot
Ġkn eed
Ġkn uck
app a
app lesauce
Ġpin on
Ġpin ot
Ġpin quito
ark hani
Ġscr ummy
Ġevery body
Ġpat ted
Ġpat io
Ġpat ting
Ġpat ient
Ġpat atim
Ġflat en
Ġleaf s
Ġpeas y
Ġline ar
Ġshort ly
Ġty pes
Ġty son
Ġbag oong
Ġhome mades
Ġfinish es
Ġsure ly
ax ed
Ġpudd les
Ġocc ur
Ġtasty december
Ġthicken er
asion ally
Ġblueberry ies
Ġoccasion al
ct ic
Ġmeal times
cr abby
Ġmy zucch
Ġsur plus
Ġsand ing
Ġsw ish
Ġsw ipe
Ġsw anson
Ġ29 3
Ġfluff ed
Ġfluff iness
Ġgreat er
Ġcol oured
Ġne arb
Ġne gra
Ġne oguri
Ġcand iqu
Ġbaby bella
Ġar m
Ġar rest
Ġar men
Ġar ctic
Ġgu f
Ġgu essing
Ġfre stel
Ġmean ing
Ġscoop able
Ġcap ellini
Ġcap tain
ai ola
Ġwho les
Ġboth ered
Ġ31 8
Ġpear hattan
Ġx mas
Ġind ia
Ġind icated
Ġind igo
Ġart fully
ett is
Ġsun gl
Ġspat chcock
Ġ33 2
Ġinstruc ted
Ġric ed
Ġbra z
bread ed
Ġinstructions heat
Ġinstructions note
cho bani
Ġcons ci
Ġcons ervatively
Ġres erves
Ġres ume
Ġdiv ine
Ġscrap ings
Ġglass y
Ġap ron
Ġ38 1
crum bled
Ġconsist ence
Ġconsist anc
oc top
Ġham antasch
Ġjam ie
Ġjam Ã³n
Ġlid ded
Ġ41 4
ang a
Ġ47 9
Ġ60 1
Ġincorpor ating
he irloom
Ġenchilad an
Ġcheck ed
ala o
chi quetaille
Ġpart ake
Ġpart icles
Ġpart nered
Ġdou g
Ġpuff ing
Ġsub tle
Ġsub sequent
Ġreserv oir
ced ar
Ġ46 8
Ġeat er
Ġlong est
Ġlong meadow
Ġ44 4
Ġ44 8
Ġshell ed
Ġloaf s
Ġloaf t
ricot ta
Ġ52 6
Ġthere fore
Ġthere after
Ġ54 2
Ġ54 7
Ġstrain ing
Ġair line
Ġexp ected
Ġver ts
Ġem it
Ġem barr
Ġ65 1
Ġ65 5
Ġgrad ual
Ġskew ered
Ġrib eyes
Ġbu on
Ġbu zzes
Ġsee med
Ġ57 3
Ġ59 1
Ġ59 7
Ġ58 8
Ġ58 9
Ġhard est
Ġtransluc ency
gr ated
gr ating
Ġ51 2
Ġheart break
Ġ200 0
Ġ200 5
Ġbarb acoa
mas carpone
Ġcirc ling
Ġcirc ulation
Ġcirc umference
Ġpol ish
Ġ68 6
Ġ68 8
Ġ72 0
Ġ72 5
Ġ72 9
Ġfrag ments
Ġdepend ent
Ġlas anga
Ġherb alicious
Ġ75 9
Ġlasag ne
Ġlasag nan
Ġ64 2
Ġ64 4
Ġ64 8
Ġ64 00
Ġ64 42
Ġtam il
Ġ61 1
Ġ61 3
Ġ70 2
Ġ70 7
Ġrunn ers
Ġchristmas annual
Ġsav or
Ġpop overs
Ġ69 0
Ġ69 7
Ġ69 9
Ġ66 0
Ġ66 4
Ġ79 4
Ġ76 1
Ġ76 16
ens ion
ens ation
Ġpr ime
Ġpr ongs
Ġpr Ã©s
Ġ67 0
Ġ67 3
Ġ67 4
Ġ67 7
Ġfennel seeds
Ġir io
Ġlad les
Ġlad ling
Ġac quire
Ġ71 1
Ġ71 3
Ġ71 9
Ġkid dos
Ġ93 8
Ġjo jo
Ġ83 4
Ġ87 3
Ġ87 8
de lectable
Ġ95 1
Ġ95 3
Ġ95 8
Ġsec ured
Ġ82 6
Ġ82 42
Ġ90 22
Ġexpand s
Ġgh ir
Ġgh oul
Ġwon ky
Ġ89 6
fe ast
gu ise
gu ilt
Ġrhubarb y
Ġ86 3
Ġ86 5
Ġ86 6
Ġ88 4
Ġmol ida
Ġpic a
Ġpic s
Ġpic tured
Ġ81 1
Ġ81 5
Ġ81 7
Ġ81 8
ribut ed
Ġparmig ianan
Ġ73 3
Ġrom antic
Ġ77 0
Ġ94 6
Ġ94 9
Ġ94 73
Ġ91 6
Ġ96 1
Ġ96 3
Ġ96 5
Ġ96 7
Ġmon astery
Ġmon ouns
Ġ78 1
Ġ78 2
Ġ78 3
Ġ78 4
Ġ78 5
Ġlin ded
Ġmer ging
Ġ74 0
Ġ74 4
Ġ92 5
Ġpret tier
Ġstiff ly
Ġ84 3
Ġ84 8
Ġfritt atan
Ġbis mati
Ġrav enous
Ġprev ient
Ġspl itting
Ġ98 9
Ġdecor atively
Ġdist ance
Ġskewer ing
Ġ80 1
Ġ85 4
Ġorigin ating
Ġgrind ing
Ġprevent ion
Ġdistribut ion
ug ulu
Ġtexture s
ucc ine
med iterrean
Ġ97 3
alay an
Ġker ala
Ġker rie
Ġreason s
Ġzip per
Ġsnow y
Ġsnow fl
Ġaff ect
Ġaff air
Ġstre ga
Ġstre tching
Ġslot s
chocolate y
Ġnew bury
Ġnew spaper
Ġkr iss
cl ate
cl ick
cl ams
Ġpanc akies
Ġcross ways
Ġtap ered
Ġhere see
Ġfrit attan
uk emon
Ġskim p
Ġskim mer
Ġbou n
Ġ99 1
Ġ99 12
Ġram blings
Ġdash i
Ġsubstitut ion
Ġer r
Ġok lah
Ġfe bruary
Ġappet ito
be er
Ġau x
Ġscatter ing
Ġsir achi
Ġpos ni
Ġnest ling
Ġnest led
Ġcav atelli
Ġjoin ing
Ġtest ing
Ġ300 6
Ġlove meat
Ġscram bling
mix ed
Ġsunday s
fus illi
Ġbru ised
Ġholiday s
Ġus es
Ġus age
Ġnat kin
Ġchar acter
Ġdev iate
ken yan
Ġsil ly
Ġsil houette
Ġstack ers
Ġtins thor
Ġhar icot
te ada
Ġla uki
bro ccolini
Ġton s
eer a
water cress
Ġamong st
Ġfire nd
Ġfire grate
Ġstro ke
Ġbeetroot s
mal tz
Ġcount y
ori al
Ġreplac ing
Ġmove ments
no ch
Ġfun nel
Ġfun ction
Ġfun ctions
Ġsoon er
Ġmethod ical
Ġsix ten
Ġsix teen
fl avorful
Ġve ins
Ġrecom bine
Ġcopy ing
laz y
Ġblackberries mix
Ġstrip loin
Ġph illips
Ġbed s
Ġjer usale
Ġms g
Ġreheat ing
Ġke el
Ġlob sters
Ġmen the
Ġspon sored
Ġvar ious
Ġgruy re
Ġdripp y
Ġsplend idly
Ġnu oc
Ġko di
Ġporc ine
Ġ165 4
Ġfore man
let ter
Ġmatch es
Ġmatch stick
Ġins ure
Ġcling fil
Ġclump ing
Ġpow ered
Ġfac es
Ġstra nd
Ġmilksh akes
Ġhun ger
Ġhun gary
Ġ201 6
Ġsplash ing
Ġtz adziki
Ġten nessee
Ġmart inis
Ġhollow s
Ġpiccat as
Ġshepher ds
sn ap
Ġfast en
Ġbal anced
Ġmiss i
Ġlat est
Ġlat tice
Ġtemp ered
Ġtemp ura
Ġul tra
straw berries
Ġeating well
Ġsmell s
Ġdis colored
Ġdis guise
Ġcombin ations
Ġadv ise
Ġadv anc
Ġpattern make
Ġsang rian
Ġliber ty
Ġbok ke
mm m
Ġpri zes
anc es
Ġdet ach
Ġstring y
Ġmoj o
br ined
br uschetta
Ã¡ csa
Ġben nig
Ġunif ied
Ġ199 8
Ġsweat s
Ãª mes
Ġsard eg
iforn ia
Ġsubscri be
caramel ised
Ġaromatic s
cal ories
cal ifornia
over mix
sk irt
Ġmesh ed
mol ten
Ġcomfort able
Ġpatrick s
Ġsar acha
Ġmu esli
Ġmal ted
Ġmal teada
Ġspac es
Ġunw ashed
Ġunw rapped
Ġunw axed
Ġlock ing
Ġinterv al
Ġconvertkit pages
min ted
min ced
Ġbak arkhani
Ġsuk iyaki
Ġ115 9
Ġpun cture
Ġmass ala
Ġhang s
Ġsteep ing
Ġweight ed
Ġtreat zza
Ġcapon atan
Ġbuy ing
Ġedi e
Ġaj i
Ġaj wain
Ġthread ing
Ġgoo p
Ġluk e
Ġstain er
stuff ing
Ġvary ing
Ġang ie
Ġslush ee
Ġtrick le
Ġ110 2
Ġbunch s
Ġbunch es
oli ves
Ġav acado
Ġdisp ose
Ġgift card
Ġkick in
Ġmang alore
Ġbark er
whole meal
mango es
mango licious
Ġbright en
Ġsilk en
Ġmill ennium
Ġmill igrams
Ġkee per
Ġ133 5
Ġreplace ment
tr ans
Ġmoon cakes
Ġrem ind
Ġchef s
steak s
Ġ126 0
Ġ126 3
Ġ111 7
del ta
Ġq ts
Ġpou los
Ġbi gelow
Ġmor isca
Ġlim on
Ġnap time
Ġcomp ressing
Ġ141 1
Ġ141 6
Ġconfit ure
Ġmad hur
Ġvine gared
Ġalco holic
Ġ169 9
Ġ169 11
Ġ192 8
Ġ368 9
Ġgloss ies
Ġundist ributed
po zole
smo key
Ġsch ug
Ġsch maltz
Ġfres cas
Ġdra gging
Ġsting y
Ġ102 9
Ġ106 8
Ġ114 8
Ġpair s
Ġdetox inista
jo les
Ã» t
Ġtu esday
Ġci orba
Ġchang s
Ġunroll ing
Ġcookbook annual
Ġvid alia
Ġka ap
Ġ156 2
Ġenc ased
Ġenc asing
Ġ351 8
Ġ258 2
Ġfloats about
Ġachie ver
Ġsuggest s
Ġtanger ines
Ġgroup s
Ġaccompan iments
Ġunmold ing
bru nch
ph illy
sw ordfish
Ġcab ot
Ġfu zzy
Ġfarm s
Ġfarm girl
Ġhear tily
Ġscrub bed
Ġbraid s
Ġportab ello
Ġfavour ites
fr ittata
jar ati
Ġoo zing
Ġpav isini
Ġrel ax
Ġhum ble
Ġras her
Ġperog ie
Ġshow ing
Ġannual annual
Ġ104 0
Ġactiv ate
bac alhau
pat riotic
Ġtra pped
Ġboo st
Ġyum yum
Ġchou x
ste mail
Ġjew el
Ġ109 6
Ġ183 4
Ġ186 0
Ġ186 6
Ġdefrost ed
Ġbuild ing
Ġcollap sed
Ġphotograph s
Ġwindow s
iol as
span akopita
Ġsound s
Ġbac alao
Ġbree ze
Ġbree zes
Ġlick ing
Ġmind ful
Ġbend ing
Ġass ure
Ġrolo s
Ġ134 3
Ġ424 6
Ġsubstant ially
pepper oni
Ġvisit ing
delicious ly
Ġghost ly
mark et
nat urally
rum day
tw ice
tw itterpintere
Ġpim ento
Ġfant ans
Ġmis to
Ġmist akes
Ġrell enos
Ġlaw s
Ġyuc ca
Ġunt reated
Ġoverf ill
Ġblan che
Ġsoups poons
Ġproduc ts
Ġproceed ing
Ġproceed ed
Ġsurround ing
Ġarg entino
Ġarg iolas
Ġ311 9
Ġelbow s
Ġchallen ging
cut ting
dec onstructed
dec adent
Ġsoo thing
Ġsoo zi
Ġpen etrate
Ġfri joles
Ġbind ing
Ġmull ed
Ġhom edec
Ġnational rumday
Ġhav ent
Ġhapp ens
Ġoverwork ing
Ġcant aloup
Ġblister ing
Ġdoughy oull
Ġ154 5
Ġzipp ered
Ġ166 9
Ġ197 8
Ġvein ing
Ġtorch ed
Ġwidth wise
Ġeffect ive
Ġeffect ively
air s
rhubarb y
Ġaust in
Ġcus p
Ġfain ted
Ġfeed ing
Ġband ages
Ġband age
Ġdraw er
Ġchan nel
Ġspec ulas
Ġsupp ly
abag an
Ġcris co
Ġgochu jang
Ġ574 4
Ġ580 3
Ġpleas er
Ġcelebr ations
Ġsteril ise
Ġsteril ized
20 13
gl ass
kk kk
kick in
sim it
sco op
sco ops
sky e
tz adziki
Ġsucc ulent
Ġmatter s
Ġdom ed
Ġgrow s
Ġlab eled
Ġcoach es
Ġcoca o
Ġur b
Ġwhir rr
Ġwelco mes
Ġsimpl ified
Ġsimpl ifies
Ġdescri bed
Ġsequ ence
Ġbob by
Ġexc use
Ġgren adine
Ġtranfer ring
Ġagu as
Ġprom otion
Ġcheer ios
Ġsupermark et
Ġpasticc io
Ġneighbor hood
Ġweekday supper
Ġsilver ware
Ġtagli atelle
Ġpimien tos
barbec ue
pol enta
pier ogi
pier ogies
sat ay
sat urated
tort ellini
Ġts ukemon
Ġfib re
Ġfib rous
Ġming led
Ġmice llar
Ġreview s
Ġhel en
Ġhel per
Ġcost amol
Ġinvest ment
Ġcha e
Ġcha at
Ġchi quetaille
Ġchee zy
Ġforgot ten
Ġemer ges
Ġuncle ar
Ġoverbrown ing
Ġfol k
Ġfol ks
Ġgrav ad
Ġgrav ied
Ġparcel s
Ġrollup s
Ġtransform ing
Ġcookingm ay
Ġcookingm arch
Ġpintere st
Ġpintere stand
Ġ427 5
Ġlettuc es
Ġlettuc etoss
Ġswell ing
Ġneutral ize
Ġverment ino
Ġverment inos
Ġ859 6
flour less
Ġencour age
Ġencour aged
trinid ad
trinid adian
ĠtÃºrÃ³ s
Ġkraft recipes
bour nvita
frost ed
hum ble
kitchen aid
pow erhouse
sil icone
sour dough
scr ambled
Ġest ate
Ġais u
Ġsin igang
Ġthro wn
Ġbus y
Ġbist ec
Ġmou les
Ġmim icking
Ġmam an
Ġmmm mmm
Ġwr ong
enchilad as
Ġret ention
Ġdim ension
Ġhim alayan
Ġhoo plah
Ġcoco tte
Ġinvol tini
Ġinte grated
Ġchese e
Ġchino is
Ġru le
Ġrut abagan
Ġnas i
Ġnet work
Ġnanan ut
Ġwhisp s
Ġsup reme
Ġsuns et
Ġsupr Ãªmes
Ġprem ium
Ġpreso ak
Ġsaltimbo cca
Ġjun iper
Ġcanton ese
Ġupgr ade
Ġkad ala
Ġbosc aiola
Ġmodel o
Ġexper ience
Ġcarr Ã©s
estly e
Ġscen ario
Ġhott endots
Ġearl iest
Ġpovit ica
Ġloos ening
Ġvirt ual
Ġsemicirc le
Ġjulian ne
Ġvelve eta
Ġsignific antly
Ġdisinte grating
Ġinspir ation
Ġlunchbox es
scall ion
Ġintens ify
Ġkabab s
Ġcentimet ers
Ġunflav oured
Ġabsolute ly
Ġrefridger ate
boo zy
big oli
blo ggers
buck wheat
craw fish
det ox
dam n
dand elion
fun ghetti
fizz y
fett uccine
gul asch
give away
hun garian
jama ican
kid s
muff ins
mand arin
njic i
pizz a
papp ardelle
prin ts
slic ed
tou ffÃ©e
tac o
tab oola
tric olor
¬Â ¦
âĤ ¬Â¦
ĠÃ© touffÃ©e
Ġasem bling
Ġtut orial
Ġtant alizing
Ġtaz iki
Ġtaff yuntil
Ġtjamp oer
inire cipes
Ġsich uan
Ġsuck ers
Ġcit ric
Ġcip ollini
Ġcuten ess
Ġceas es
Ġcult ured
Ġcawal nuts
Ġthinn est
Ġobs ess
Ġpoo led
Ġpir ouette
Ġpab lano
Ġpist ou
Ġpog Ã¡csa
Ġpract ically
Ġpran kster
Ġpenz ey
Ġbor wned
Ġbuc key
Ġbian ca
Ġbice p
Ġbav arian
Ġbhat ura
Ġbilt more
Ġbais er
Ġborr acho
Ġmast ers
Ġmarian o
Ġmant ain
oust ines
arom atic
arago sta
ĠwÃ¡ ter
Ġrever se
Ġreind eer
Ġtoka ji
Ġtotop os
Ġtoler ance
Ġdens ity
Ġdeter mine
Ġdadd io
Ġdital ini
Ġggh oliday
Ġgain s
Ġgher kin
Ġgue uze
Ġgell ed
Ġgator ade
ipur am
Ġlang oustines
Ġlank an
Ġlug aw
Ġhtt ps
Ġharr is
Ġreconstitut e
Ġinver ting
Ġinsal ata
Ġrecipeza ar
Ġyop lait
Ġcherv il
Ġchul etÃ³n
Ġchir ashi
Ġchaf ing
Ġchamb ord
Ġchron icles
Ġforag ers
lefto ver
Ġukrain ian
Ġmintot al
Ġecl airs
Ġeffic ient
thumb nails
idik aya
american a
Ġspian ch
Ġspilla ge
Ġspink les
Ġspong y
Ġistim ewa
Ġpech ay
Ġstenc il
Ġstony field
Ġdaiy a
Ġraz njici
Ġrang oon
ĠrÃ© moulade
Ġrago Ã»t
Ġrsqu o
Ġunthaw ed
Ġnant aise
Ġnana imo
Ġsusp endd
Ġsuvar na
Ġconvention al
Ġhaus a
Ġpermiss ion
Ġjale peno
Ġjigg les
Ġjitter bug
Ġvong ole
Ġshini er
Ġsheil a
Ġbrocco flower
Ġasso ciated
Ġaborra jados
Ġseper ate
Ġovertur ned
Ġcalend ar
mozzare lla
Ġcannings teps
Ġkanch ipuram
Ġklus ki
Ġkachumb ari
Ġalph abets
Ġataul fo
Ġmosa ic
Ġexud e
Ġslavos alt
Ġgremol ata
Ġcaramb ola
Ġserran os
Ġoutdo or
Ġturbon ado
Ġteaps oon
Ġdevel ops
Ġgossel in
Ġzuch inni
Ġtrilog y
Ġenzy mes
Ġenvir onment
Ġgingerlemon girl
Ġmarron s
Ġscrewd river
Ġscandinav ian
Ġproven Ã§
Ġprohib ited
Ġlimeju ice
Ġdrumm ettes
Ġpolyun saturated
Ġsyste m
Ġbrownedapp roximately
Ġafric a
Ġstrict ly
Ġ1713 4
Ġknuck les
Ġmyzucch inirecipes
Ġnearb y
Ġcandiqu ik
Ġarmen ian
Ġfrestel se
Ġsungl asses
Ġconsci ence
Ġconsistanc y
octop us
Ġhamantasch en
Ġembarr assing
Ġherbalicious ness
Ġ6442 6
ĠprÃ©s ident
Ġmonouns aturated
Ġsnowfl ake
Ġoklah oma
Ġcharacter istic
Ġtinsthor oughly
Ġjerusale m
Ġclingfil m
Ġadvanc efor
Ġbennig an
Ġsardeg na
twitterpintere stemail
Ġhomedec ember
Ġwhirrr r
Ġtsukemon o
Ġcostamol ino
0 8
1 8
2 3
2 4
2 5
2 00
3 1
3 2
3 6
3 9
4 1
4 4
4 5
4 6
4 8
5 2
5 7
6 0
6 2
6 3
6 5
7 4
8 1
8 7
8 9
9 2
9 3
a e
a j
a ies
a ire
a ich
a ign
a Ã±
a arbonate
a ult
a isin
a jo
a igo
b ou
b ar
b al
b ak
b ay
b el
b ur
b ef
b are
b ud
b ble
b atch
b bled
b iche
b anese
b road
b bab
b enedict
b ibim
b by
b irthday
b amboo
b orscht
b oud
b itter
b ols
b ulg
c er
c is
c ro
c um
c av
c ime
c are
c lo
c anan
c ub
c ado
c led
c ipe
c ity
c ros
c ys
c loth
c armen
d a
d g
d ak
d ry
d ill
d ge
d ri
d ue
d ressed
d ho
d ep
d less
d iet
d ori
d ified
d relli
e u
e v
e ar
e it
e im
e ly
e ot
e ast
e ople
e per
e iving
e van
e ji
e mp
f c
f it
f ut
f th
f am
f ill
f ew
f est
f and
f avor
f ud
f ered
f ork
f ret
f au
f idget
f alan
g f
g ic
g ro
g or
g ly
g our
g ate
g ther
g all
g ue
g ently
g ai
g ift
g ium
g rette
g inner
g ress
g umbo
g ically
g entine
g ira
g ambas
g protein
g diet
h al
h or
h as
h oon
h eet
h nic
h om
h ole
h ee
h og
h ully
h app
h ips
h uli
h idden
h assi
i j
i ice
i ull
i enta
i ugh
j j
j er
j ans
j ole
j ection
j ana
j Ãº
j uki
j apalac
j eera
j eot
j gira
k l
k ar
k im
k ate
k um
k li
k ist
k om
k ets
k ara
k oul
k no
k la
k ung
k abo
k uma
k aline
k atie
k dg
l s
l ar
l im
l ake
l ittle
l ett
l ouis
l avash
l feast
m am
m ill
m ies
m se
m ay
m ish
m ag
m ust
m af
m gs
m ik
m alay
m be
m ishes
m urgh
m otion
m ugh
m iring
n ar
n al
n th
n ese
n ish
n ins
n ers
n ana
n achos
n ces
n oodles
n ected
n mi
n ownchef
o il
o to
o st
o ch
o colate
o est
o ves
o cc
o ors
o pping
o ats
o the
o nds
o etida
o llen
o akley
p u
p al
p ad
p id
p oo
p eat
p ain
p ri
p res
p ap
p anned
p ite
p un
p ers
p ass
p ub
p ull
p ho
p ared
p itch
p ett
p rawn
p lease
p hyllo
p ress
p omegranate
p sy
p acc
p oppy
p son
p andan
p udd
p unj
q ul
r s
r re
r is
r ay
r ust
r ated
r ich
r ss
r ise
r ase
r ano
r itional
r ift
r ita
r adicchio
r ainbow
r abbit
r itol
s re
s ip
s erv
s to
s ch
s eason
s ri
s ilk
s us
s ous
s alad
s ce
s and
s pl
s ub
s kin
s na
s ang
s rir
s Ã©
s ier
s chicken
s ug
s beer
s letter
s gift
t re
t is
t ut
t ried
t ru
t act
t ined
t oun
t iness
t ically
t ux
t asty
t rois
u w
u z
u nd
u es
u ent
u if
u ie
u ka
u ites
u ethe
u efoot
u jeot
v at
v ents
v ices
v ace
v ation
v are
v ig
v ise
v iso
v iy
v ana
v ichyssoise
v ivor
w l
w o
w y
w il
w as
w rap
w ired
w estern
w ool
w ild
w ifruit
w eg
w itterpintere
x er
x ie
x tail
x edo
x ocolate
y n
y u
y ish
y os
y ib
y lish
y no
y oghurt
y uri
y ony
y orkshire
y chee
y okshire
y cled
z ation
z ag
z ol
z un
z ers
z lenuts
z abaglione
z houg
{ }
¯ oli
¶ rek
¸ lle
Ã ¯oli
Ã ¶rek
Ġ ing
Ġ ill
Ġ ian
Ġ ery
Ġ ign
Ġ Â°
Ġa al
Ġa st
Ġa gg
Ġa ide
Ġa ge
Ġa me
Ġa ig
Ġa ub
Ġa he
Ġa just
Ġa hum
Ġa kara
Ġa yib
Ġa Ã¯oli
Ġt al
Ġt et
Ġt ad
Ġt rou
Ġt res
Ġt eet
Ġt igh
Ġt ass
Ġt ub
Ġt erry
Ġt ong
Ġt edd
Ġt bl
Ġt ired
Ġt ater
Ġt su
Ġt ress
Ġt acky
in an
in ation
in ist
in ie
in ous
in ci
in ara
in ating
in ity
in vol
in for
in pira
in cys
in fand
re n
re al
re ate
re ess
re heat
re ams
re ment
re pic
re fere
re ng
re view
re lle
re turn
re chaun
re prints
re cipe
re peat
Ġs ic
Ġs ry
Ġs le
Ġs ri
Ġs ack
Ġs ash
Ġs ig
Ġs ass
Ġs ites
Ġs ama
Ġs ense
Ġs ady
Ġs onom
Ġs ample
Ġs adilla
Ġs ensation
er ra
er ous
er ful
er os
er the
er taining
er cise
er gic
Ġc ree
Ġc rot
Ġc ime
Ġc aked
Ġc ere
Ġc umber
Ġc ached
Ġc ats
Ġc ity
Ġc sus
Ġc incys
Ġth k
Ġth es
Ġth us
Ġth ins
Ġth rew
Ġth rust
Ġo i
Ġo le
Ġo zz
Ġo so
Ġo ops
Ġo de
Ġo la
Ġo akley
Ġo mgs
Ġo wl
nd a
nd airy
nd ary
es ser
es hy
es car
es irable
es carole
Ġp d
Ġp t
Ġp is
Ġp on
Ġp ac
Ġp ion
Ġp ach
Ġp oup
Ġp itt
Ġp ise
Ġp ened
Ġp ign
Ġp eter
Ġf ed
Ġf eet
Ġf inn
Ġf ail
Ġf ait
Ġf ied
Ġf pr
Ġf uy
Ġf outh
Ġf uls
Ġf umes
Ġand y
Ġand slow
Ġand crisp
Ġand di
Ġand rew
Ġand pepper
Ġb ill
Ġb iry
Ġb les
Ġb als
Ġb art
Ġb esan
Ġb acks
Ġb ount
Ġb ier
Ġb ible
Ġb ao
Ġb ha
Ġb oom
Ġb ucks
Ġb abba
Ġb Ã¶rek
Ġm x
Ġm ide
Ġm av
Ġm ans
Ġm ck
Ġm cc
Ġm ise
Ġm cco
Ġm ature
Ġm aki
Ġm isin
Ġm char
Ġm Ã¢
Ġm rs
ou ch
ou nder
ou croute
Ġthe out
Ġthe cr
Ġthe cent
Ġthe blue
Ġthe butter
ing on
ing form
ar on
ar ag
ar aki
ar oli
ar ante
ar ona
ar gentine
is a
is y
is raeli
at is
at ess
at ric
at iv
at tered
at te
at rin
at ically
at jar
on al
on ade
on ne
on na
on ata
on ji
on ked
on ju
Ġw ip
Ġw ick
Ġw aste
Ġw ary
Ġw avy
Ġw ett
Ġw inner
Ġw ars
Ġw agg
Ġw igg
Ġw allet
Ġw right
Ġw ien
Ġw uz
il ing
il et
il ley
il te
il icious
il ike
it on
it akes
it ect
it ary
it ious
it ency
it ang
it up
it Ã©s
an i
an iki
an olotti
an noch
en ser
en joy
en oise
en saimadas
en ishing
en onal
Ġre dd
Ġre gar
Ġre li
Ġre act
Ġre sp
Ġre app
Ġre tail
Ġre mix
Ġre light
Ġre wards
Ġre whisk
Ġre yno
Ġre infor
Ġto ot
Ġto dd
Ġto ron
Ġto cooking
Ġto cin
Ġto fut
Ġto gther
ut a
ut ic
ut able
ut ritional
ut inous
Ġd l
Ġd ad
Ġd ent
Ġd ine
Ġd un
Ġd os
Ġd ub
Ġd itch
Ġd ory
Ġd run
Ġd ja
Ġd tomato
Ġd ux
Ġd rench
Ġd icing
Ġd ining
Ġd relli
Ġd oranger
Ġd reams
al im
al ina
al ised
al edar
ic o
ic ian
ic ure
ic ce
ic ago
ic ial
ed er
ed ge
ro th
ro oom
ro yal
ro duc
Ġof asparagus
Ġof oil
or ia
or ations
Ġg am
Ġg ate
Ġg ill
Ġg ir
Ġg mo
Ġg ol
Ġg ef
Ġg uts
Ġg ound
Ġg ong
Ġg ummy
Ġg ai
Ġg ath
Ġg ente
Ġg ross
Ġg eno
Ġg iant
Ġg ifts
Ġg onna
Ġg enoise
ip ap
ip anned
ip ulated
ak an
ak sa
ak aya
ak arona
Ġl al
Ġl ake
Ġl ol
Ġl oup
Ġl bs
Ġl ash
Ġl inger
Ġl un
Ġl ind
Ġl ord
Ġl ente
Ġl ao
Ġl eather
Ġl ux
Ġl hassi
Ġl ychee
Ġl esser
Ġl ingon
Ġl aksa
Ġh ing
Ġh en
Ġh ur
Ġh ein
Ġh edi
Ġh ey
Ġh ush
Ġh ous
Ġh ue
Ġh os
Ġh ams
Ġh ets
Ġh ully
Ġh eck
Ġh ank
Ġh ines
Ġh ooks
as a
as se
as ins
as car
as cin
Ġrec ycled
Ġrec reate
ac in
ac re
ac ing
ac le
ac ation
ac orn
ac Ã©
ac cha
ve y
ve al
ve le
ve led
ve top
Ġco p
Ġco ast
Ġco res
Ġco ho
Ġco iled
Ġco eur
Ġco king
Ġco chon
Ġco vig
et ings
et ition
et hiopian
et opping
Ġin edi
Ġin pan
Ġin no
Ġin box
Ġy er
Ġy un
Ġy ne
Ġy ank
Ġy okshire
Ġch at
Ġch ec
Ġch ach
Ġch ich
Ġch rist
Ġch ik
Ġch ucks
Ġch afe
Ġch awal
Ġch uh
Ġch asse
ith ealth
Ġ1 Â½
Ġwith e
ll ack
ll oni
ll ita
ll ica
ry tis
Ġfor tun
le ans
le ment
le che
le ines
le ction
le com
ree ment
Ġon s
Ġon am
Ġon other
Ġon line
Ġu h
Ġu bl
Ġmin place
Ġmin uites
ow ing
ow yn
ad s
ad ing
ad et
ad ily
ad om
ad ero
Ġe ve
Ġe luc
Ġe mersion
Ġe ppa
Ġe owyn
erv ing
th a
th i
th in
th en
th ur
th ird
th ritol
im i
im ine
im mer
im munity
im perial
Ġit ab
Ġit use
uc et
uc tion
ver ly
ver ages
id eat
id gen
to ol
to gether
to ss
to fu
to graph
to bella
to kwa
am y
am our
am and
am ount
am ang
am ook
am ental
am atically
ent ed
ent ure
ent ation
ent est
ent ertaining
Ġsp it
Ġsp ine
Ġsp rou
Ġsp ay
Ġsp out
Ġsp un
Ġsp ok
Ġsp ino
Ġsp inning
Ġsp ead
Ġsp ingform
ly as
co at
co zz
co tt
co vered
co ind
co mp
Ġbe ar
Ġbe ed
Ġbe ach
Ġbe eps
Ġbe gging
Ġbe ij
Ġbe ads
Ġbe verages
gh lai
oo ey
oo med
pp ies
Ġis ab
Ġis su
red s
red uce
Ġpe g
Ġpe ices
Ġpe ase
Ġpe bbly
Ġpe eps
Ġserv ice
Ġserv ices
ot t
Ġst ad
Ġst ate
Ġst ri
Ġst oup
Ġst ru
Ġst eal
Ġst ylish
ings ton
ings active
ings erve
ings heet
our ish
Ġmi zun
eat s
ate gically
veg as
Ġda up
Ġda ube
Ġda eji
Ġda isy
Ġsal es
Ġr ick
Ġr ices
Ġr ant
Ġr ust
Ġr ue
Ġr and
Ġr iss
Ġr oni
Ġr ipping
Ġr oul
Ġr amp
Ġr itz
Ġr ued
Ġr di
Ġr idden
Ġr anger
Ġr uffle
Ġr adi
Ġr itten
Ġr annoch
dd er
st akes
st ew
st ein
st est
st ale
st ract
st rap
st ache
st facebook
ill ac
ill ards
ill abaisse
Ġadd rosemary
Ġadd iton
ast ly
Ġgl gg
Ġgl ist
Ġgl ove
Ġgl utinous
Ġgl acÃ©
Ġgl owing
Ġun to
Ġun us
Ġun av
Ġun ra
Ġun heat
Ġun ti
Ġun cor
Ġun load
Ġun fort
Ġun chilled
Ġun cut
Ġun fil
Ġun lined
Ġun chopped
Ġun kn
Ġun buttered
Ġun frosted
Ġun happ
Ġsa g
Ġsa um
Ġsa ew
Ġsa ble
Ġsa int
Ġsa gan
Ġsa ugar
ul se
ul ty
ain er
ain ing
ain the
ter ra
Ġfree xer
Ġmix i
Ġmix ers
um ble
um dilly
um oto
um erous
gar a
gar ita
gar nish
ian ign
Ġgluten free
ice berg
til e
til ap
til age
til de
Ġuntil just
Ġuntil crou
Ġn ip
Ġn ir
Ġn ish
Ġn un
Ġn age
Ġn os
Ġn az
Ġn ud
Ġn ipping
Ġn ava
Ġn yony
Ġn ourish
Ġn umerous
Ġn tilde
Ġso il
Ġso pes
Ġso pa
Ġpl anned
Ġpl aw
Ġpl umber
Ġpl atte
Ġpl onked
Ġcook ers
Ġcook ery
Ġcook top
Ġcook iew
Ġcook iel
ch op
ch all
ch ant
ch ess
ch arred
ch est
ch ers
ch iff
ch avel
ch Ã¨vre
ch oucroute
ch icago
Ġwh l
Ġwh ish
Ġwh ack
Ġserving calories
Ġall e
Ġall recipes
Ġall ergy
Ġall ergic
Ġsu ggs
Ġsu ger
Ġsu pre
Ġbut chers
Ġcon stit
Ġcon stitut
Ġcon coction
Ġcon cer
Ġcon nected
Ġha iry
Ġha ze
Ġha ha
Ġha zlenuts
Ġpre baked
Ġpre fere
Ġpre cis
Ġpre fered
Ġsalt and
Ġsalt ier
Ġsalt place
qu at
qu ed
qu ets
qu ites
Ġfl ick
Ġfl ans
Ġfl uid
Ġfl aps
Ġfl aming
Ġfl eshy
Ġfl ounder
Ġfl amand
if ul
if ted
if ia
if ican
ec tions
Ġper pared
se x
se afood
se ize
Ġj ac
Ġj ey
Ġj acks
Ġj ok
Ġj amb
Ġj ord
Ġj avel
Ġj ana
Ġj anc
Ġj apalac
Ġj eera
Ġj kla
Ġj umble
oon gan
Ġv og
Ġv ia
Ġv iv
Ġv ict
Ġv ien
Ġv rat
Ġv uh
Ġv ault
Ġv acation
Ġor a
Ġor b
Ġor gan
Ġor bit
Ġor ienta
Ġor leans
ir vo
ir sch
Ġle ver
Ġle ge
Ġle ices
Ġle ew
Ġle ban
Ġle ches
Ġle veling
Ġle banese
Ġle veled
Ġle ading
Ġpepper in
Ġpepper idge
Ġpepper peanut
Ġpepper pre
Ġpepper party
ld s
ld ilocks
ge es
Ġwe ave
ght wise
ri or
ri ate
ri ka
ri gs
Ġoil in
Ġoil ing
Ġoil ve
Ġoil and
Ġoil fill
Ġbutter in
Ġbutter ing
Ġbutter head
Ġbutter mik
ure arch
rot ating
res entation
Ġsh ime
Ġsh ah
Ġsh oe
Ġsh ift
Ġsh uck
Ġsh ops
Ġsh aded
Ġsh oot
Ġsh atta
Ġsh ades
Ġsh uffle
Ġsh oest
Ġsh chavel
Ġsh ifted
ay s
ay er
ay toun
ĠĠĠ Âł
Ġsugar l
el a
el k
el ings
el ets
el iv
el vet
Ġsim ult
Ġsim miring
Ġju ng
Ġju jÃº
ur b
ur n
ur s
ur al
ur ate
ur ban
ur ainthe
Ġheat her
Ġheat for
Ġspoon add
Ġspoon full
ap oon
ap sa
ap reheat
ish ers
Ġli vers
Ġli ege
Ġli bby
Ġbro w
Ġbro win
Ġfat ter
Ġas k
Ġas et
Ġas per
Ġas ado
Ġas zu
Ġas aigo
Ġas adero
out rement
Ġab it
Ġab ricot
Ġab und
Ġab stract
ab ack
Ġdes ig
Ġdes cription
Ġdes iring
Ġdes pite
Ġdes tined
Ġcre ases
Ġcre vices
Ġcre ativ
Ġse x
Ġse en
Ġse ve
Ġse ll
Ġse lls
Ġse izes
Ġse viy
Ġse coind
Ġchicken i
ach es
Ġover proof
Ġover turn
Ġover process
Ġover pow
Ġover whisk
Ġover due
ew ith
ew sletter
ew wired
op e
op ed
op tion
Ġcr ashed
Ġcr aisin
Ġcr sip
Ġcr asins
Ġcal ling
Ġcal edonian
Ġcal ifia
Ġgar sn
li a
li ke
li ati
Ġrecipes vegetarian
Ġrecipes su
Ġrecipes annual
Ġrecipes fam
ture tre
Ġcover age
all am
all ergy
all urearch
Ġcream ing
Ġcream ery
Ġpan e
Ġpan ned
Ġpan ela
Ġmixture trans
mo ther
mo cktail
mo cha
mo ked
Ġwat ts
Ġingredients in
Ġcan an
Ġcan al
Ġcan ne
Ġcan ner
us to
par ation
Ġonion ss
Ġfo late
Ġfo xtail
Ġfo dder
Ġro e
Ġro le
Ġro ses
Ġro cher
Ġro sÃ©
Ġstir s
av i
av an
av al
mon te
Ġlac es
Ġlac inato
ins ide
Ġan ger
Ġan ard
Ġan ah
Ġan ton
Ġan od
Ġan nat
Ġan othe
Ġflour ish
Ġwater and
Ġwater the
Ġplate and
me ar
me et
me ggiano
me llini
me lli
Ġapp rop
Ġapp lied
Ġup o
Ġup date
Ġcho c
Ġcho l
Ġcho ices
Ġcho ctober
Ġcho ppe
Ġcho clate
Ġpot entially
ace book
sing apore
les t
Ġbrown ish
Ġcu z
Ġcu ber
Ġcu bers
tion ed
Ġcom mer
Ġcom pl
Ġcom ma
Ġk k
Ġk are
Ġk and
Ġk ase
Ġk uch
Ġk itch
Ġk he
Ġk ara
Ġk ik
Ġk ales
Ġk wa
Ġk ilog
Ġk atsu
Ġk appa
Ġk fc
Ġk uw
Ġk yuri
Ġk inpira
Ġk atrin
Ġk onju
Ġk edge
Ġk irsch
Ġhand ed
Ġhand full
Ġgr am
Ġgr ist
Ġgr itt
Ġgr asp
Ġgr acious
Ġgr anted
Ġgr appa
Ġgr illey
Ġrequ red
Ġoven and
Ġoven while
Ġoven then
Ġfood ist
Ġfood with
Ġoli ver
ag ave
ag na
ag ongang
ag ascar
ag liati
Ġdec ked
Ġdec ember
Ġdec eiving
Ġpar k
Ġpar meggiano
ff ien
owd rift
her by
Ġdish er
Ġdish towel
Ġdish cloth
ans i
Ġgood by
ade lli
ade mark
Ġminer ality
col cannon
ser bian
ist an
ist line
Ġal t
Ġal arm
Ġal ton
Ġal right
Ġal cap
Ġal kaline
Ġal together
Ġal amang
Ġsm ack
Ġsm idge
Ġsm idgen
Ġmedi un
ie re
Ġeach s
Ġmedium bowl
Ġmedium high
Ġat e
Ġat un
Ġat jar
ey um
Ġbo iull
Ġbo mbe
Ġsto pped
Ġpowder y
Ġmo ved
Ġmo dified
Ġmo llica
Ġex it
Ġex pl
Ġex otic
Ġex teri
Ġ10 00
Ġlar a
Ġlar rup
Ġlar der
Ġthen gai
Ġtop kn
Ġhe e
Ġhe ight
vo s
Ġremove the
Ġremove foil
Ġsl ing
Ġsl am
Ġsl ips
Ġsl anted
Ġsl ope
Ġmain ly
Ġbl and
Ġbl asian
Ġbl oomed
Ġcake lets
Ġcake into
Ġcomb ing
Ġcomb ines
Ġcourse ly
Ġpor ter
Ġpor ton
Ġpor tobella
ol ved
ush ing
ush ed
ush oliday
Ġcar an
Ġcar om
Ġcar ved
Ġcar tons
Ġcar men
Ġcar pacc
Ġcar tilage
Ġcar mellini
ra pping
ra isin
ra fr
Ġcool in
Ġcool wh
Ġcool toss
Ġcor k
Ġcor ing
Ġcor ky
nic aback
om ly
om akarona
Ġbake well
Ġdi al
Ġdi xie
Ġsalad dri
bs cription
ust ry
ust rated
Ġground nut
alad bar
ess avory
Ġout allow
Ġout wards
ink sco
Ġte e
Ġte ff
Ġte ame
Ġte pid
Ġte qul
Ġte lecom
Ġte apoon
Ġop al
Ġop ies
Ġop ted
Ġop ah
Ġde bon
Ġde bone
Ġde eper
ger ine
Ġsk i
Ġsk inn
Ġsk ilet
Ġbread bak
resh ed
ash a
Ġfresh est
Ġfresh dairy
Ġsoup ier
Ġtogether the
Ġcut ie
eal and
est ed
est em
Ġdough s
Ġdough this
Ġ15 00
Ġ15 30
heat her
Ġext ran
Ġext ram
Ġext ras
Ġext rase
con tact
iz ant
Ġsmall skillet
Ġgo al
Ġgo bo
Ġgo bble
Ġgo reng
Ġz ing
Ġz ones
Ġz oodle
Ġz infand
Ġz aytoun
Ġz ealand
un ately
un iere
ard ell
Ġtr ack
Ġtr uck
Ġtr ipe
Ġtr uss
Ġtr acing
Ġtr ademark
Ġmush rooom
art ichok
Ġen gin
Ġen rich
Ġen comp
Ġcould n
Ġstore care
ee zers
ss al
ss ite
ss ier
Ġpick ing
Ġpick ed
Ġred s
Ġste lla
Ġste adily
Ġseason s
ck ed
ck ae
Ġgreen ish
and ouille
Ġdiet ician
Ġginger ly
Ġaside with
Ġaside place
lo ve
lo dge
Ġroll o
Ġsprink let
ers bon
Ġ12 00
Ġ12 30
Ġservings facebook
Ġhead room
Ġhead sp
Ġhead aches
ump ki
Ġmar oon
Ġmar gin
Ġmar bled
Ġmar sc
Ġmar tha
Ġpap ers
Ġpap aya
Ġag ne
Ġag anolotti
Ġag reement
Ġsc ents
Ġsc af
Ġsc ared
Ġsc ales
Ġsc rapped
Ġsc apes
Ġsc attered
Ġsc reds
Ġsc rapping
Ġsheet ing
Ġim part
Ġim perial
Ġqu e
Ġqu aker
Ġqu ex
Ġble mishes
ore cipes
Ġpro be
Ġpro ingredients
Ġpro sec
Ġpro gress
Ġpes cado
Ġmel omakarona
ive l
ive eats
Ġsprinkle with
Ġthat i
Ġmore llo
Ġmore breakfast
Ġmore facebook
Ġwhisk er
Ġwhisk ers
Ġsweet s
Ġsweet ne
Ġapple gate
Ġbas kets
Ġcookies once
Ġcookies south
riger ator
Ġblack cur
Ġblack pepper
Ġblack strap
pl ates
pl ished
pl ane
os ition
os manthus
og ato
Ġdeg r
Ġdeg ress
Ġdeg reess
Ġman i
Ġman os
Ġman ually
Ġman zan
Ġman aies
Ġman eu
Ġman icure
Ġman ipulated
amon th
Ġinc ase
Ġinc lined
Ġbre nda
Ġpu zzle
Ġpu ppies
per ch
per se
per ated
per cent
per coll
Ġdr ay
Ġdr amb
Ġdr agon
Ġdr ifts
Ġdr amatically
Ġinch glass
Ġsod as
Ġsmooth ed
Ġsmooth ly
Ġsmooth ish
Ġsmooth est
Ġsmooth ness
Ġsmooth ening
Ġsmooth blend
Ġsmooth pour
az ed
az ines
az zer
ract ed
ract ively
end ing
end ive
Ġi os
Ġchop ed
Ġchop sticks
Ġtables poo
Ġeven ing
Ġbefore hand
Ġbefore remo
Ġfill o
Ġear n
Ġstirring occ
Ġref lection
Ġref reshed
ft een
Ġsay ing
Ġme i
Ġme llow
Ġme ga
Ġme uniere
Ġgold ilocks
ti ger
Ġtrans it
Ġtrans mit
Ġtrans lus
Ġtrans port
Ġcooking august
Ġice cream
arm int
Ġbr uce
Ġbr anch
Ġbr usch
Ġbr ainer
Ġtender iser
Ġclo dho
Ġcrum bling
fer rero
ne ah
ne apolitan
ne oguri
Ġtw ix
Ġtw irly
Ġtw eezers
Ġstock ing
Ġstock and
Ġsoft ness
Ġsoft batch
ass am
Ġwarm ing
Ġdo h
Ġdo z
Ġdo fu
Ġdo cum
Ġwhole food
Ġany one
cakes py
so me
Ġportion ed
ipp et
other wise
umin ous
Ġcilantro stir
Ġseeds in
Ġallow ance
Ġdown about
Ġrat ingsactive
Ġ11 30
Ġrefriger ta
Ġeas e
ect able
ect ive
pan na
pan cake
pan eer
pan era
pan zanella
Ġblend very
Ġimp ulse
Ġlightly caramelized
ub lic
ub be
Ġgran a
Ġgran ual
Ġgran itas
ble u
Ġput ton
Ġlo ins
Ġlo ving
Ġlo fth
Ġ13 30
Ġ13 10
Ġ13 29
rough ly
Ġthrough pu
Ġspread er
Ġoff s
Ġoff icial
ides cond
Ġtaste bud
Ġtransfer to
Ġneed ing
Ġneed len
Ġneed hand
ado bo
Ġcur ran
Ġcur vace
Ġtwo third
Ġnut ter
Ġnut ri
Ġnut ellan
Ġnut tiness
Ġri bo
Ġsquash ed
Ġpo llack
Ġam bit
Ġam atric
Ġshould nt
Ġacc ent
Ġacc iugh
Ġacc outrement
Ġstuff er
Ġtoss in
Ġtoss es
Ġenjoy ing
Ġlittle maf
Ġread er
Ġchees ckae
Ġbar illa
Ġbar ren
Ġfr ise
Ġfr action
ell es
ell os
Ġcel ci
Ġcomplet ing
Ġcomplet ley
Ġsy nth
Ġmay er
key lime
nut meg
low e
Ġdri er
Ġdri bbled
Ġ37 4
Ġwhich ever
Ġsat urate
Ġmarin ades
Ġball this
Ġcaramel izes
Ġonto p
Ġfin er
Ġfin ess
Ġfin est
Ġbay onne
Ġsalmon s
Ġwrap ed
Ġcrisp iness
Ġliqu ers
ere r
ok onomiyaki
ok lyn
ka hl
ka iserschmarrn
Ġfish cakes
Ġtort a
ho isin
ho agie
ano ctober
Ġ32 16
Ġore gon
ong ated
Ġye p
Ġcle aver
Ġcle verly
Ġ19 00
Ġ19 38
Ġcent ure
Ġcreamy ness
Ġdressing itup
Ġextra june
Ġextra january
sh a
sh ine
sh eet
sh aw
sh eep
eep stakes
Ġcontin et
Ġca ulif
Ġca Ã±
Ġca jole
Ġca uif
Ġca ffien
Ġsour ness
Ġsour ces
Ġteaspoon salt
na ughty
Ġstr ipe
Ġstr ipped
Ġstr ascin
Ġstr ategically
ta uer
Ġmap mag
Ġtem pe
Ġtem ari
Ġtem plates
go ldilocks
Ġwant s
Ġdelic ately
Ġdelic atess
Ġ22 16
Ġwheat en
Ġmint es
Ġmint ues
sp n
sp ecial
sp rink
sp eople
sp ray
sp rigs
Ġes quites
Ġback ing
Ġend less
Ġno body
Ġno ndairy
Ġdelicious october
Ġdelicious june
Ġdelicious december
Ġdelicious july
Ġdelicious january
Ġdelicious september
Ġcooker when
Ġtart e
Ġbreak down
ran ce
ran noch
Ġlight ing
Ġlight ens
bl ood
bl ast
bl asian
bl uefoot
bl ushing
Ġcheddar recipe
Ġtemper amental
healthy dessert
Ġesp aÃ±
Ġmex ical
Ġmex ico
Ġdon ness
Ġdon katsu
Ġsmo or
Ġblender in
Ġblender blend
wh oopie
Ġcl v
Ġcl ings
Ġcl ones
Ġcl aire
Ġtast ein
Ġtast ecan
Ġtast eyum
uv res
iss an
Ġrosemary sprigs
Ġmed im
Ġmed enjaci
Ġpapri kas
Ġimm ideat
pic adillo
Ġpast y
Ġpast ic
Ġpast ies
Ġnon pare
Ġnon peeled
Ġkn ift
oe uvres
Ġtill amook
Ġpin apple
Ġpin hole
Ġaw ard
Ġcro ok
Ġscr umdilly
Ġpuree ing
Ġpat ate
Ġpat iently
Ġflat ly
Ġleaf ed
Ġline fish
Ġshort est
Ġshort cut
Ġpizz ettes
Ġpizz azzer
Ġty po
Ġcoup e
Ġhome august
Ġglaze i
Ġglaze mix
Ġmac a
Ġmac edonian
Ġstand s
Ġ27 13
Ġocc ais
Ġtasty february
Ġthicken thin
Ġbet te
Ġcuis inart
Ġcub ano
Ġcub elets
Ġdark ening
ind ones
Ġsur pass
Ġsur vivor
Ġsur vey
Ġsand y
Ġsand ia
Ġquick bread
amb ros
Ġra jas
Ġra jgira
Ġad ams
Ġsw ing
Ġsw ift
Ġsw amp
Ġsw ear
Ġsw ollen
Ġsw ivel
Ġsw eepstakes
Ġ29 9
Ġfluff ier
Ġfluff iest
Ġgreat ly
sel ines
sel fteen
Ġsandwich ing
Ġsandwich ed
Ġne er
Ġne ah
Ġne ither
Ġtowel ing
Ġseconds add
Ġtre viso
Ġbaby is
Ġbaby pub
Ġperf orman
Ġperf orations
Ġar ms
Ġar chive
Ġar bols
Ġrep air
Ġrep utable
Ġrep roduc
Ġrep resentation
Ġrep ublic
Ġmas sing
Ġmas aledar
itch el
milk y
Ġgu ess
Ġgu zzle
Ġgu jarati
Ġgu arante
Ġgu lyas
Ġic y
Ġfre aks
Ġstew art
Ġstew pot
Ġfruit ed
Ġfruit cake
Ġconf orm
Ġconf ections
Ġamer icas
fast est
Ġstyle pop
Ġstyle pitch
Ġplastic wrap
made leines
Ġx imine
Ġspring fo
Ġind ents
Ġind ex
Ġind oor
Ġind oors
Ġind uction
Ġind ustry
Ġrais ing
fu ndido
Ġfine cooking
Ġho b
Ġho ssier
vers ally
Ġpul av
Ġbeg an
Ġbeg inners
Ġsun ken
Ġsun kist
Ġ375 0
Ġspat ulas
ape utic
Ġpur im
Ġpur ity
Ġinstructions add
Ġinstructions comb
Ġinstructions step
Ġinstructions blend
Ġinstructions clean
Ġinstructions pour
Ġinstructions coat
Ġbalsamic on
cho coholic
cho clate
Ġcons erves
Ġcons ume
Ġcons itency
Ġkitchen ware
Ġkitchen vide
Ġres ides
Ġdiv inity
Ġsimp lest
Ġbox ed
Ġglass garnish
Ġovernight serve
man n
man ian
man hattan
Ġpurp oses
mel t
por tobell
Ġsn Ã¸
Ġsn owdrift
Ġsn ippet
Ġmacar on
Ġsit r
ten eg
ten nessee
Ġham mer
Ġ41 5
Ġbri quets
ters cotch
ters not
ang al
Ġconstantly once
Ġthor an
Ġthor ns
starch fast
Ġevent ually
Ġevent ual
Ġburgers heat
bon s
Ġtin ned
Ġ60 2
Ġ60 4
Ġ60 7
Ġincor perated
stick y
Ġused roth
Ġcouscous option
Ġele ven
Ġele ph
Ġdirections place
nel s
nel br
Ġmorn ay
Ġunder baked
Ġunder ripe
Ġfinger lings
pot luck
Ġdill s
Ġpart ly
Ġpart ners
Ġdou bling
Ġsub ject
Ġsub urban
ait y
Ġaccord ion
Ġaccord anc
ci ally
Ġeat healthy
Ġ48 8
Ġ49 1
Ġdisc rotating
Ġ44 7
issol ved
Ġfil es
Ġfil ing
Ġfil ter
Ġfil Ã©
Ġadjust ments
Ġti erra
Ġdeep en
Ġdeep ens
Ġmous selines
Ġdef erent
but terscotch
Ġver rine
Ġver tically
Ġnec ks
Ġem bed
Ġem br
Ġem mi
Ġmoist ening
ca esar
Ġ65 3
Ġ65 4
Ġitalian s
Ġitalian green
Ġrib bing
Ġbu Ã±
Ġbu ilt
Ġbu falan
aster n
Ġfrench ed
Ġwet ness
Ġdiscard ed
Ġ56 0
orm ick
sor b
sor rel
up a
up side
up rss
Ġ57 8
Ġbon ed
Ġbon terra
Ġbon bons
Ġ59 5
Ġ59 9
Ġ59 47
Ġpatt es
Ġlamb ic
ster ling
Ġstem less
Ġ58 2
Ġ58 4
Ġ58 6
Ġhard er
Ġhard ening
Ġabsor ption
che erful
Ġ53 4
Ġbour on
Ġdep ress
gr rre
Ġ51 5
Ġ51 6
Ġ51 8
Ġsoak s
Ġbarb ara
Ġindian a
Ġgel atins
Ġpol pett
Ġdump ed
ĠĠĠĠ ĠĠĠ
Ġ68 4
Ġ68 5
Ġburn ished
Ġ72 3
Ġ72 7
Ġ72 22
Ġfrag rance
Ġpatties a
Ġgn och
Ġgener ations
Ġimpro ve
Ġimpro vise
gs ugar
Ġtun nels
Ġ75 2
Ġ75 3
Ġ75 6
Ã© ed
Ġsrir accha
Ġreserved use
auce pan
Ġrot is
Ġ64 0
Ġ64 6
Ġ64 7
Ġ64 9
Ġtam p
Ġ61 2
Ġ61 5
Ġ61 51
Ġ70 5
Ġ70 6
Ġ70 99
Ġrunn ier
Ġpop adom
Ġsharp ie
Ġsharp est
Ġ69 2
Ġ69 3
Ġ69 4
Ġ69 5
Ġ69 6
Ġ69 16
cream ed
use e
Ġ66 2
Ġ66 8
Ġ79 1
Ġ79 5
Ġ79 6
Ġ79 8
Ġright s
Ġright sthe
Ġ76 4
Ġ76 7
Ġpound ing
Ġpound ed
Ġincre ased
Ġincre ases
Ġincre asing
pe g
Ġpr one
Ġpr uss
Ġpr refere
Ġ63 0
Ġ63 1
Ġ63 2
Ġ63 3
Ġ63 5
Ġ67 1
Ġ67 5
Ġ67 6
Ġ67 9
ko hlrabi
Ġ180 0
Ġopen ings
Ġac ai
Ġac cept
Ġ71 6
Ġ71 7
vel the
Ġ93 7
Ġ93 62
ky ard
ky uri
Ġjo ins
Ġjo anne
Ġ83 0
Ġhold er
Ġcoll ops
Ġcoll aps
Ġel achi
Ġel vis
Ġel aich
Ġel ongated
Ġplum cot
Ġ87 0
Ġ87 4
Ġ87 6
Ġhelp ful
Ġgan ace
Ġtou m
Ġ62 2
Ġ62 6
Ġ62 7
Ġ95 2
Ġ82 3
Ġ82 8
Ġatt ain
Ġatt ack
Ġatt em
Ġatt emp
Ġatt ractively
Ġ90 1
Ġ90 2
Ġ90 5
Ġ90 8
Ġgh astly
cktail sbeer
Ġwon uts
Ġ89 0
Ġ89 4
Ġ89 7
Ġ89 9
fe elings
Ġeye ball
gu f
gu jarati
gu ewwired
iv ating
oul akia
Ġ86 0
Ġ86 4
Ġ86 50
Ġ88 2
Ġcond ensation
Ġmargar itan
Ġ81 0
Ġ81 2
Ġ81 3
Ġpal er
Ġpal try
Ġpal etas
ib u
Ġsund al
Ġ73 1
Ġ73 6
Ġ73 8
alo ha
Ġlen ghtwise
Ġ77 4
Ġ77 5
Ġ77 7
Ġ77 8
Ġ77 30
Ġ77 93
Ġconden se
Ġbecause ilike
Ġroot in
Ġlength s
Ġlength side
Ġ94 3
Ġ94 4
Ġcott on
Ġcott as
Ġ91 4
Ġ91 5
Ġ91 7
Ġ96 6
Ġmon uka
Ġmon teneg
Ġduck y
Ġsafe ly
Ġbites mar
Ġlin en
Ġnutr itionally
Ġnutr itious
Ġsing les
Ġfar mer
Ġbul ge
Ġmer cime
Ġmer chant
Ġ74 3
Ġ74 5
Ġplain tain
Ġ92 4
Ġpret end
Ġstiff en
Ġstiff ened
Ġ84 6
Ġ84 7
Ġ84 9
Ġfritt e
Ġverde jo
Ġpoppy seed
Ġrim less
Ġ98 1
Ġ98 2
Ġoreo Ã¢
Ġrock ing
Ġdecor ated
Ġdecor ator
Ġladle ful
Ġdist urb
Ġdist racted
Ġattach ments
dr inksco
arr ado
arr abbiata
Ġstar ing
Ġjack man
Ġess entially
Ġfi ore
Ġfi ery
Ġfi ori
Ġreg ulating
Ġ80 2
Ġ80 4
Ġ80 5
Ġ80 7
Ġ80 9
Ġ85 7
form ed
lish ed
Ġorigin ated
Ġorigin ates
Ġlingu inie
Ġfiber s
Ġlater ally
cook ie
cook book
Ġbundt amonth
Ġdistribut ing
Ġther apeutic
Ġwax y
Ġposs etions
med enjaci
Ġtil ting
Ġchut e
Ġflore t
ĠsautÃ© until
grass y
grass hopper
Ġker nal
Ġfind ing
Ġsnow skin
Ġsouth east
Ġaff ix
Ġaff ected
Ġaff ili
Ġaff ogato
Ġseasoned gre
Ġpad ano
sen berry
Ġwide mouth
Ġnew er
Ġnew man
Ġamp le
Ġthermomet her
cl eric
cl ays
Ġfash oulakia
Ġcross es
Ġcross hat
Ġcross fit
Ġfashion chicago
pro motion
Ġmoder n
Ġfrit os
car ob
Ġranch eros
Ġjell ies
Ġsnap s
corn ers
corn bread
corn starchfast
Ġpunch es
Ġbou nce
Ġbou cher
Ġrig o
Ġrig id
Ġrig alim
Ġsaff itz
Ġpubl ishers
Ġprint ing
Ġpil es
Ġpil ed
Ġpil avi
Ġangel ettis
uf acebook
Ġer ica
Ġok ran
Ġrepl enishing
Ġramen kins
ex ercise
su ppe
Ġmat te
Ġjar ls
Ġappet ithealth
be ginner
Ġfa ucet
Ġfa irvo
Ġtost ado
lemon ade
Ġnear ing
Ġsir acha
Ġpos ole
Ġstarch es
Ġport able
Ġport land
Ġnest lÃ©
Ġcres s
Ġcav a
Ġmild ly
Ġcast elvet
Ġreal ized
Ġreal ize
aut ed
ma jor
Ġdrum s
Ġdrum stick
Ġdrum ettes
gran ola
Ġromano v
atill o
ress ively
can ada
can adian
Ġcat ching
Ġcat alina
Ġgor ging
Ġbuck et
Ġmus allam
Ġus ual
Ġus da
Ġnat ale
Ġnat asha
Ġrou ille
Ġna ada
ken ny
Ġsil very
Ġsil vered
Ġbic aarbonate
exp ress
don katsu
ille os
Ġhar percoll
Ġhar issan
te quila
Ġtips y
Ġtips com
Ġla urainthe
Ġla usee
Ġla ufacebook
Ġhash brown
Ġcounter act
bro oklyn
Ġton y
Ġcrumb y
Ġcaps be
gonz ola
Ġsmith s
Ġtwist ing
Ġgrand man
Ġgrand mother
Ġcircles for
Ġlevel er
Ġdiff ers
Ġdiff user
Ġgin iling
Ġdrink able
Ġ170 3
Ġpa ellan
Ġpa illards
Ġfur r
Ġfur thur
Ġflo ppy
Ġkey s
Ġkey lime
Ġdiam onds
Ġcolour s
entic al
Ġspir its
Ġ100 2
Ġ100 5
Ġburning ly
Ġjelly roll
fl awless
Ġour s
Ġtos cano
Ġtos canan
Ġtos immer
Ġdred ging
umb ap
Ġkim pira
Ġsatay s
Ġtight en
Ġfra is
Ġgal angal
Ġblo b
Ġrecommend s
Ġrecommend saut
pr ay
Ġter m
Ġter rific
Ġgent ry
Ġrap a
Ġwhere ver
Ġ01 2
Ġstrip ed
Ġglasses it
Ġkahl a
Ġdamp en
Ġdamp ed
Ġlog an
Ġsauc ed
Ġabsorb ent
Ġyuk kkkk
Ġbeaut ies
Ġke uri
Ġke bbab
Ġtrad ers
Ġtrad ition
Ġtrif les
Ġmark er
Ġmark ets
Ġknow s
Ġtang ent
Ġmen lo
Ġmand u
Ġproof ed
Ġet her
Ġet hnic
Ġach illeos
Ġcore r
Ġnu ances
Ġko be
ations erving
Ġskinny taste
Ġ250 21
Ġpush es
Ġbath ing
rie ve
Ġalf aj
Ġnotes repeat
Ġflavour ing
Ġflavour ings
Ġflavour ful
Ġflavour some
let witterpintere
Ġid le
Ġid entical
Ġbord ers
Ġins ider
Ġcloth es
fat toush
Ġpow eder
Ġfus ion
Ġfus illo
Ġber th
Ġconge als
Ġvin ho
Ġmag noli
Ġmag azines
Ġhun ter
imp ossible
Ġ201 2
Ġ201 5
Ġ201 7
Ġwonder ing
Ġwonder bread
Ġsif ed
Ġpit an
Ġpit ter
Ġpit aya
Ġpapp adam
Ġauthentic ity
Ġempt iness
sn ow
sn ack
sn ewsletter
Ġtough er
Ġsection ed
Ġsign ature
Ġsign uprss
Ġbal ck
Ġlat her
Ġlat tes
Ġstone ground
Ġtemp ting
Ġelastic ity
Ġpower ful
Ġpower fully
si amese
Ġvis a
Ġvis ually
Ġmelting ly
Ġsmell ing
print our
Ġmee hoon
Ġdis covered
Ġdis olved
Ġdis lodge
Ġdis perse
Ġven i
Ġcombin ethe
Ġ09 3
Ġadv ice
Ġadv ised
Ġadv enture
Ġliber al
Ġcraw lfeast
Ġpost ition
Ġchunk ing
Ġchunk ier
Ġbot rytis
Ġbird eye
Ġdet ectable
Ġdot ted
Ġdiagon als
Ġsubmer ging
br ussel
br idget
br illiant
br Ã¸
tan gerine
Ġcass avan
Ġcogn izant
Ġyam asa
Ġrare bit
Ġflut ing
Ġkind a
Ġpoach ing
beef less
Ġstraight away
Ġcrystalli zation
bacon naise
Ġaid a
Ġaid s
Ġtim ings
Ġund ay
Ġund ulating
Ġund esirable
Ġund issolved
Ġplan atin
Ġplan ko
Ġshi itakes
Ġearth iness
cal f
over night
Ġsan itary
Ġrip eness
Ġrip ien
Ġnam ed
Ġconven ient
Ġcomfort ing
Ġkal onji
Ġ101 0
Ġmarz ipanned
Ġ130 89
Ġconfirm ing
Ġkoft as
Ġexclusive ly
ginger y
Ġtail bone
Ġsar ah
Ġmu hog
Ġmu ghlai
Ġmal mse
Ġmal ibu
Ġretain s
rock et
Ġcolo ssal
lep rechaun
tom atillo
Ġlock ed
butter y
butter cream
Ġinterv ention
bin agongang
dough nuts
Ġtan nins
Ġce biche
Ġob jection
Ġbak in
Ġbak ingsheet
Ġmot ivating
Ġmess ier
Ġgourmet feast
immon s
Ġbitter ness
Ġedamame boil
boy senberry
cur dy
Ġpun ching
Ġpun ugulu
Ġfle mish
Ġfle cked
Ġmass acre
Ġyork erthe
Ġni ii
Ġni acin
Ġvig ilia
Ġcrink led
Ġdig ital
Ġcornfl ake
Ġlimeade cherry
Ġrefreshing ly
Ġsuperf oods
Ġvari able
Ġmagic ally
Ġfer tile
Ġdro wned
Ġgoo py
Ġgoo gly
Ġstain ing
Ġnor weg
Ġking kl
Ġslush y
Ġ110 3
Ġ110 5
Ġav al
Ġtri bal
Ġsi gara
Ġsi azed
Ġdisp enser
Ġkick s
Ġkick ing
aged ashi
Ġrestaurant sthe
ni gerian
Ġsilk ier
Ġsilk iness
Ġmill ing
Ġlunch es
Ġparath an
Ġ133 6
Ġstrong est
Ġ171 8
Ġgalette es
au bergine
bas ic
honey ed
tr uffle
Ġmoon shine
Ġrem ianign
Ġpli ers
Ġhaban era
Ġvol cano
Ġvol uminous
Ġ105 2
Ġ105 7
Ġ105 8
Ġ111 1
Ġgarnishing chocolate
Ġadh esive
Ġfamily s
Ġaccom plished
Ġovercrowd ing
del ish
simp ly
val encian
Ġbain mar
Ġmor ris
Ġgim me
Ġspark le
Ġcomp ass
Ġcomp ared
Ġcomp ress
Ġcomp osed
Ġcomp ost
Ġcomp etition
Ġcomp osition
Ġkum ato
Ġkum umoto
Ġmom nes
Ġ167 4
Ġ230 3
peach y
Ġsavoy ardi
10 9
ging ered
pre pare
ref ried
ref rigerator
Ġpith y
Ġmad agascar
Ġchap atis
iment al
Ġdand y
ific ations
Ġvine grette
Ġcontent calories
Ġ121 2
Ġ121 7
Ġworld gq
Ġadap table
smo or
Ġsch ool
Ġsch mear
Ġfres her
Ġfres ca
Ġmak ai
ities meet
Ġdra ught
Ġdra gees
Ġgy oz
Ġgy psy
Ġsals icce
Ġsals apreheat
Ġvent ing
Ġvent ed
Ġvessel s
Ġ102 0
Ġ102 6
Ġ102 00
Ġ106 3
Ġ106 5
Ġmaintain s
Ġ305 2
Ġ155 8
Ġ159 2
Ġsciss or
Ġ114 3
Ġ114 7
Ġ138 7
Ġ224 7
Ġ217 9
Ġpatch ed
Ġsouff les
jo jo
Ġtu ned
Ġtu ros
Ġtu wo
Ġtu xedo
Ġtum bler
Ġsam mies
Ġsam vat
Ġchang ed
Ġpep inos
Ġpep itan
veget ables
Ġsher ried
Ġshare goog
Ġka iser
Ġ107 0
Ġ107 2
Ġ107 3
ession al
unk nownchef
Ġenc ase
Ġ119 2
Ġ295 2
Ġ295 51
Ġ345 0
Ġdigest ars
Ġdigest golf
Ġaccompan y
Ġaccompan ied
lentil s
sw edish
sw itchel
Ġcab ra
Ġcomments please
Ġkar ipap
Ġ103 4
Ġ123 9
Ġscrub bing
Ġknock ing
Ġbarbe qued
Ġsnowball s
Ġportab ellos
cip essavory
fr isk
sc aloppine
Ġpav o
Ġfont inan
Ġbull eit
Ġmes ir
aken utritional
Ġlit ers
Ġshow s
Ġshow ers
Ġkit food
Ġexch ange
Ġ104 2
Ġclos et
Ġ112 3
Ġ112 6
Ġ116 4
Ġfricas ee
Ġ196 2
Ġ196 36
Ġ174 4
Ġesc apes
Ġ416 4
Ġ576 7
Ġcapsicum s
Ġblond e
Ġmarket the
Ġferment ation
pat io
Âº c
ĠÃ ¸lle
Ġtat ers
Ġtat tie
Ġtra vele
Ġtra velthe
Ġsel vare
Ġcamp aign
Ġbook azine
enz ie
Ġdak dor
Ġdress ingserve
Ġgro ve
Ġgro wn
Ġgro ats
Ġgro oves
Ġhop ing
Ġstarb uck
ste amy
Ġshrink ing
Ġoverl aps
Ġcorre ction
Ġscal ed
Ġ117 1
Ġ183 8
Ġ135 6
Ġ179 3
Ġ179 7
crust less
box es
Ġverben an
Ġdiffic ulty
Ġrapid rise
Ġpassion fruit
Ġgulasch suppe
12 1
16 4
fi ery
jul es
Ġsound ing
Ġwan na
Ġga illac
Ġlif ts
Ġinform ationserving
Ġplump ed
Ġchoco holic
Ġbloom ing
Ġtech nicaback
Ġdehydr ate
Ġdehydr ating
Ġ157 08
Ġ203 9
Ġpomo dori
Ġamar o
Ġamar illo
Ġ198 8
Ġ177 3
Ġ177 7
Ġ213 28
Ġ235 8
Ġ422 1
Ġconsider ing
Ġmicrowav ble
Ġcollect ing
Ġchocolat etopping
Ġfabul ously
mit will
nat alie
Ġcul turetre
Ġpak istan
Ġpet e
Ġpet it
Ġpim ente
Ġml ubbe
Ġmist ake
Ġyuc an
Ġchant relle
Ġeff ort
Ġunt ouch
Ġneat er
Ġneat en
Ġneat ly
Ġneat ness
Ġplay in
Ġplay dough
Ġwhist les
elbas a
Ġasaf oetida
Ġcalam ansi
Ġanal ida
Ġ457 8
Ġ108 4
Ġextend s
Ġ206 8
Ġ357 3
Ġprof essional
Ġproduc es
Ġproduc ed
Ġbrat wur
Ġ184 0
Ġ243 6
Ġ326 2
Ġ327 5
super food
Ġdisapp ears
Ġtechni ques
Ġcharmoul an
Ġschnitzel s
fen ugreek
line fish
make over
squ are
sun sweet
vid alia
Ġpk ts
Ġfri g
Ġbaker ita
Ġhom iny
Ġhom estlye
Ġcoff in
lebr itiesmeet
Ġum ido
Ġrisk ing
Ġnar ai
Ġhav ana
Ġhapp ened
Ġjean ettes
Ġjuk i
Ġheats in
Ġgrass hopper
Ġcarn aroli
Ġtend ency
Ġzu h
Ġ127 9
ĠpiÃ± on
Ġ144 81
Ġmacer ating
crack ed
Ġ380 1
Ġjamun s
Ġ726 7
Ġkielbas an
Ġmagn ifican
Ġchanterell e
Ġthought s
Ġhuckle berries
beet root
cap tain
cap onata
Ġtar occo
Ġsach ets
Ġcus inart
Ġfeed ssite
Ġband s
Ġband han
Ġwom anoctober
Ġdh al
Ġdraw ing
Ġgoose berries
Ġhy pe
Ġcoh erent
Ġinit ially
Ġchal upa
Ġspec ifications
Ġunref rigerated
Ġnast vis
char lotte
Ġsupp lement
Ġjans sons
Ġshoo ter
Ġshoo tersnot
Ġshield ing
Ġcris per
Ġapptit reprints
Ġ152 1
Ġmeals healthydessert
Ġload s
Ġload ing
Ġ147 3
Ġliquef y
Ġclay s
Ġclay ton
Ġsurpr ised
Ġ284 5
Ġ284 8
Ġguide line
Ġindic ate
Ġindic ator
Ġ348 2
Ġ551 8
Ġ536 9
Ġcrouton mixture
Ġideas fried
Ġpleas antly
Ġmalt agliati
Ġcelebr ation
Ġcamar Ã³n
urious gl
Ġsuggestions the
Ġsteril ised
Ġsteril ize
Ġmagnific a
20 8
fil et
fil ipino
ga jar
humm ingbird
ki wifruit
ki elbasa
kk ie
tz atziki
uel a
uel os
wor ths
Ã¢ Âºf
Ġsort s
Ġma ize
Ġmaster chef
Ġmention ed
Ġwrink les
Ġge m
Ġge melli
Ġgour dough
Ġlan tern
Ġluc uma
Ġland s
Ġlone ly
Ġspill ing
Ġmir acle
Ġuneven ly
Ġnic arag
Ġname ly
Ġsimpl ify
Ġjud ge
Ġseep ing
Ġseep ed
Ġoverheat ing
Ġcrud ites
Ġcrud itÃ©s
Ġcriss cros
Ġroman ian
Ġroman ina
Ġroman esco
Ġkash a
Ġcaram alised
Ġ303 5
Ġ202 5
Ġtrust y
Ġproble ms
Ġbrick le
Ġdrizzling with
Ġshredd able
Ġ290 2
Ġreturns to
Ġ650 5
Ġ537 4
ĠĠĠĠĠĠĠĠ ĠĠĠĠĠĠĠĠ
Ġprevious ly
Ġvaries if
snickerdood les
Ġoxid ation
Ġwoman september
Ġhydr ate
cre pes
div ine
fall en
lin er
men usholiday
pol ish
pol ated
rid iculously
tar occo
tort a
tort illa
Ġaver ie
Ġaver ages
Ġcure s
Ġthom pson
Ġpiment n
Ġfeather y
Ġbat tut
Ġming le
Ġming les
Ġmile age
Ġremin ded
Ġding y
Ġdanc es
Ġgirl s
Ġled ge
Ġlip tauer
Ġchic peas
Ġchew ed
Ġchew ies
Ġchee ecake
Ġemer il
Ġemer ge
Ġuni versally
Ġunmould ing
chan tilly
chan nelbr
chef sce
Ġjaff urs
Ġviol inist
Ġlear ned
Ġweigh ing
Ġshor va
Ġcalc ium
Ġprotect s
Ġwatt ages
Ġcheeseburger s
Ġ452 4
Ġkab oodle
Ġcontam ination
Ġheel s
Ġgreas iness
Ġsett les
Ġzig zag
Ġmars apone
Ġtransform ed
Ġloll ies
Ġcentim eter
Ġswas thi
turn ip
Ġmicro plane
Ġparticular ly
Ġ636 8
dev il
Ġblogg ers
Ġpriv ate
Ġsegment ing
Ġenclo sing
Ġcampbell s
Ġkombuch an
pintere stale
Ġutil ize
Ġjoseph inas
Ġescalop e
bi hon
bour bon
frost y
holiday sre
kn ishes
mar inara
mart inis
sil pat
sec ret
scr umptious
Ġais le
Ġsf inci
Ġsne ak
Ġsne aking
Ġsne aky
Ġthro roughly
Ġpay s
Ġpare ve
Ġpump s
Ġpump ing
Ġpump kins
Ġbus iness
Ġbist ro
Ġmou stache
Ġmim osas
Ġmid way
Ġmid west
Ġmam idikaya
Ġwr itten
enchilad a
Ġret rieve
Ġdim ensions
Ġhoo sier
Ġinvol ve
Ġinte grate
Ġchino ix
tot ally
Ġspe ar
Ġspe aking
Ġspe armint
com fort
Ġru ining
Ġrut h
Ġsaw ing
Ġsaw mill
Ġnas u
Ġsoap y
Ġsoap box
Ġwhisp erer
Ġsup rafr
Ġsuns hine
Ġsupr mes
Ġprem ier
Ġpreso aking
Ġprecise ly
Ġsaltimbo ca
Ġflay ing
Ġjj in
Ġjj apsa
Ġsheer a
Ġjun kyard
Ġupgr aded
Ġkad ai
Ġexper imental
Ġhell mann
Ġslim y
Ġblu berries
Ġblu efoot
Ġblu estem
Ġblush ing
Ġcarr abba
angel ettis
Ġscen evan
Ġproject s
Ġmorel s
Ġhott est
panc it
panc etta
panc akenutritional
Ġcurrent s
Ġpovit isa
Ġloos ened
Ġdrive how
saut eed
saut Ã©ed
Ġpinwheel s
Ġguides entertaining
Ġguides drinksco
Ġvirt ue
Ġsemicirc les
Ġ463 92
Ġ750 1
Ġ892 5
Ġnews letter
Ġnews menusholiday
Ġjulian ned
Ġmusc les
Ġmusc atel
Ġmusc adet
Ġvelve ty
Ġsignific ant
Ġdisinte grate
Ġinspir alized
Ġdrool ing
Ġâħ ĵ
Ġâħ Ķ
Ġâħ Ľ
scall oped
Ġintens ifies
restaurant s
Ġmajor can
Ġreminisce april
Ġcentimet res
Ġalign ing
Ġunflav ored
Ġrefridger ator
199 4
199 9
aust in
aust rian
bra ided
bra ndy
bah ia
bah nmi
gou gÃ¨res
gou geres
las agne
las agna
lone ly
mad hur
mouth watering
pop corn
port uguese
ras malai
win enonal
wal nut
wal nuts
yak hni
yak itori
Ġutter ly
Ġaer ation
Ġaer ated
Ġtas ks
Ġtas manian
Ġtint in
remo ve
Ġslee ve
Ġslee ves
Ġcir ca
Ġcir uela
Ġoc assionally
Ġoc asionally
Ġol sen
Ġped ro
Ġped as
Ġpry aniki
Ġpom fret
Ġfest ive
Ġbinag ongang
Ġbinag oongan
Ġwa istline
Ġwi ith
Ġwi ener
Ġwar rior
Ġwow ed
Ġwow wy
ane ously
Ġreve al
Ġreve als
Ġlam bs
Ġlam inating
Ġliter ally
Ġhon est
Ġhon estly
Ġhol ed
Ġhol stein
Ġinter polated
Ġince ption
Ġinject or
Ġcheat ed
coholic tool
Ġissue more
Ġrak ott
Ġrak sha
Ġripp li
Ġripp les
Ġnan ny
Ġnitr ites
Ġnitr ates
Ġpreap re
Ġpreap red
ques o
Ġjump ing
Ġshal ot
Ġshal ach
Ġcrump le
Ġcrump li
Ġrob ust
Ġrob usto
Ġanis ette
Ġanis seeds
Ġkur ma
Ġkur kuma
Ġkoul ourakia
Ġkoul araki
Ġlarges aucepan
Ġcarry ing
Ġwilli am
Ġwilli ams
Ġenh ance
Ġenh ances
Ġpropor tions
Ġpropor tioned
Ġhighball s
armen ian
Ġimpress ion
Ġimpress ions
Ġpolicy recipes
Ġpressuri ze
Ġpressuri zed
Ġspatchcock ed
Ġ699 5
Ġghir adelli
Ġghir ardell
Ġboun cy
Ġboun cing
Ġbokke um
Ġbokke umbap
trans ylvanian
Ġremind s
Ġremind er
Ġjewel s
Ġmistakes cook
Ġcantaloup e
Ġcantaloup es
Ġfibrous ness
prints avory
Ġbuckey e
Ġbuckey es
Ġyoplait greek
Ġpermission snewsletter
ĠprovenÃ§ al
ĠprovenÃ§ ale
twitterpinterestemail printour
twitterpinterestemail printsavory
200 1
bou illabaisse
bel gium
bur dock
bef ore
bare foot
benedict ine
bibim bab
boud in
bulg ur
cro que
cav atappi
clo ves
cub an
dep ending
favor ite
fud gy
fork selfteen
fau x
gro wnup
gor gonzola
gour melt
gall o
gdiet ary
hal ibut
hor seradish
has selback
hom estlye
jer k
jans sons
kar ahi
kim chi
kum quat
kom an
koul ourakia
kno ck
kabo cha
kdg rub
lar ge
lim oncello
louis iana
mam idikaya
may an
must ard
mugh lai
nar ai
pal ak
pri ze
pres erved
pap rika
pun ugulu
pers immons
pull ed
pho tograph
press ure
pudd ing
punj abi
serv ings
sto vetop
silk y
sand wich
spl it
sub mitwill
sna ppy
sang ria
srir acha
sug ared
tux edo
vents vegas
wil ted
was abi
wool worths
yish restaurants
zol o
Ġing ested
Ġill ustrated
Ġery thritol
Ġign ite
Ġaal u
Ġagg ressively
Ġaide lls
Ġame eliv
Ġaig re
Ġaub urn
Ġahe avy
Ġahum ado
Ġtal king
Ġtet ra
Ġtrou ble
Ġtigh ter
Ġtass o
Ġtub es
Ġtong ue
Ġtedd y
Ġtbl spn
Ġtsu yu
Ġtress es
invol tini
repic uriousgl
Ġsic ilia
Ġsry up
Ġsle nder
Ġsash imi
Ġsig ma
Ġsass y
Ġsady a
Ġsonom a
Ġcree py
Ġcrot ons
Ġcere als
Ġcumber s
Ġcats up
Ġcsus za
Ġcincys hopper
Ġthes aladbar
Ġozz z
escar gots
Ġpis til
Ġpon zu
Ġpac ific
Ġpion eer
Ġpach adi
Ġpoup on
Ġpitt a
Ġpise lli
Ġpened es
Ġpign oli
Ġfuy u
Ġfouth s
Ġandcrisp ed
Ġanddi jon
Ġbiry ani
Ġbles sed
Ġbals almic
Ġbart lett
Ġbount iful
Ġbier ocks
Ġbha ji
Ġmide astern
Ġmav en
Ġmck enzie
Ġmcc ormick
Ġmcco y
Ġmisin formed
Ġmchar gue
ĠmÃ¢ che
Ġtheout side
Ġthecr ushed
Ġthecent er
Ġwip ing
Ġwick ed
Ġwett ing
Ġwagg ing
Ġwigg led
Ġwien ers
itect ural
Ġredd ish
Ġregar dless
Ġreli able
Ġresp ective
Ġreapp ly
Ġretail ers
Ġreyno lds
Ġreinfor ce
Ġtoot in
Ġtodd y
Ġtoron to
Ġtocin eta
Ġtofut ti
Ġdun can
Ġdos akaya
Ġdub liner
Ġdrun k
Ġdja j
Ġdux elles
Ġdrench ed
Ġgam mon
Ġgir alt
Ġgol umpki
Ġgef ilte
Ġguts y
Ġgong ura
Ġgath ered
Ġgente ly
Ġgeno a
Ġlash ings
Ġlun gs
Ġlind y
Ġlente jas
Ġlux e
Ġlingon berry
Ġhur bs
Ġhein z
Ġhous in
Ġhue vos
Ġhos in
Ġhams moked
Ġhets zolo
Ġcovig lia
Ġinedi ble
Ġinno vation
Ġinbox submitwill
Ġyun hee
Ġyne z
Ġyank ee
Ġchec ks
Ġchach ere
Ġchich aron
Ġchrist y
Ġchik en
Ġchuh ai
Ġchasse ur
Ġfortun e
Ġubl ay
Ġeluc idate
Ġitab sorb
amour golf
Ġsprou ted
Ġspok es
Ġspino ccoli
cozz e
cott age
Ġbeij ing
Ġisab elle
Ġissu es
Ġservices contact
Ġstri kes
Ġstru del
Ġmizun a
Ġdaup hine
Ġrick shaw
Ġrant s
Ġrust ling
Ġrand omly
Ġriss ole
Ġroul ades
Ġrued a
Ġranger s
Ġradi ating
Ġritten house
stew ed
stfacebook like
Ġglist en
Ġunus ed
Ġunav ailable
Ġunra veling
Ġunheat ed
Ġunti ed
Ġuncor kdgrub
Ġunfort unately
Ġunfil tered
Ġunkn ownchef
Ġunhapp y
Ġsaum on
Ġsaew ujeot
Ġsable fish
Ġsagan aki
tilap ia
Ġuntilcrou tons
Ġnir vana
Ġnish iki
Ġnun ya
Ġnaz i
Ġnud ge
Ġnava jo
Ġnyony a
Ġcookiew eek
Ġcookiel ayer
chall ah
chest nut
chiff onade
Ġsuggs etions
Ġsupre mes
Ġconstit uent
Ġconstitut es
Ġconcer ned
Ġprefere nces
Ġprecis ion
Ġflamand e
Ġjey uk
Ġjacks on
Ġjamb on
Ġjord ans
Ġjavel in
Ġjanc si
Ġjumble berry
Ġvog uethe
Ġviv ible
Ġvict oria
Ġvien nese
Ġorgan ically
Ġlege ndary
Ġleices ter
Ġleew ay
Ġleban on
Ġpepperpre paration
Ġoilfill ing
Ġshime ji
Ġshah jeera
Ġshoe peg
Ġshops in
Ġshoest ring
Ġsimult aneously
Ġjung ol
Ġspoonfull s
Ġbrowin ies
Ġasper ges
Ġabricot s
Ġabund ance
Ġdesig ns
Ġcreativ ity
Ġseviy an
Ġoverpow ering
Ġcrsip y
Ġgarsn ishing
Ġrecipesvegetarian holidaysre
Ġrecipessu bscription
Ġrecipesfam ily
allurearch itectural
Ġmixturetrans fer
Ġcanne lloni
Ġonionss auted
Ġanard ana
Ġanah eim
Ġanton is
Ġanod ized
Ġannat to
Ġapprop riate
Ġchoctober fest
Ġcommer cially
Ġcompl iment
Ġcomma nder
Ġkare n
Ġkand a
Ġkuch en
Ġkitch entest
Ġkhe er
Ġkara as
Ġkik koman
Ġkilog rams
Ġkuw aity
Ġkatrin as
Ġkedge ree
Ġgrist le
Ġgritt y
Ġgrasp ing
Ġfoodist city
Ġfoodwith feelings
Ġgoodby e
Ġalarm ed
Ġalcap arrado
Ġmediumhigh heat
Ġboiull on
Ġexpl aining
Ġexteri ors
Ġlarrup ing
Ġtopkn ots
Ġcarpacc io
Ġcoolwh ip
Ġsaladdri zzle
Ġteame ventsvegas
Ġtequl ia
Ġdebon ed
Ġskinn ier
Ġbreadbak ers
Ġfreshdairy pancakenutritional
Ġtogetherthe chile
Ġextram arch
Ġextrase ptember
Ġzinfand el
artichok e
Ġencomp assing
Ġstorecare ersbon
Ġsprinklet he
Ġservingsfacebook pinterestale
Ġheadsp ace
Ġmarsc apone
Ġagne llo
Ġscaf atan
orecipes quick
Ġproingredients inside
Ġprosec co
Ġprogress iveeats
Ġmorebreakfast cornstarchfast
Ġmorefacebook twitterpinterestemailprintour
Ġsweetne er
Ġcookiessouth western
Ġblackcur rant
Ġdegreess pray
Ġmanzan illan
Ġmanaies h
Ġmaneu ver
Ġdramb uie
Ġtablespoo on
Ġbeforeremo ving
Ġstirringocc asionally
Ġtransmit ted
Ġtranslus cent
Ġbranch es
Ġbrusch ettan
Ġclodho ppers
Ġdocum ented
Ġrefrigerta ed
Ġgranual ted
Ġputton yos
Ġloving ly
Ġlofth ouse
Ġthroughpu ree
Ġtastebud ilicious
Ġneedlen ose
Ġcurvace ous
Ġtwothird s
Ġribo llita
Ġambit ious
Ġamatric iana
Ġacciugh e
Ġlittlemaf ia
Ġfraction ated
Ġcelci us
Ġsynth etic
kahl ua
Ġ1938 9
Ġcaulif lowe
ĠcaÃ± a
Ġcauif lower
Ġcaffien e
Ġstrascin ati
Ġmapmag azine
Ġtempe h
Ġdelicatess ens
Ġ2216 15
sprink le
speople chefsce
ĠespaÃ± ola
Ġmexical i
Ġimmideat ely
Ġnonpare ils
Ġscrumdilly icious
Ġpizzazzer ie
Ġ2713 8
Ġoccais ionally
indones ia
ambros ia
Ġswift ly
Ġbabypub lished
Ġperforman ce
Ġarchive cond
Ġreproduc ed
Ġguarante es
Ġstylepitch forkselfteen
Ġximine z
Ġspringfo am
Ġinstructionscomb ine
Ġkitchenvide orecipesquick
portobell o
ĠsnÃ¸ frisk
Ġcouscousoption al
Ġeleph ant
Ġpartners hips
Ġaccordanc ewith
Ġembr ace
ĠbuÃ± uelos
Ġ5947 6
Ġdepress ion
grrre at
Ġpolpett one
Ġgnoch hi
gsugar s
Ġpruss ian
Ġaccept ance
Ġcollaps es
Ġelaich i
Ġattem pt
Ġattemp ting
cktailsbeer winenonal
guewwired cond
Ġbecauseilike chocolate
Ġmonteneg ro
Ġbitesmar garita
Ġmercime kli
Ġaffili ate
Ġseasonedgre etings
Ġwidemouth ed
cleric o
Ġcrosshat ching
promotion stest
Ġrigalim oni
Ġsaffitz photograph
Ġjarls berg
Ġappetithealth yishrestaurants
Ġfairvo guewwiredcond
Ġportland promotionstest
Ġcastelvet rano
major can
Ġnaada a
Ġharpercoll ins
Ġtipscom mon
Ġlaurainthe kitchen
Ġlaufacebook twitterpinterestemailprintsavory
Ġhashbrown s
Ġcirclesfor love
Ġrecommendsaut ing
Ġyukkkkk kkie
Ġkeuri g
Ġalfaj ores
letwitterpintere stfacebooklike
Ġfusillo ro
Ġmagnoli a
Ġadventure s
brÃ¸ d
Ġripien i
Ġmuhog o
Ġmalmse y
Ġbakingsheet s
Ġniii iice
Ġdigital allurearchitectural
Ġnorweg ian
Ġkingkl ip
Ġbainmar ie
Ġmomnes ia
Ġworldgq gq
Ġgyoz a
Ġsharegoog letwitterpinterestfacebooklike
ĠÃ¸lle brÃ¸d
Ġtravele repicuriousgl
Ġselvare y
Ġdakdor itang
Ġtechnicaback channelbr
Ġculturetre nds
Ġuntouch ed
Ġbratwur sts
Ġnastvis it
Ġmealshealthydessert schicken
Ġnicarag ua
Ġcrisscros sing
ĠĠĠĠĠĠĠĠĠĠĠĠĠĠĠĠ ĠĠĠĠĠĠĠĠĠĠ
Ġbattut o
Ġsuprafr uta
Ġjjapsa hl
Ġscenevan ity
Ġguidesdrinksco cktailsbeerwinenonal
Ġnewsmenusholiday sgift
coholictool speoplechefsce
Ġghirardell i
Ġameeliv ingston
Ġpepperpreparation active
Ġrecipesvegetarianholidaysre cipessavory
Ġservingsfacebookpinterestale x
Ġtravelerepicuriousgl amourgolf
Ġtechnicabackchannelbr idescond
Ġguidesdrinkscocktailsbeerwinenonal coholictoolspeoplechefsce
Ġguidesdrinkscocktailsbeerwinenonalcoholictoolspeoplechefsce lebritiesmeet
